▁the	2473401
,	1704679
▁of	1196958
▁and	954617
▁to	944633
▁"	883133
."	782952
▁a	704532
.	674206
▁in	639845
-	552056
▁is	479563
s	405853
▁that	381093
'	375345
▁for	350947
▁on	280504
▁I	247918
▁as	243722
▁be	237064
▁it	232286
▁with	222989
▁by	208938
▁was	196987
▁will	191223
The	184983
▁are	184292
▁at	154916
▁you	148805
▁""	148342
▁from	139476
▁have	137566
▁has	130078
▁which	120917
▁not	116779
▁who	116463
▁an	111704
▁The	105762
▁this	101833
▁Korea	96251
▁but	95173
▁can	93191
▁or	90636
th	87692
▁said	84751
▁shall	84365
▁(	83576
In	79888
▁year	75088
▁been	74928
t	72859
▁time	72797
▁he	71446
▁there	68748
."""	65721
▁were	64675
▁his	63612
▁such	63540
?	61865
▁after	61803
▁so	61382
▁also	60116
▁when	59844
▁	59369
ing	59163
▁if	58563
▁Kim	58446
""	58393
▁more	57367
▁people	56845
▁they	56728
▁their	55629
▁than	55197
)	54319
▁first	54125
▁about	53807
▁head	53262
▁out	51623
▁we	49320
▁because	47479
▁It	47351
▁my	46504
▁Seoul	46477
I	45467
▁Gyeonggi	45419
▁its	45249
m	44510
▁one	44486
▁Korean	44378
▁may	43057
▁government	42914
▁won	40845
▁public	40778
▁up	40550
▁where	40539
▁all	40326
▁had	39640
It	39596
▁through	39360
▁last	39161
▁me	38306
S	37999
▁including	37341
,""	36862
▁due	36704
▁under	36591
▁your	36263
▁North	35924
▁two	35807
▁only	35735
▁other	35621
▁do	35596
▁like	35503
▁Gu	35393
▁Province	35219
▁new	34971
gu	34757
do	34185
If	33395
▁companies	33170
/	32635
▁day	32603
▁high	32362
▁should	31693
▁National	31442
▁them	30755
▁would	30400
▁no	30247
▁over	30026
▁held	29994
▁A	29964
▁years	29942
▁U	29733
▁support	29306
As	29241
▁Lee	29171
▁company	29005
▁made	28751
▁business	28740
▁"""	28350
▁into	28343
▁work	28334
▁2	28127
▁system	27749
A	27523
▁number	27341
▁market	27281
▁between	27201
▁make	26863
▁take	26855
▁local	26349
▁school	26086
▁use	25963
▁1	25834
▁even	25766
▁since	25638
▁3	25363
▁members	25037
▁many	24939
d	24714
▁while	24566
▁go	24210
▁order	23886
▁management	23723
▁team	23461
▁well	23457
▁each	23400
▁good	23222
▁want	23180
▁get	23055
▁next	22976
▁being	22903
▁expected	22662
▁think	22617
▁President	22513
▁etc	22425
▁Party	22271
▁our	22020
▁Ministry	21896
▁Park	21889
▁her	21870
?"	21801
▁City	21785
▁project	21717
ed	21693
▁three	21601
▁any	21577
▁10	21570
▁meeting	21535
▁Article	21478
),	21395
▁official	21219
▁some	21168
▁necessary	21107
▁person	21084
▁before	20975
▁We	20964
▁million	20791
▁during	20778
▁place	20686
▁need	20677
▁Committee	20657
▁This	20486
▁office	20359
When	20241
▁police	20213
▁Act	20108
▁5	20092
▁could	19986
▁case	19845
▁month	19706
▁Metropolitan	19627
▁know	19590
▁same	19560
▁what	19490
▁plan	19463
▁students	19185
▁education	19146
▁second	19118
▁various	19036
▁Government	18912
▁residents	18909
▁days	18899
▁service	18852
▁area	18743
▁without	18704
▁now	18624
▁former	18491
▁4	18322
▁Do	18278
▁used	18176
▁information	18155
▁don	18122
We	18105
▁China	18011
▁products	17990
in	17819
▁right	17680
▁am	17668
▁related	17655
▁most	17409
▁how	17366
▁long	17363
▁facilities	17362
▁“	17311
▁investigation	17305
▁industry	17270
▁life	17231
▁special	17115
According	17108
▁city	17042
▁South	17036
▁saying	17017
▁small	17007
▁just	16875
▁around	16857
▁within	16801
▁world	16724
▁following	16703
▁development	16627
▁Center	16489
▁children	16484
▁increase	16459
▁billion	16333
ll	16214
she	16177
▁Moon	16050
▁announced	16040
▁lot	16010
▁much	15848
This	15684
▁party	15680
▁rate	15651
▁referred	15603
▁against	15599
▁center	15546
▁did	15509
st	15440
▁'	15375
▁20	15370
▁price	15368
▁There	15225
▁among	14916
▁country	14900
▁University	14861
▁see	14818
▁process	14812
▁operation	14779
▁end	14728
▁financial	14704
▁large	14651
▁period	14640
▁whether	14611
▁social	14607
▁report	14385
▁You	14319
▁him	14298
▁Jae	14296
▁economic	14262
▁going	14241
▁home	14235
▁cases	14198
▁total	14087
▁group	13990
▁national	13949
▁very	13939
▁policy	13860
▁come	13852
▁officials	13846
▁way	13843
▁event	13828
▁charge	13792
▁help	13714
▁6	13703
▁performance	13575
There	13566
▁product	13553
▁budget	13537
▁working	13535
▁change	13500
▁fact	13484
▁construction	13413
▁found	13386
▁difficult	13330
▁future	13319
▁food	13307
nt	13288
▁means	13261
▁family	13207
▁measures	13200
▁Governor	13110
▁30	13105
▁Office	13086
▁back	13044
▁become	12986
▁again	12941
▁those	12920
▁committee	12918
▁situation	12895
▁Jung	12850
On	12845
▁attention	12826
▁amount	12814
▁Ordinance	12806
▁water	12743
▁Minister	12679
hereinafter	12653
dong	12634
▁member	12567
▁power	12527
▁provide	12517
▁7	12488
▁fire	12466
▁problem	12458
▁term	12422
▁matters	12422
At	12414
▁possible	12338
ve	12247
:	12240
▁she	12219
▁reported	12217
▁Assembly	12201
▁every	12192
▁sales	12133
▁down	12103
▁received	12089
▁percent	12063
▁particular	12058
▁best	12022
▁together	11984
’	11981
▁job	11926
▁set	11833
▁private	11827
▁activities	11821
▁say	11787
▁give	11776
▁areas	11772
▁part	11759
ly	11748
re	11747
▁today	11697
▁money	11631
▁too	11573
▁technology	11567
▁room	11565
▁Please	11540
▁using	11516
▁growth	11463
▁visit	11450
▁data	11422
▁department	11398
▁interest	11397
▁safety	11353
▁game	11291
▁until	11272
▁director	11267
▁workers	11237
▁decided	11234
▁real	11192
▁different	11186
▁8	11186
al	11178
▁general	11146
▁here	11133
▁province	11117
He	11100
▁projects	11096
▁based	11060
▁Education	11048
▁half	11039
▁increased	11021
▁reason	10989
▁why	10984
▁women	10973
▁pursua	10947
▁major	10931
▁hard	10918
▁experience	10901
▁four	10855
▁able	10853
▁Trump	10835
▁tax	10828
▁pay	10791
▁results	10790
▁countries	10789
▁Samsung	10788
▁president	10778
▁low	10776
▁five	10767
▁important	10760
▁Busan	10731
▁He	10682
▁times	10654
▁US	10644
▁level	10638
er	10638
y	10638
▁foreign	10604
▁us	10589
▁main	10582
▁Council	10578
▁still	10511
▁then	10434
▁relevant	10415
▁9	10390
▁off	10370
▁car	10359
▁left	10348
▁affairs	10347
▁KRW	10324
nd	10304
▁making	10297
▁check	10271
▁these	10254
▁past	10243
▁That	10192
▁Incheon	10159
▁issue	10041
▁military	10039
▁economy	10022
▁domestic	10021
▁came	10006
▁plans	10004
▁building	9994
▁released	9993
▁early	9990
▁hope	9982
▁labor	9976
▁investment	9943
▁took	9938
▁Japan	9899
▁health	9883
▁start	9883
▁paragraph	9860
▁Dong	9796
▁find	9770
▁15	9763
▁12	9758
▁law	9755
▁agreement	9748
▁attached	9735
▁Court	9719
her	9697
▁research	9673
▁result	9645
▁week	9632
▁11	9629
▁put	9597
▁does	9583
▁prosecution	9569
Although	9561
"",	9530
"")	9499
▁must	9479
▁house	9453
▁provincial	9418
▁medical	9416
▁care	9414
the	9403
▁Chinese	9403
▁chairman	9398
a	9383
▁site	9354
ho	9346
▁own	9332
”"	9329
▁What	9318
▁services	9312
After	9293
▁expenses	9245
▁request	9224
▁citizens	9217
▁global	9179
▁media	9178
▁environment	9170
▁paid	9144
▁current	9143
▁name	9139
▁hours	9095
▁show	9085
▁Institute	9061
▁receive	9057
▁employees	9046
▁went	9011
▁months	8960
▁please	8949
▁New	8948
▁purpose	8937
▁apply	8920
▁Jong	8909
▁feel	8904
▁strong	8895
▁addition	8858
▁cooperation	8858
▁called	8850
▁per	8835
▁front	8798
However	8763
Kim	8749
▁full	8747
rd	8720
▁body	8719
▁District	8715
▁look	8709
▁once	8708
▁already	8655
▁explained	8635
▁according	8614
▁cannot	8583
▁send	8572
▁court	8568
▁Chairman	8557
▁free	8534
▁self	8528
▁conducted	8521
▁prices	8517
▁application	8488
▁training	8412
▁morning	8409
▁create	8407
▁payment	8373
For	8370
▁Service	8354
▁state	8345
Since	8335
▁Young	8332
▁great	8313
▁seems	8293
▁participate	8285
▁Democratic	8266
▁big	8262
▁administration	8254
▁organizations	8246
▁selected	8237
▁open	8234
▁recently	8219
▁Choi	8217
▁agency	8195
▁got	8188
▁living	8185
▁point	8176
▁p	8174
▁trade	8129
▁top	8127
▁play	8107
▁young	8101
ri	8100
▁18	8095
▁meet	8092
▁less	8092
▁welfare	8089
▁production	8054
▁date	8032
▁side	8017
▁summit	8013
▁test	7986
▁established	7984
▁away	7980
▁administrative	7974
e	7948
▁May	7943
▁Japanese	7923
▁prevent	7920
▁likely	7902
▁cost	7900
▁re	7878
▁English	7866
▁My	7866
▁culture	7864
▁income	7859
ary	7853
▁better	7851
▁floor	7839
▁13	7836
▁rights	7807
▁taking	7785
▁program	7776
▁both	7760
▁field	7749
▁hold	7740
▁live	7739
)."	7736
▁contract	7724
▁leader	7699
▁improve	7671
▁United	7654
soo	7640
▁child	7637
▁accident	7632
▁old	7629
▁100	7626
▁continue	7615
▁damage	7591
▁persons	7589
▁demand	7587
▁election	7578
:"	7574
▁security	7547
▁asked	7540
▁representative	7526
▁community	7518
▁non	7507
▁Mayor	7505
▁confirmed	7495
▁human	7484
▁ceremony	7477
▁Cho	7471
▁let	7466
▁another	7462
▁things	7460
▁Commission	7457
▁competition	7433
▁soon	7433
▁establish	7418
▁organization	7416
▁problems	7416
▁treatment	7386
▁man	7379
▁Gwangju	7372
▁love	7364
▁Association	7344
▁season	7342
▁started	7319
▁fine	7309
▁employment	7306
▁air	7300
▁didn	7270
▁caused	7260
▁Group	7258
▁(1)	7236
▁late	7225
▁inspection	7219
▁institutions	7193
▁decision	7185
▁line	7184
▁19	7180
▁third	7148
▁parents	7134
D	7118
young	7117
▁provided	7116
▁16	7100
▁lead	7099
▁led	7092
▁ruling	7092
▁along	7075
▁international	7066
▁policies	7052
▁showed	7049
▁housing	7024
▁added	7022
▁players	7018
▁video	7001
▁14	6999
▁position	6994
▁opening	6986
▁World	6975
▁previous	6968
With	6959
▁cultural	6954
▁How	6938
▁visited	6924
▁book	6908
▁Dae	6894
▁sent	6890
▁opposition	6870
▁pointed	6866
▁subject	6860
▁insurance	6855
▁B	6852
▁&	6847
▁district	6845
▁trial	6844
▁minutes	6813
min	6804
▁schools	6788
▁experts	6763
▁cause	6745
▁promote	6736
▁quality	6725
▁class	6724
▁space	6721
▁having	6719
up	6690
▁funds	6689
▁became	6684
Even	6676
▁March	6676
▁card	6676
▁facility	6674
▁move	6656
▁design	6638
▁International	6629
▁Jeju	6620
year	6611
▁history	6611
▁directly	6608
▁jobs	6605
▁middle	6601
▁attended	6599
▁changed	6588
▁additional	6581
▁others	6579
▁conditions	6572
▁trillion	6568
▁prepare	6558
▁value	6549
▁bus	6543
▁call	6541
▁little	6533
Korean	6531
▁School	6522
▁Liberty	6515
▁effect	6512
▁known	6507
won	6501
▁political	6498
▁night	6481
▁applied	6477
▁land	6472
▁Provincial	6469
▁House	6465
▁25	6461
▁control	6460
▁really	6459
▁short	6459
▁return	6458
▁region	6441
▁businesses	6441
▁actively	6437
▁existing	6436
▁joint	6421
▁far	6411
▁revealed	6408
▁17	6402
▁overseas	6398
▁completed	6397
▁raised	6383
▁tell	6370
▁chief	6370
▁stock	6366
▁customers	6362
▁supply	6357
▁store	6354
se	6322
jin	6313
▁senior	6313
▁Station	6306
▁exchange	6302
▁located	6288
▁emergency	6285
▁society	6279
Gyeonggi	6276
▁So	6248
▁study	6244
▁Kang	6242
▁final	6230
▁later	6224
▁road	6213
▁always	6198
▁run	6192
▁promotion	6191
▁age	6188
▁least	6188
▁survey	6174
▁Supreme	6174
▁Is	6173
▁role	6172
▁given	6165
▁thought	6164
▁Han	6163
▁sector	6162
▁six	6144
▁civil	6142
▁Can	6129
▁buy	6126
▁medium	6113
▁industrial	6109
▁keep	6108
▁Affairs	6107
▁face	6096
▁wage	6084
▁Shin	6084
▁war	6066
▁hospital	6054
▁States	6053
▁materials	6049
▁taken	6045
▁evaluation	6042
▁Sung	6040
▁24	6023
▁possibility	6022
▁Ji	6019
▁higher	6017
Where	6017
▁50	6011
▁basic	6005
▁April	5989
▁operating	5984
▁near	5979
▁In	5967
hyun	5966
▁Public	5962
▁planning	5952
▁response	5951
▁stage	5945
▁review	5941
▁issues	5940
si	5936
▁fees	5933
▁June	5929
▁began	5928
▁match	5905
▁Hong	5886
▁account	5881
▁July	5879
▁costs	5855
2	5849
An	5840
▁dust	5835
▁student	5829
▁Financial	5821
▁phone	5813
on	5811
▁news	5804
▁participated	5794
▁21	5793
G	5753
▁average	5750
▁share	5747
▁recent	5746
▁energy	5742
▁Form	5722
▁points	5708
▁often	5704
▁27	5691
▁conduct	5676
▁compared	5676
(	5676
▁controversy	5676
▁officer	5667
▁goal	5647
▁though	5646
▁something	5640
▁leave	5638
▁opinions	5631
▁music	5630
▁Bank	5622
▁increasing	5620
▁Management	5619
▁never	5612
▁form	5607
▁looking	5603
▁rather	5602
▁largest	5600
▁accordance	5595
▁Seung	5590
▁easy	5574
▁advance	5560
▁regular	5557
▁seen	5511
▁Agency	5505
▁inter	5495
▁operate	5494
▁CEO	5493
▁popular	5487
▁Hyun	5486
▁vehicle	5474
▁afternoon	5467
▁documents	5464
▁key	5462
▁illegal	5459
▁Provided	5445
▁movie	5441
▁equipment	5441
▁makes	5440
▁Kyung	5436
▁press	5432
▁complex	5429
▁friend	5421
▁Gangwon	5417
▁Department	5415
▁words	5408
▁Police	5407
▁tomorrow	5400
term	5399
▁families	5398
▁course	5387
▁try	5384
▁vice	5376
▁conference	5374
▁expand	5368
▁opinion	5362
▁friends	5358
▁outside	5357
▁Trade	5355
▁Administration	5353
▁Yoon	5350
▁needed	5346
▁Yang	5340
While	5340
▁regulations	5337
▁yet	5333
▁Jin	5325
▁ask	5324
▁parties	5324
▁items	5319
▁No	5315
n	5309
▁23	5301
▁cities	5300
▁enough	5300
▁death	5297
▁manager	5289
▁September	5289
▁22	5281
▁ago	5279
▁personnel	5277
▁Min	5275
▁secretary	5267
▁size	5253
▁eat	5243
▁governments	5240
▁enjoy	5236
sized	5235
▁talk	5219
▁works	5216
▁submit	5215
un	5214
▁method	5214
▁story	5214
▁rise	5212
▁status	5209
▁establishment	5207
Yes	5192
▁minimum	5190
""."	5187
U	5180
▁Electronics	5175
▁sorry	5172
▁getting	5169
▁charges	5163
▁close	5158
woo	5156
▁created	5155
▁growing	5152
▁nuclear	5152
▁met	5149
▁Seo	5148
▁Justice	5147
▁needs	5143
▁starting	5139
▁hit	5134
▁online	5126
▁currently	5124
▁improvement	5123
▁S	5123
▁reduce	5122
▁authorities	5118
▁28	5117
▁sports	5114
▁Sang	5110
▁Land	5094
▁estate	5093
▁They	5092
▁40	5085
▁Hyundai	5066
▁happy	5056
▁developed	5055
▁ahead	5054
▁purchase	5042
▁travel	5030
▁audit	5028
To	5024
▁sexual	5019
▁photo	5015
▁transportation	5013
▁expressed	5012
▁lower	5011
▁develop	5009
to	5004
▁vehicles	5000
hee	4989
▁efforts	4986
▁traffic	4984
▁26	4984
▁present	4979
▁told	4975
▁leading	4969
▁Corporation	4963
▁legal	4956
▁understand	4950
▁prepared	4949
▁lost	4945
▁groups	4940
▁passed	4939
time	4938
▁trip	4924
▁record	4920
▁”	4913
▁mobile	4912
▁crisis	4910
▁believe	4904
▁E	4898
▁introduced	4879
▁active	4876
▁council	4873
r	4873
▁governor	4869
▁users	4864
▁oil	4852
▁changes	4851
▁Research	4844
▁parking	4843
ro	4837
▁lives	4836
▁appointed	4835
▁Tae	4830
▁un	4828
▁university	4817
▁gave	4814
Because	4812
▁candidate	4811
▁Gangnam	4811
denuclearization	4803
▁continued	4798
▁Asian	4797
▁schedule	4793
▁designated	4793
▁single	4776
▁mother	4772
▁Jang	4768
▁Internet	4765
▁model	4764
▁deliberation	4763
▁exhibition	4762
▁written	4761
▁personal	4758
▁alone	4756
▁female	4743
▁State	4741
▁considered	4731
▁spread	4727
▁opened	4726
▁fall	4723
▁Daegu	4719
▁Health	4712
▁included	4708
▁regional	4708
▁further	4706
▁regarding	4697
▁list	4690
▁division	4685
▁staff	4685
▁heard	4680
▁C	4676
▁daily	4669
▁clear	4664
▁contents	4663
▁Development	4662
▁cars	4652
▁approval	4645
▁programs	4633
▁sold	4632
▁K	4630
▁operated	4627
▁men	4624
▁January	4620
▁action	4612
▁prescribed	4610
▁agencies	4609
▁negotiations	4597
▁Co	4597
▁October	4594
▁fund	4594
Lee	4593
▁enter	4593
▁immediately	4593
▁patients	4588
▁issued	4585
▁Prime	4584
C	4581
▁shows	4580
▁Yoo	4580
▁station	4580
▁lack	4577
▁institution	4576
▁driving	4571
▁bill	4570
▁receiving	4570
▁apartment	4568
▁round	4565
▁property	4560
▁similar	4557
▁events	4556
▁concerning	4549
▁standard	4547
g	4542
▁kind	4541
▁August	4541
l	4540
▁duties	4538
▁details	4531
▁But	4531
▁standards	4525
▁terms	4525
▁questions	4525
▁picture	4517
▁union	4510
▁inside	4508
▁art	4506
▁transfer	4500
▁individual	4495
▁content	4491
▁seven	4491
▁implement	4490
▁scene	4483
▁Welfare	4480
▁communication	4480
▁talks	4479
▁Jeong	4475
▁Labor	4474
▁heat	4469
▁disaster	4467
▁several	4467
▁takes	4463
▁win	4455
▁Yong	4453
▁woman	4453
▁places	4451
▁professor	4444
▁natural	4441
▁summer	4432
▁few	4431
▁Vice	4427
”	4424
▁submitted	4422
▁contact	4418
▁youth	4417
▁highest	4414
▁Wa	4410
▁Security	4408
▁light	4399
▁done	4398
▁fee	4396
▁traditional	4391
▁burden	4389
▁reform	4387
▁December	4387
▁trying	4386
▁executive	4380
▁considering	4378
▁urban	4371
o	4360
You	4360
▁easily	4360
▁participation	4358
▁consumers	4357
▁analysis	4357
▁credit	4357
▁chairperson	4351
▁determined	4351
▁Chang	4346
▁29	4345
▁professional	4344
▁presidential	4339
▁excellent	4334
▁actual	4334
▁Nam	4319
▁available	4318
▁corporate	4317
▁bank	4316
▁Support	4310
▁goods	4310
▁God	4309
▁parts	4308
▁cold	4305
▁carried	4304
▁games	4301
▁pressure	4301
▁bad	4295
▁(2)	4284
▁crime	4284
▁hand	4283
▁risk	4282
il	4280
▁relationship	4278
▁central	4272
▁Cheong	4270
▁centers	4268
President	4264
▁implementation	4256
▁reduced	4253
▁rice	4243
▁co	4242
▁metropolitan	4232
▁doing	4229
▁Chung	4229
▁poor	4222
▁quickly	4220
▁include	4220
▁session	4216
▁disease	4215
▁coming	4189
▁November	4189
▁households	4183
▁impact	4181
▁doesn	4178
▁certain	4170
▁capital	4169
mi	4165
▁Island	4164
▁Song	4156
▁college	4151
▁Foundation	4150
▁relations	4146
▁sanctions	4144
▁mind	4132
▁type	4121
▁Technology	4119
▁statement	4111
▁stop	4098
▁wanted	4094
▁industries	4089
▁church	4088
▁waste	4087
▁original	4082
▁delivery	4081
▁Transport	4081
▁forward	4074
▁restaurant	4074
▁matter	4069
▁played	4068
▁fell	4067
▁might	4065
▁concerns	4062
level	4055
▁2018	4050
▁High	4050
▁manage	4041
▁heart	4040
▁learning	4040
▁built	4035
▁She	4031
▁distribution	4028
▁Sun	4027
▁attend	4027
▁ordered	4022
▁loan	4018
▁father	4013
▁February	4010
▁worth	4010
▁nation	4005
▁leaders	4003
▁markets	4003
deemed	3996
▁Hwang	3991
▁Mr	3988
▁holding	3987
▁caught	3986
Among	3983
▁famous	3983
▁village	3983
old	3981
▁stores	3980
▁required	3980
▁Defense	3979
▁enterprises	3979
▁hot	3978
▁Industrial	3975
▁victims	3966
▁failed	3964
▁benefits	3963
▁Special	3953
▁agricultural	3952
▁post	3952
▁raise	3948
▁showing	3946
▁Fund	3939
▁opportunity	3936
▁teams	3936
▁saw	3935
▁Cup	3931
▁reduction	3931
▁peace	3928
related	3928
▁e	3926
▁message	3918
They	3909
▁series	3892
▁resources	3889
▁thing	3888
▁temperature	3885
▁drawing	3883
▁festival	3882
▁Safety	3880
▁wife	3878
▁base	3877
▁Russia	3877
▁brand	3869
▁Hall	3866
▁31	3865
▁difficulties	3857
▁document	3852
es	3849
▁sense	3846
c	3846
▁falling	3844
▁accounting	3843
local	3840
▁eyes	3834
▁below	3829
▁direction	3827
▁filed	3827
▁structure	3826
▁commissioned	3825
▁accidents	3821
▁launched	3816
▁scheduled	3815
▁Secretary	3811
▁installed	3810
▁Science	3809
▁headquarters	3808
▁requested	3807
▁examination	3803
▁elderly	3798
▁interested	3797
▁Let	3797
gun	3796
▁trend	3791
▁true	3788
▁question	3785
▁rates	3782
▁protection	3780
▁Local	3770
▁commercial	3767
▁educational	3765
▁board	3764
▁duty	3760
yeon	3760
▁direct	3759
▁strengthen	3756
▁Culture	3755
▁minister	3754
▁sure	3743
▁evidence	3739
▁yesterday	3737
▁raising	3729
▁user	3729
▁60	3728
▁whole	3726
▁tried	3720
i	3718
▁incident	3715
▁Promotion	3715
▁D	3714
▁hearing	3713
▁sites	3711
▁Si	3709
▁reality	3706
▁instead	3703
First	3702
▁earlier	3695
▁Ha	3694
▁occurred	3693
▁skin	3689
▁plant	3688
▁Donald	3686
▁behind	3683
▁Business	3678
▁fourth	3672
▁stressed	3670
▁followed	3668
▁cut	3667
▁felt	3664
▁secure	3658
▁color	3657
▁interview	3657
▁loans	3657
▁population	3652
▁Infrastructure	3650
▁intends	3644
▁degrees	3641
an	3637
▁focus	3636
▁Festival	3631
B	3631
▁solve	3630
▁bring	3627
▁weather	3623
▁comes	3622
ers	3618
▁annual	3617
▁grow	3612
san	3610
▁network	3606
▁agreed	3605
▁deal	3597
▁player	3596
▁anything	3595
▁build	3592
▁hands	3583
▁wrong	3582
▁rest	3581
▁Finance	3579
▁Industry	3578
▁Blue	3577
▁Won	3570
▁positive	3568
▁died	3564
▁internal	3559
▁Economic	3556
N	3554
▁G	3553
▁ways	3553
▁entrance	3545
▁owner	3543
▁Then	3543
▁hotel	3543
▁participating	3542
▁violence	3540
▁investigating	3536
▁environmental	3536
▁club	3531
▁books	3530
No	3528
▁language	3524
sung	3522
▁Ki	3521
▁atmosphere	3512
▁itself	3511
▁song	3508
▁shopping	3508
▁involved	3505
▁Director	3503
▁beautiful	3499
▁winter	3497
or	3492
▁Lotte	3485
▁introduce	3481
▁authority	3481
▁reasons	3474
less	3473
▁proposed	3468
▁quarter	3466
▁prevention	3466
▁son	3465
,”	3461
▁disabled	3460
▁view	3460
▁organized	3459
▁sale	3454
ra	3452
▁expansion	3448
▁release	3445
▁TV	3443
▁Decree	3440
▁ground	3439
▁Central	3437
▁defense	3436
▁common	3434
▁entered	3431
▁heavy	3430
▁coach	3430
▁highly	3429
▁specific	3428
▁reading	3422
▁sea	3421
▁ability	3418
▁launch	3417
▁act	3414
▁gas	3413
▁compensation	3410
▁basis	3410
▁skills	3410
▁properly	3409
Park	3407
▁entire	3407
▁T	3403
▁movement	3402
▁ensure	3398
▁delivered	3398
▁universities	3397
▁moment	3397
hwan	3393
▁convenience	3392
▁corporation	3391
seok	3389
▁chance	3385
▁writing	3385
▁profit	3383
▁worked	3382
▁stay	3382
▁couldn	3381
▁posted	3380
ic	3378
▁houses	3372
▁implemented	3371
▁film	3366
▁rain	3365
K	3361
▁customer	3358
▁watch	3349
scale	3348
▁turned	3348
▁progress	3347
▁learn	3347
▁effects	3346
▁step	3345
▁beginning	3344
▁green	3340
▁creating	3338
▁follow	3337
▁eight	3336
▁difference	3332
▁serious	3330
▁speed	3327
▁produced	3326
▁image	3322
▁banks	3322
▁teacher	3321
▁criticized	3317
▁discuss	3316
▁character	3314
▁predicted	3314
▁pre	3314
▁creation	3312
▁read	3311
▁anniversary	3310
▁arrest	3310
▁Suwon	3308
▁across	3307
▁holiday	3304
▁reports	3303
▁safe	3298
▁responsibility	3295
▁comprehensive	3290
▁fans	3288
▁candidates	3286
▁collection	3286
▁Day	3282
▁someone	3281
▁condition	3279
▁generation	3278
▁(1),	3275
▁export	3273
▁proposal	3271
▁appeared	3268
▁website	3260
China	3253
1	3252
▁Chairperson	3251
▁loss	3250
▁conflict	3248
T	3248
▁elementary	3244
▁force	3243
▁Asia	3239
▁visiting	3239
▁Ahn	3235
▁hour	3235
▁pass	3234
▁Air	3230
▁Oh	3223
▁usually	3221
▁physical	3220
▁teachers	3219
▁Enforcement	3219
▁daughter	3217
▁innovation	3211
▁limited	3208
▁Chief	3207
▁consideration	3206
North	3204
man	3203
▁Life	3202
p	3200
▁owners	3199
▁address	3197
▁announcement	3196
hoon	3192
friendly	3192
▁manufacturing	3184
▁Eun	3182
▁signed	3176
▁tourism	3176
▁registration	3173
▁providing	3165
▁Why	3165
able	3165
▁maintain	3160
▁recommended	3160
▁deputy	3156
▁complete	3155
▁allow	3152
▁driver	3151
▁toward	3151
▁theme	3150
▁hall	3148
▁arrested	3146
▁Peninsula	3145
▁giving	3140
▁suspected	3137
▁An	3135
▁sell	3133
▁responsible	3132
▁file	3131
▁Son	3125
▁blood	3124
▁consultation	3124
▁expect	3117
▁example	3117
▁Sports	3110
▁train	3108
▁carry	3104
▁perform	3103
&	3102
▁drama	3101
▁unit	3100
Some	3096
▁investors	3096
▁Complex	3095
▁mid	3094
▁actually	3092
▁Hee	3087
▁nature	3086
▁heads	3084
▁says	3079
▁electric	3077
▁search	3076
▁branch	3075
▁limit	3075
based	3072
▁200	3067
▁red	3066
▁People	3062
▁answer	3062
▁Na	3055
▁1,	3054
▁pain	3051
▁General	3049
▁Food	3045
▁reached	3043
▁Se	3041
▁letter	3039
▁entrusted	3038
▁material	3038
▁returned	3037
▁Foreign	3034
▁household	3033
▁sign	3030
▁preparing	3028
▁forest	3028
▁wait	3027
▁prescribe	3026
▁airport	3026
▁idea	3025
▁elections	3023
▁criticism	3021
▁taste	3018
▁taxi	3018
▁hair	3016
▁mentioned	3014
▁except	3013
▁Daejeon	3013
▁street	3011
▁R	3005
▁registered	3005
▁jurisdiction	2990
▁Federation	2986
▁Vietnam	2985
▁target	2982
▁appointment	2981
▁protect	2981
▁voice	2980
▁park	2979
▁ever	2974
▁overall	2973
▁function	2972
▁notify	2972
ation	2970
yong	2970
▁simple	2968
▁career	2968
▁section	2964
▁science	2963
▁turn	2961
▁practice	2960
▁separate	2960
▁ratio	2960
▁clothes	2958
▁Are	2955
▁variety	2954
▁analyzed	2953
▁Airport	2952
sik	2952
▁lawmakers	2952
▁trust	2951
▁strategy	2951
▁paper	2948
▁unique	2947
E	2947
▁adding	2941
▁fast	2940
▁fair	2939
▁biggest	2938
▁And	2937
▁Year	2936
▁Union	2936
tae	2930
▁intention	2927
▁anti	2925
▁running	2922
▁expectations	2918
▁fun	2917
▁reportedly	2916
▁cancer	2915
▁nearby	2914
▁dream	2910
▁River	2908
▁sharing	2906
▁shown	2906
▁participants	2904
▁bit	2903
▁becomes	2901
▁records	2898
▁zone	2897
▁buildings	2896
▁visitors	2893
▁nothing	2891
▁warrant	2889
▁recognized	2889
▁investigate	2888
▁moved	2880
▁Germany	2880
▁fully	2872
▁expanding	2871
▁himself	2865
▁Women	2864
▁Gyeongsang	2863
By	2861
▁selling	2860
▁East	2859
▁resolution	2857
▁rental	2856
▁determine	2855
▁respectively	2855
▁goes	2855
▁allowed	2853
▁themselves	2852
le	2848
▁certificate	2846
▁award	2846
▁sound	2843
▁northern	2837
▁clean	2836
▁significant	2835
▁tourists	2835
▁claimed	2835
it	2833
▁older	2832
▁supporting	2831
▁reach	2830
▁separately	2830
▁provisions	2828
▁counseling	2825
▁eligible	2825
▁closed	2823
▁exports	2821
▁winning	2820
▁bought	2818
▁foundation	2817
▁resident	2815
▁Hospital	2810
su	2806
na	2805
▁pm	2803
▁moving	2803
▁includes	2802
▁abroad	2801
▁exercise	2801
▁platform	2801
▁relatively	2796
▁location	2796
▁Lim	2795
▁competitiveness	2794
▁circumstances	2794
▁revision	2794
During	2792
▁dollars	2791
▁meetings	2788
▁pension	2787
▁break	2787
▁classes	2786
▁coffee	2783
▁newly	2781
;	2779
▁selection	2777
▁black	2775
▁improving	2772
▁agenda	2772
▁maintenance	2769
Regard	2769
▁performances	2768
▁broke	2768
▁vacation	2763
▁thinking	2763
▁stocks	2761
▁becoming	2761
▁Byung	2760
▁improved	2758
▁measure	2753
▁provides	2753
▁farmers	2753
▁assets	2747
jung	2747
▁Environment	2743
▁delayed	2740
▁looks	2739
▁employee	2738
▁planned	2737
▁rising	2737
▁hear	2736
▁technologies	2734
▁prize	2734
▁especially	2733
▁success	2731
▁ball	2731
▁suffering	2731
▁victim	2729
▁American	2728
▁gender	2726
P	2726
▁introduction	2723
▁connection	2722
▁70	2719
▁everything	2719
ki	2719
▁Project	2719
▁external	2716
▁era	2713
▁LG	2709
▁designed	2708
▁healthy	2705
▁influence	2703
▁remarks	2702
▁joined	2698
▁Woo	2697
▁lawmaker	2697
▁multi	2695
ji	2694
▁playing	2689
▁join	2687
▁principle	2686
▁everyone	2686
▁depending	2683
▁waiting	2683
▁procedures	2683
▁caus	2682
▁superintendent	2682
▁expanded	2680
▁SK	2678
▁recorded	2678
▁killed	2678
▁brother	2677
▁campaign	2675
▁European	2673
▁huge	2673
▁Social	2668
▁gap	2665
▁disabilities	2664
▁successful	2664
▁factory	2664
▁wish	2659
head	2657
b	2655
▁elected	2654
▁regions	2652
▁collected	2652
▁ship	2649
▁allows	2649
▁negative	2647
▁consumer	2644
▁units	2641
▁characteristics	2638
▁P	2638
▁husband	2637
▁item	2637
▁marketing	2636
▁effective	2635
▁longer	2633
▁discussion	2630
▁detailed	2627
▁Church	2626
▁access	2625
▁promoting	2623
▁Mi	2622
▁knowledge	2621
▁specialized	2620
▁types	2618
▁County	2615
▁wind	2614
▁advanced	2613
▁One	2608
▁discount	2606
▁birth	2605
▁gift	2605
▁completely	2603
ization	2601
▁infrastructure	2599
▁League	2599
▁contribute	2598
▁cash	2598
ha	2598
V	2596
▁methods	2592
▁Kwon	2591
out	2590
From	2586
▁tour	2586
▁focused	2586
▁Pyongyang	2583
▁scope	2578
▁emphasized	2576
▁range	2576
▁Rules	2575
▁sleep	2575
▁changing	2575
▁continues	2575
▁meal	2575
▁installation	2574
▁Employment	2574
▁consecutive	2574
▁Europe	2574
▁smart	2574
▁supported	2572
▁notice	2566
▁meters	2562
▁forced	2559
▁Hye	2558
My	2557
▁claim	2556
▁word	2556
▁select	2555
▁fields	2553
▁Myung	2546
▁white	2545
▁petition	2543
▁flight	2541
▁serve	2541
4	2539
▁profits	2537
▁accounts	2537
▁presented	2536
▁soccer	2536
.""	2535
▁broadcast	2535
▁settlement	2535
▁taxes	2532
▁developing	2532
▁consumption	2529
▁warm	2527
▁O	2525
▁judge	2524
▁wave	2521
Currently	2521
▁300	2517
▁York	2514
▁watching	2512
▁Services	2512
▁subsidies	2509
▁fishing	2509
▁grade	2509
▁receipt	2508
gi	2506
▁push	2505
▁Deputy	2505
▁score	2505
▁actor	2504
▁although	2503
▁representatives	2503
hye	2502
▁box	2501
ju	2500
▁Fair	2500
▁suffered	2498
▁Table	2497
▁leaving	2495
▁reflect	2493
▁weeks	2493
▁severe	2491
▁exam	2488
▁prison	2488
▁above	2488
▁cooperate	2488
▁eye	2487
▁worried	2486
▁Division	2481
▁criminal	2481
▁F	2480
▁choice	2480
▁surgery	2479
sun	2478
Korea	2475
▁500	2473
▁photos	2472
▁library	2469
▁permission	2469
▁hosted	2469
▁de	2467
ness	2466
▁choose	2466
▁drink	2465
▁finished	2463
▁table	2462
▁appropriate	2460
site	2460
▁stable	2460
▁consist	2457
▁wants	2451
▁recruitment	2447
▁concern	2447
▁Some	2445
▁focusing	2444
▁despite	2444
▁autonomous	2443
▁significantly	2441
▁thereof	2441
▁activity	2440
▁remaining	2440
▁paying	2437
▁screen	2436
3	2435
▁walk	2435
▁nine	2431
▁promoted	2431
▁Soo	2429
So	2427
▁Tourism	2427
▁monthly	2427
▁Roh	2426
▁seats	2417
▁gathered	2416
F	2414
▁viewers	2414
▁Policy	2413
▁published	2412
▁apartments	2412
▁door	2410
▁preparation	2408
▁almost	2408
▁Market	2407
▁speech	2404
▁county	2403
▁2019	2401
▁appearance	2399
▁efficient	2398
▁Motor	2398
▁deliver	2392
▁rose	2391
▁ordinary	2385
▁lecture	2385
▁devices	2384
▁Singapore	2384
▁weight	2383
▁entering	2382
▁When	2382
▁ex	2380
▁Ulsan	2379
▁rapidly	2377
▁greatly	2375
▁achieve	2375
▁abuse	2373
▁respond	2372
▁screening	2371
Chairman	2371
▁dinner	2369
▁Village	2368
▁busy	2364
▁advantage	2362
▁honor	2360
▁wide	2360
▁factors	2360
▁recommend	2359
▁blockchain	2358
▁Games	2358
▁brought	2357
▁vote	2357
▁concert	2356
▁Peace	2352
▁meaning	2352
▁limits	2352
▁consider	2352
▁Hotel	2351
▁executives	2351
▁accept	2348
▁drop	2347
▁Ho	2346
▁computer	2345
▁increases	2342
▁studying	2341
▁electronic	2341
ment	2339
▁spring	2338
▁revenue	2336
▁standing	2334
5	2333
▁refund	2333
▁punishment	2332
▁follows	2332
▁served	2331
▁managed	2330
▁weekend	2327
▁subway	2327
▁expects	2327
▁Line	2326
▁seem	2321
▁decide	2320
▁eating	2319
▁assault	2318
▁Agricultural	2318
Then	2316
▁reporters	2316
▁entertainment	2315
▁source	2314
▁twice	2313
▁assessment	2307
▁Sejong	2306
▁produce	2305
▁suggested	2304
▁delay	2304
▁estimated	2302
▁write	2301
▁arrived	2300
Also	2298
▁attending	2297
chan	2297
▁decline	2296
▁leadership	2296
▁volume	2293
▁Human	2291
▁preliminary	2291
▁pictures	2290
That	2290
▁calls	2288
▁endeavor	2287
▁decrease	2287
▁allegations	2286
▁Information	2286
▁impossible	2285
▁Yu	2284
▁Su	2283
▁diseases	2281
▁drug	2279
▁express	2279
▁avoid	2279
▁divided	2279
▁Go	2277
▁Movement	2277
▁acting	2269
▁Art	2268
▁weak	2266
▁sentenced	2265
▁accused	2264
cheon	2259
▁mayor	2259
▁Small	2259
▁Hae	2256
myeon	2255
▁email	2255
▁processing	2255
▁opportunities	2254
▁collect	2253
▁shared	2253
7	2251
▁occur	2249
▁revised	2249
k	2248
▁deep	2246
▁retirement	2246
▁attract	2244
▁mainly	2243
▁plants	2243
▁difficulty	2242
▁All	2242
▁myself	2241
▁girl	2237
▁solution	2236
po	2236
▁fish	2235
▁Sea	2233
▁calling	2232
▁shares	2230
▁concerned	2229
▁Cultural	2228
▁formed	2228
▁Insurance	2227
▁unable	2227
▁reservation	2226
▁happened	2224
▁roads	2223
▁judges	2220
▁majority	2219
▁War	2214
ity	2213
▁coast	2213
▁missing	2213
▁require	2212
▁nationwide	2212
▁anyone	2211
▁lawsuit	2210
▁directors	2209
▁intelligence	2209
▁Ko	2206
▁prior	2205
▁mean	2205
▁ticket	2204
▁remains	2204
▁understanding	2202
▁smartphone	2202
▁conducting	2200
▁proceed	2199
▁Jeon	2193
▁crimes	2192
▁semiconductor	2191
▁shot	2189
▁forces	2189
▁Could	2187
▁worker	2187
▁strength	2186
Gu	2186
▁academic	2183
▁Facebook	2182
eun	2181
▁explain	2180
▁asking	2179
▁broadcasting	2178
▁Economy	2178
▁affected	2177
▁counties	2176
▁Koreans	2175
▁wrote	2175
▁systems	2174
▁damaged	2173
▁patient	2171
▁violation	2168
▁briefing	2167
▁spend	2165
Last	2162
▁sister	2161
▁decreased	2160
▁enhance	2159
▁guarantee	2157
▁device	2156
▁appear	2154
mo	2154
▁task	2154
▁volunteer	2152
▁independence	2149
▁medicine	2147
▁complaints	2146
▁digital	2146
▁ended	2144
▁temporary	2144
▁2016	2143
One	2140
income	2138
▁victory	2135
▁gold	2133
▁beauty	2132
▁discussions	2130
jae	2129
▁resolve	2129
▁double	2128
▁researcher	2126
▁Construction	2126
▁throughout	2124
▁shop	2123
▁eco	2122
▁potential	2122
▁residential	2120
9	2119
▁fixed	2119
▁singer	2117
▁livestock	2116
▁nice	2116
▁seat	2112
▁Fire	2112
▁normal	2111
▁Joon	2110
▁capacity	2110
▁Securities	2109
▁orders	2108
▁prosecutor	2108
▁Where	2107
▁Headquarters	2105
free	2105
▁mental	2104
▁America	2102
▁reducing	2102
▁checked	2101
▁Energy	2100
▁dog	2099
▁index	2098
▁sex	2097
▁Goyang	2094
▁baseball	2093
▁feeling	2092
▁parliamentary	2091
▁discussed	2086
▁Professor	2085
am	2084
▁officers	2084
▁extra	2084
▁deposit	2083
▁lots	2083
▁expensive	2081
▁contains	2080
▁Seong	2079
ja	2077
▁firm	2077
▁dead	2076
▁declaration	2076
▁core	2076
▁Port	2075
▁kindergartens	2074
▁alleged	2074
▁Thank	2074
▁scored	2071
▁suspicion	2071
▁confirm	2070
▁judicial	2069
▁functions	2068
▁believed	2068
no	2068
▁couple	2068
▁urgent	2066
▁offices	2065
▁attack	2064
▁exact	2062
▁admission	2062
▁wear	2061
▁runs	2061
▁spent	2060
ah	2059
▁sending	2059
and	2058
Recently	2058
▁Rights	2057
▁completion	2054
▁AI	2053
ism	2050
▁figure	2050
▁baby	2049
type	2049
▁offer	2048
day	2046
▁rooms	2046
▁subparagraph	2044
W	2042
▁secured	2041
▁bag	2040
▁male	2040
▁finally	2039
▁association	2039
▁license	2039
▁wearing	2037
▁debate	2037
▁talking	2037
▁contest	2035
▁drinking	2034
▁excessive	2032
▁cell	2030
Due	2029
▁beyond	2029
▁pushed	2029
▁alternative	2027
▁applying	2024
▁excluded	2023
▁suspended	2023
▁reflected	2023
▁vulnerable	2023
▁independent	2021
▁judgment	2021
▁stopped	2020
▁currency	2020
▁begin	2017
▁Organization	2017
▁arts	2016
▁suspect	2015
▁farming	2015
▁minute	2014
▁camera	2014
▁integrated	2013
▁handle	2011
▁electricity	2009
▁camp	2005
▁Heung	2005
▁pro	2003
▁background	2003
▁interests	2003
one	2002
▁debt	2002
▁operator	2001
▁Investment	2001
US	2001
▁animal	1998
▁rules	1997
▁interpreted	1997
▁tourist	1997
▁Baek	1996
▁80	1996
▁animals	1995
▁establishing	1995
sa	1995
"	1994
▁Seok	1993
▁remember	1991
▁born	1988
▁app	1986
▁designation	1986
▁trading	1986
▁symptoms	1984
▁technical	1983
▁Don	1981
▁artificial	1981
▁injured	1980
hwa	1980
▁guidance	1979
▁Geun	1977
CEO	1976
▁lawyer	1976
▁text	1973
▁accepted	1972
▁stories	1972
▁suddenly	1972
▁trustee	1972
▁exchanges	1969
▁effort	1967
▁kept	1967
▁audience	1967
▁proper	1966
▁meaningful	1965
▁Medical	1965
▁gets	1964
▁quite	1963
co	1962
▁speak	1960
Police	1960
▁commission	1959
ur	1959
us	1957
▁kinds	1953
▁Did	1953
chul	1952
Through	1952
▁Republic	1952
▁politics	1952
▁laws	1951
▁truth	1946
Consider	1945
▁requires	1944
▁practical	1944
▁listen	1942
▁innovative	1942
▁t	1942
▁strengthening	1938
▁falls	1936
▁walking	1934
▁incurred	1934
▁rent	1934
▁civic	1933
▁certification	1932
▁mark	1930
line	1930
▁balance	1929
▁looked	1928
▁stated	1925
▁jointly	1923
▁soldiers	1923
Under	1922
▁experiences	1922
Unlike	1918
▁criteria	1916
▁Bareunmirae	1912
▁invest	1912
ma	1912
▁reporter	1910
ion	1910
▁subparagraphs	1910
▁cover	1909
▁Nowon	1909
▁suspension	1906
▁occurs	1904
▁net	1904
▁concept	1903
▁recommendation	1902
▁okay	1902
▁Hak	1901
▁else	1901
▁title	1898
▁comments	1898
▁attracting	1898
▁respect	1897
▁recovery	1897
▁subsidize	1895
▁manner	1894
▁younger	1892
▁damages	1892
▁track	1891
Do	1888
▁overcome	1888
▁correct	1888
▁disclosure	1886
▁homes	1886
▁mountain	1885
wook	1885
▁learned	1885
▁sentence	1884
▁transactions	1883
M	1883
▁dispute	1882
▁conservative	1881
▁regulation	1880
▁salary	1879
▁trees	1878
bo	1878
▁departments	1877
▁committed	1876
▁M	1875
But	1874
▁Youth	1873
▁consulting	1870
▁strongly	1869
▁square	1869
▁clearly	1868
▁Our	1867
▁machine	1867
▁presentation	1867
▁Monday	1866
▁cancel	1866
▁article	1865
▁modern	1865
▁signs	1865
▁cryptocurrency	1864
▁V	1864
▁stand	1864
▁grounds	1862
▁$	1861
▁tasks	1861
▁Museum	1860
▁enforcement	1860
▁false	1858
▁restaurants	1856
▁Team	1853
▁checking	1852
el	1852
▁lunch	1852
▁Chungcheong	1851
▁corruption	1851
▁filled	1850
▁Pyeongtaek	1848
▁transaction	1848
▁popularity	1847
▁failure	1844
▁childcare	1844
▁foreigners	1840
▁experienced	1839
▁corporations	1838
kyung	1837
▁memory	1837
▁finance	1835
▁Man	1835
▁reporting	1834
▁goals	1833
▁snow	1833
▁continuously	1833
▁sides	1833
▁efficiency	1832
▁(3)	1832
▁applicants	1832
▁repair	1830
▁entry	1829
▁drunk	1829
▁believes	1828
▁draw	1826
joon	1825
▁approved	1824
▁lose	1824
▁unfair	1823
▁realize	1823
▁Joo	1822
▁performed	1820
nam	1819
▁surrounding	1817
▁ones	1815
▁2017	1815
▁lived	1815
▁ideas	1814
en	1814
L	1814
▁Civil	1813
▁buses	1812
▁finish	1812
▁aimed	1811
▁artists	1811
▁display	1811
▁ten	1810
▁marriage	1808
▁gives	1808
run	1806
▁save	1806
▁conversation	1805
▁Bo	1804
▁guide	1804
▁ice	1802
▁outstanding	1801
disciplinary	1801
▁rescue	1801
▁Friday	1801
▁justice	1800
▁White	1799
▁regime	1799
▁2016,	1798
▁1,000	1795
led	1795
▁expert	1794
▁argued	1793
ok	1793
▁warning	1792
▁via	1791
▁wages	1791
▁scale	1791
▁route	1790
▁Supervisory	1789
de	1788
8	1788
▁causes	1787
▁maximum	1787
▁town	1785
▁upon	1785
▁southern	1785
▁doctor	1784
▁regardless	1782
▁encourage	1779
▁Rule	1778
km	1777
▁haven	1773
▁IT	1770
▁venue	1765
▁Middle	1765
▁Ju	1764
called	1763
▁obtain	1763
▁France	1760
▁Mountain	1759
▁premium	1759
▁announce	1759
▁exceed	1757
▁complaint	1755
▁Russian	1755
▁Cha	1754
ant	1753
▁named	1751
▁operations	1750
ups	1748
▁Power	1748
▁seek	1746
▁attitude	1746
▁System	1746
▁KT	1746
▁concluded	1743
▁Jeolla	1742
▁listed	1741
▁meat	1741
▁amid	1740
jeong	1739
;"	1738
▁2015	1738
▁putting	1737
▁Many	1736
▁golf	1735
▁kindergarten	1733
▁fight	1732
▁levels	1732
▁fashion	1731
▁foot	1731
▁firms	1730
Of	1730
▁Representative	1729
▁connected	1729
About	1728
Meteorological	1724
▁priority	1723
▁foster	1723
▁affiliated	1723
▁models	1722
▁formulate	1721
▁scandal	1720
▁Law	1720
▁drugs	1718
▁institute	1718
▁wall	1714
▁donation	1714
O	1714
▁Xi	1713
▁install	1713
▁venture	1713
▁tired	1712
▁Jun	1712
h	1712
as	1711
▁Kong	1709
▁uses	1709
▁seemed	1708
▁add	1707
▁league	1707
▁confirmation	1706
▁grades	1704
▁spirit	1704
H	1703
▁cooperative	1701
▁shipping	1701
▁Speaker	1701
▁spot	1700
▁fresh	1699
▁features	1697
▁remain	1697
▁eventually	1696
▁menu	1695
▁inconvenience	1693
▁advice	1692
▁confidence	1691
▁sectors	1691
▁thanks	1689
▁drive	1688
▁ingredients	1687
"")."	1687
▁drawn	1686
▁distance	1686
▁subjects	1685
ive	1684
▁plastic	1684
▁Your	1682
▁evening	1681
at	1681
u	1680
▁gradually	1678
▁benefit	1676
▁hurt	1676
▁chicken	1675
▁hospitals	1674
▁deadline	1673
end	1672
▁creative	1672
▁happen	1671
▁execution	1671
▁distributed	1670
▁applications	1670
▁path	1669
▁pollution	1668
▁notified	1667
▁passengers	1667
▁appeal	1666
▁behavior	1665
▁essential	1665
▁judged	1664
long	1664
▁bottom	1664
▁achieved	1662
▁individuals	1661
▁If	1661
▁rural	1661
▁importance	1661
han	1660
▁contracts	1659
▁register	1659
▁districts	1659
ar	1658
▁ran	1658
▁flow	1658
▁injury	1658
▁stance	1656
▁King	1655
myung	1655
▁strike	1655
▁suitable	1655
▁sample	1654
▁Stadium	1654
▁SMEs	1653
▁favorite	1652
▁News	1650
▁outdoor	1649
▁complexes	1648
▁concentration	1648
▁demanded	1648
▁Google	1648
▁broken	1646
R	1643
▁Family	1642
▁designate	1642
▁comfortable	1641
of	1641
▁extended	1641
Former	1640
te	1640
▁purchased	1640
▁values	1639
▁comprised	1638
▁latest	1638
▁gather	1638
▁island	1638
▁Kakao	1638
▁married	1637
▁birthday	1636
▁earnest	1636
▁statutes	1636
▁perfect	1635
ist	1633
▁foods	1632
▁Award	1632
▁Sohn	1632
▁transferred	1632
▁bio	1631
▁ready	1630
▁suspicions	1628
▁boost	1628
▁album	1627
▁actions	1627
▁lines	1627
▁Seongnam	1626
▁helped	1625
▁courses	1625
▁claims	1625
▁frequently	1620
▁suit	1619
▁hydrogen	1619
▁35	1619
▁worry	1619
▁arrive	1617
▁rule	1616
▁emerging	1615
▁equipped	1615
▁characters	1615
▁Paju	1615
▁Seocho	1614
▁officially	1614
▁meals	1612
go	1612
▁bonds	1610
▁sometimes	1610
▁finding	1610
▁setting	1610
▁customized	1609
▁lowest	1609
▁Road	1608
▁master	1608
▁efficiently	1607
▁rich	1606
▁style	1605
▁guidelines	1604
age	1603
▁Gyeongnam	1603
▁Pompeo	1601
▁procedure	1599
▁Yeon	1598
▁songs	1596
▁actors	1595
▁contribution	1594
▁suicide	1594
▁bed	1594
▁ranked	1593
▁isn	1592
ce	1592
▁Operation	1592
▁Yeouido	1592
class	1592
▁negotiation	1592
▁unification	1591
▁treated	1590
▁cool	1589
▁storage	1589
soon	1589
jo	1588
▁awareness	1588
▁explanation	1586
▁aware	1586
▁sharp	1583
▁passing	1583
▁emerged	1582
▁obtained	1582
▁Jesus	1581
More	1578
▁India	1577
▁SNS	1577
▁agree	1576
▁penalty	1576
▁conflicts	1573
▁Da	1571
▁holidays	1571
▁Saturday	1570
▁Prosecutors	1570
▁supplement	1569
▁pushing	1569
▁shareholders	1569
▁shooting	1568
▁subsidy	1566
▁Pohang	1564
▁mail	1564
▁Motors	1563
Base	1563
▁seeing	1562
▁ICT	1562
lo	1561
▁smooth	1560
▁challenge	1560
▁ministry	1560
▁careful	1559
ng	1559
▁enterprise	1559
▁allowing	1559
▁Re	1558
ry	1558
▁carrying	1558
▁port	1558
▁border	1558
▁lectures	1558
▁dance	1557
▁appears	1557
▁secret	1557
▁placed	1556
▁stations	1556
▁Marine	1555
▁typhoon	1555
Many	1549
▁fiscal	1549
▁Christian	1549
▁deliberate	1548
▁2017,	1548
▁combined	1545
▁sentiment	1544
seong	1543
▁promised	1542
▁ease	1541
▁extent	1541
ton	1540
▁Zone	1540
▁tests	1539
Samsung	1539
▁exclusive	1539
▁operators	1538
▁identified	1538
▁talent	1537
6	1537
▁farm	1537
▁ruled	1536
▁interesting	1535
▁Medium	1535
▁10,000	1535
▁tariffs	1534
▁stress	1534
▁Children	1534
▁fifth	1534
▁proportion	1533
▁These	1532
▁block	1532
▁Wednesday	1532
▁videos	1532
▁bills	1530
▁canceled	1529
▁hiring	1528
▁inevitable	1527
▁tickets	1527
▁managing	1526
▁wake	1526
▁declared	1525
▁Yongsan	1525
▁fuel	1525
▁reply	1525
▁expression	1524
▁star	1523
▁convenient	1521
Jung	1519
▁H	1519
▁supports	1519
f	1517
▁feelings	1515
What	1515
▁aged	1515
▁sluggish	1514
▁disposal	1514
▁Sa	1513
▁signing	1511
▁losses	1510
▁imposed	1510
▁farms	1510
▁hike	1508
▁monitoring	1507
▁Green	1506
▁weapons	1506
▁spending	1506
▁offered	1504
▁involving	1504
▁Il	1503
▁Grand	1502
▁Ja	1502
▁slow	1502
▁German	1501
jun	1501
▁cards	1501
▁forum	1500
▁spreading	1500
▁Kwang	1497
▁Soon	1497
▁blue	1496
▁mixed	1495
▁historical	1495
▁losing	1494
▁remove	1493
▁Agriculture	1493
Amid	1492
▁receives	1491
▁recognition	1491
▁aid	1491
▁concentrated	1491
▁stability	1491
▁author	1488
▁cleaning	1488
joo	1487
▁maintained	1487
▁buying	1486
▁plane	1486
▁engine	1484
▁tree	1483
▁Have	1483
All	1483
▁nearly	1483
▁litigation	1483
▁supervision	1482
▁helps	1482
▁payments	1481
dae	1481
▁dropped	1481
▁competent	1481
▁murder	1481
▁drew	1478
▁names	1478
▁Innovation	1478
▁resolved	1476
▁upper	1476
She	1476
▁initial	1475
▁colors	1475
▁Engineering	1475
▁movies	1475
▁replace	1474
▁Board	1474
▁fraud	1473
▁prime	1473
▁Community	1472
sang	1471
▁pick	1470
▁extension	1470
▁rating	1469
▁West	1468
▁lease	1468
Governor	1467
▁Planning	1467
▁shape	1466
▁Chuseok	1466
▁newspaper	1465
▁acts	1465
▁meantime	1465
▁Sunday	1465
Director	1463
▁Workers	1463
▁ecosystem	1463
▁factor	1462
▁investments	1460
▁topic	1459
▁90	1459
▁dialogue	1458
▁drivers	1457
li	1457
way	1457
▁voices	1456
▁football	1456
▁rapid	1454
▁publicly	1454
▁Olympics	1454
▁Ga	1453
▁entrustment	1453
▁o	1451
▁comply	1451
▁investigated	1451
▁rejected	1449
▁sad	1449
▁figures	1449
▁degree	1448
▁Sam	1448
▁Bureau	1447
▁delicious	1447
▁alcohol	1447
▁British	1447
gil	1445
▁Forest	1443
▁shops	1443
▁gain	1443
▁Strategy	1442
▁sharply	1442
▁either	1442
▁charged	1442
▁2014	1441
▁prosecutors	1440
▁Apple	1440
South	1440
▁sudden	1439
▁aging	1438
▁mass	1438
▁handed	1437
▁Would	1436
▁Philippines	1436
▁suffer	1436
▁expenditure	1436
▁mostly	1435
▁funeral	1435
▁contributed	1433
▁blocked	1433
▁voting	1433
▁organize	1433
▁slightly	1431
▁Unification	1430
w	1430
▁aircraft	1430
▁bureau	1430
▁2015,	1429
▁requirements	1429
▁sweet	1429
▁Urban	1428
▁Gangseo	1427
▁quantity	1427
▁cross	1427
▁detected	1427
▁adjust	1426
▁bags	1425
▁amendment	1425
▁watched	1425
▁offering	1424
▁Jo	1423
▁athletes	1423
▁competitive	1422
▁entrust	1422
▁Ryu	1422
▁demands	1421
▁statistics	1421
▁debut	1420
▁legislation	1420
▁satisfaction	1419
Please	1419
▁daycare	1418
▁catch	1418
▁Hanwha	1418
▁closely	1417
▁securing	1417
▁pretty	1417
▁communicate	1417
tech	1417
▁exposed	1415
▁asset	1415
▁diplomatic	1413
▁Pension	1413
▁begun	1413
▁Un	1412
▁evaluated	1412
▁Declaration	1412
▁capabilities	1412
▁Administrative	1411
▁plenary	1411
kyu	1411
is	1409
▁teenagers	1408
▁battle	1408
▁predict	1407
▁mistake	1405
▁semester	1404
▁Company	1403
▁vision	1403
▁extreme	1402
▁allowances	1402
▁dark	1402
▁carefully	1400
ck	1398
▁host	1398
▁utilize	1396
▁easier	1396
▁feature	1395
▁brain	1395
▁connect	1392
▁spokesman	1391
▁naturally	1391
▁consent	1391
▁beer	1389
▁applicant	1389
▁Hwaseong	1389
▁touch	1389
▁containing	1388
▁replacement	1388
▁partner	1388
espite	1386
Most	1385
▁smartphones	1385
▁provinces	1384
▁requests	1384
Gun	1383
▁wasn	1383
▁dangerous	1381
▁Housing	1380
▁deem	1380
▁Arts	1379
▁purchasing	1379
▁performing	1378
▁awarded	1376
▁Free	1376
▁continuous	1375
▁rally	1374
▁fear	1374
▁differences	1373
▁gone	1372
▁loved	1372
▁32	1371
▁reasonable	1371
▁flowers	1371
▁fill	1371
▁multiple	1369
▁Washington	1369
▁specified	1368
▁wins	1368
▁handling	1368
Choi	1368
bin	1367
▁plays	1367
▁sky	1367
▁invested	1367
▁Ansan	1366
tic	1366
▁exceeded	1366
▁collapse	1366
▁cooking	1366
▁100,000	1365
▁grown	1365
▁wedding	1364
▁mutual	1362
▁pilot	1362
▁continuing	1361
▁Taiwan	1360
▁bigger	1360
▁dismissed	1360
▁Tax	1359
▁researchers	1359
▁ordinance	1358
▁mouth	1357
▁thank	1357
▁engaged	1357
▁museum	1355
▁phenomenon	1355
▁marine	1354
▁dispatched	1353
Now	1352
▁Regional	1352
▁French	1351
▁Shim	1351
▁turning	1351
▁Ye	1351
employed	1349
▁favor	1348
▁attracted	1348
▁facing	1348
▁advertising	1348
▁refers	1348
▁regard	1347
▁passenger	1347
ci	1346
▁raw	1346
▁returning	1345
▁revitalize	1345
▁recognize	1344
▁N	1344
pyo	1344
▁facts	1344
▁Moo	1343
▁railway	1342
▁religious	1340
▁affect	1339
▁Changwon	1339
Not	1339
▁happiness	1339
▁combination	1338
▁municipal	1338
▁Jongno	1338
▁Bridge	1338
▁To	1338
▁leisure	1337
▁urged	1337
▁positions	1337
▁discrimination	1337
▁behalf	1336
▁agriculture	1336
▁citizen	1335
▁medal	1334
▁situations	1333
▁covered	1333
ting	1333
▁Gyeongbuk	1333
▁College	1333
▁fan	1332
▁Industries	1332
▁Society	1332
▁powerful	1332
▁trouble	1331
▁worse	1331
▁earthquake	1330
▁2009	1330
▁surface	1330
▁blind	1330
▁musical	1330
▁realized	1329
ial	1329
▁helping	1329
▁desire	1328
cheol	1328
▁merchants	1328
▁leads	1328
▁shoes	1327
▁150	1326
▁visits	1325
▁tea	1325
▁recover	1325
mm	1325
▁straight	1324
▁Yongin	1323
▁securities	1323
▁usage	1323
▁linked	1323
▁greater	1322
▁automatically	1322
bi	1321
Earlier	1321
▁whenever	1319
▁cafe	1318
▁reward	1318
▁curriculum	1317
jong	1317
▁race	1316
▁detail	1316
▁window	1316
▁Rep	1315
▁replaced	1315
▁tournament	1314
▁dogs	1314
▁successfully	1312
▁version	1310
▁package	1310
▁Academy	1310
Committee	1310
▁articles	1309
▁adults	1308
▁relief	1308
ta	1307
▁De	1305
▁tons	1305
▁starts	1304
▁responded	1304
Professor	1304
sook	1304
▁Iran	1304
including	1304
▁imported	1303
▁represent	1303
▁identity	1303
▁bright	1302
▁sick	1302
▁Town	1302
▁steel	1300
▁empty	1300
▁verification	1299
▁YouTube	1299
▁code	1299
ne	1297
▁relation	1296
▁Ma	1295
▁page	1294
Those	1293
▁Huawei	1293
▁Senior	1292
▁protest	1292
▁category	1292
▁grant	1292
ga	1292
▁flower	1291
▁flexible	1291
Until	1291
▁examine	1289
▁whom	1289
▁talked	1289
▁respondents	1288
▁Plan	1288
▁regulatory	1287
▁diagnosis	1286
▁brands	1286
▁inspections	1286
▁studies	1286
▁withdrawal	1286
▁acquisition	1286
▁yourself	1286
▁attendance	1285
▁ride	1285
▁Canada	1285
▁spaces	1284
ia	1284
▁disclosed	1284
▁Intelligence	1284
▁Cheongju	1283
▁Tokyo	1281
▁cosmetics	1280
be	1280
▁Disaster	1279
▁revolution	1278
▁exemption	1278
▁Fisheries	1278
▁approach	1277
▁Chun	1274
ter	1271
▁votes	1270
▁freely	1269
▁inform	1268
▁Be	1267
▁boat	1266
▁Command	1264
▁bereaved	1264
▁faster	1264
▁managers	1264
▁attempt	1263
▁centered	1263
▁thoughts	1263
▁noise	1262
▁zones	1262
Japan	1262
▁smile	1261
▁San	1261
▁Beijing	1260
▁faith	1259
▁enjoyed	1259
▁band	1259
▁Street	1258
▁33	1258
▁recording	1258
ous	1257
▁miss	1257
▁Store	1256
▁agent	1255
▁filming	1255
▁Cooperation	1254
▁gained	1253
da	1253
ran	1252
▁Ilbo	1252
▁violations	1251
▁fierce	1249
▁mood	1249
▁steps	1249
▁resignation	1248
▁chose	1248
▁mutati	1247
▁patent	1247
▁consensus	1246
▁friendly	1246
▁Northern	1245
▁lifelong	1244
▁listening	1243
▁images	1243
▁2013	1243
▁L	1242
▁owned	1242
▁succeeded	1241
▁mutandis	1241
▁institutes	1240
▁Care	1240
▁seeking	1240
▁residence	1240
▁composition	1238
▁2008	1238
▁Army	1238
▁memories	1236
▁introducing	1236
▁purposes	1236
▁transport	1235
off	1235
▁expertise	1235
▁upcoming	1234
▁1.5	1234
▁winner	1234
▁villages	1234
▁Love	1234
▁disappeared	1233
▁Jeollanam	1233
▁unveiled	1233
▁pleasant	1233
▁Global	1232
▁dishes	1231
▁knew	1229
▁logistics	1228
▁composed	1227
ance	1227
▁downtown	1227
▁auto	1227
▁channel	1227
▁W	1227
▁collecting	1227
hour	1225
▁feels	1225
▁Saudi	1224
▁grand	1224
Just	1223
▁governed	1222
▁34	1221
Starting	1221
▁promise	1221
▁theater	1221
▁solid	1221
▁disclose	1221
▁strengthened	1219
mail	1218
▁supplied	1218
▁preventing	1218
▁towards	1217
▁trends	1217
▁annually	1216
com	1216
▁river	1216
ate	1216
▁Control	1215
▁illegally	1214
▁cancellation	1214
▁mom	1214
▁keen	1214
▁Me	1214
oriented	1214
▁harassment	1213
Kang	1213
Seoul	1212
▁Christmas	1211
he	1211
▁unlike	1211
▁sit	1210
▁simply	1209
▁memorial	1209
▁appreciate	1208
making	1208
▁wonder	1207
▁afraid	1206
▁shareholder	1205
▁underground	1205
Mayor	1205
▁Joint	1205
▁conclusion	1205
▁voluntary	1204
These	1204
▁smoothly	1203
▁painting	1202
▁Rural	1202
▁smoking	1201
▁Deliberation	1201
ni	1201
▁numbers	1200
▁fake	1200
▁manipulation	1199
▁professors	1198
▁bar	1198
▁staying	1198
▁Songpa	1197
▁implementing	1197
z	1197
▁safely	1197
▁Mapo	1197
ling	1196
▁buyers	1196
pil	1196
▁accumulated	1196
▁dry	1195
▁X	1195
▁Gwanak	1195
ul	1195
▁mission	1194
▁forecast	1194
▁traveling	1193
▁missile	1193
▁cells	1193
▁dedicated	1193
▁recruit	1193
▁leaves	1192
▁Self	1192
ized	1191
▁internet	1191
▁certified	1190
con	1190
▁Military	1190
▁strategic	1189
▁however	1188
▁Bae	1188
▁(1	1188
▁Show	1187
▁fires	1186
la	1186
▁invited	1185
▁civilian	1185
▁classified	1185
▁dollar	1182
quality	1182
▁phase	1181
▁battery	1181
▁repeatedly	1180
▁gaining	1178
▁yellow	1178
▁opponent	1178
▁disasters	1178
▁fallen	1177
▁anxiety	1176
▁feasibility	1175
▁65	1174
▁Indonesia	1174
▁personality	1174
▁closing	1172
▁issuance	1172
▁Bar	1172
▁uncomfortable	1172
by	1172
▁belonging	1172
▁employed	1171
▁Maritime	1171
geun	1171
▁Ltd	1171
ence	1170
▁appoint	1170
▁"“	1169
▁adopted	1169
▁unusual	1169
▁expense	1169
▁donated	1168
▁artist	1167
▁violating	1167
▁Valley	1167
▁diverse	1167
▁Articles	1166
how	1166
▁investigations	1166
▁Forum	1166
▁mall	1165
um	1165
▁fit	1165
▁comment	1165
▁actress	1165
▁removed	1164
rs	1162
10	1162
X	1161
▁adjustment	1161
▁garden	1161
▁luxury	1160
▁invoice	1160
▁restrictions	1159
guk	1159
▁bicycle	1159
▁refer	1159
me	1159
▁smoke	1158
▁forget	1158
▁Hyo	1158
▁inspect	1157
▁map	1157
▁compete	1156
▁previously	1156
▁communities	1156
▁solar	1156
▁episode	1155
▁teaching	1155
▁favorable	1155
yang	1154
▁originally	1153
▁momentum	1153
▁Joseon	1153
▁Hanoi	1153
▁Koo	1152
▁extend	1152
▁Gyeongsangnam	1152
▁gathering	1151
▁messages	1151
▁anymore	1151
x	1151
Re	1149
▁quick	1149
▁J	1149
▁escape	1148
▁Yun	1148
▁permanent	1145
▁milk	1145
Another	1145
▁usual	1144
ies	1144
▁grew	1144
win	1144
▁accompanied	1142
law	1142
▁tears	1142
▁soft	1141
▁aims	1141
profit	1140
▁massive	1140
▁enable	1140
▁10%	1140
▁climate	1139
▁repeated	1138
ol	1138
▁hidden	1138
▁voluntarily	1137
▁Thursday	1137
▁stadium	1137
▁risks	1137
▁guess	1136
▁feet	1136
▁supplies	1136
▁phones	1136
▁routes	1136
▁thoroughly	1136
▁interior	1135
▁servants	1134
▁willingness	1133
▁Design	1133
▁Real	1133
▁countermeasures	1133
▁earnings	1132
▁peak	1132
ty	1131
▁subordinate	1131
▁emotional	1131
▁absence	1131
And	1130
▁serving	1130
▁views	1130
ae	1130
Therefore	1129
▁workplace	1128
▁Shinhan	1127
Before	1126
ian	1125
▁Western	1125
▁La	1125
▁Gwangjin	1125
▁Gangneung	1125
▁startups	1125
▁seal	1124
▁theory	1124
▁sources	1124
▁refused	1124
seo	1124
di	1123
▁fruit	1123
▁Hyung	1123
▁His	1123
▁45	1122
▁selecting	1122
▁writer	1122
▁Home	1122
▁supposed	1122
▁garbage	1122
▁cited	1121
▁400	1121
▁factories	1121
Once	1121
▁On	1120
▁keeping	1120
▁opposed	1119
▁Twitter	1119
▁dreams	1118
▁Corp	1118
▁Exchange	1117
▁incumbent	1117
▁bond	1117
▁multicultural	1116
▁subsidiary	1116
▁dementia	1116
▁processed	1115
▁withdraw	1115
▁principal	1114
▁draft	1114
▁stood	1114
▁height	1113
▁thus	1113
▁formation	1112
▁maintaining	1112
▁impose	1112
▁graduate	1112
▁corner	1111
▁assaulted	1111
▁diet	1111
▁holds	1111
▁Elementary	1110
we	1109
▁mandatory	1109
suk	1109
Constitutional	1109
▁Today	1109
▁2012	1108
bong	1108
▁identify	1108
▁Australia	1107
▁Future	1107
▁worst	1107
▁solved	1107
▁matches	1107
▁error	1106
style	1106
▁Summit	1106
▁Resources	1105
son	1105
ph	1105
▁Water	1104
▁Force	1103
▁50%	1103
▁Framework	1103
▁kilometers	1103
▁engineering	1102
▁admitted	1102
▁south	1102
▁destination	1102
▁counter	1101
▁Galaxy	1101
▁Mexico	1101
▁freedom	1100
▁crackdown	1100
▁assembly	1100
▁chosen	1099
▁perspective	1099
▁EU	1099
▁frequent	1099
▁widely	1098
▁practices	1097
▁disputes	1097
▁answers	1097
▁fails	1097
▁hundreds	1096
▁import	1096
ated	1095
▁cup	1095
▁outcome	1094
▁allowance	1094
▁expiration	1093
▁Gun	1092
▁strategies	1092
▁Mike	1091
▁troops	1091
▁portion	1091
▁resulting	1091
▁Who	1090
▁lowered	1090
▁timing	1090
so	1089
▁neighbor	1089
▁Sewol	1089
▁swimming	1088
▁Film	1088
▁collapsed	1088
▁provision	1088
▁martial	1087
person	1087
generation	1086
▁Unions	1086
▁Election	1085
▁controversial	1084
▁restoration	1084
▁heritage	1083
▁institutional	1083
Following	1082
▁neighborhood	1081
▁humans	1078
gang	1078
▁statements	1078
▁Naver	1078
▁awards	1075
▁balanced	1075
family	1075
▁waves	1074
▁adult	1074
▁narrow	1074
!	1074
▁Bu	1073
▁Square	1073
▁struggling	1072
▁Bucheon	1072
▁ships	1072
▁2014,	1072
▁Which	1071
Presidential	1070
▁Independence	1070
▁consult	1069
▁officio	1069
▁minimize	1068
▁cream	1067
▁slowdown	1066
▁familiar	1066
▁20%	1064
▁informed	1064
▁pork	1063
▁operates	1063
▁flag	1062
▁indicators	1062
▁neighbors	1061
▁Eui	1061
▁achievements	1060
▁cat	1060
▁angry	1060
▁Citizens	1059
▁analyze	1059
▁steadily	1059
▁boyfriend	1059
▁presence	1058
▁boy	1058
▁imports	1058
▁Protection	1058
▁Tuesday	1057
▁deeply	1057
▁begins	1057
▁inauguration	1057
▁accurate	1057
▁utilizing	1056
▁Officials	1056
▁remained	1056
▁circles	1055
▁soup	1055
▁Bang	1055
▁generated	1054
▁thorough	1053
▁consultati	1053
eup	1052
yeol	1052
▁Abe	1052
▁guard	1052
ful	1051
est	1051
▁consultations	1051
▁customs	1050
▁insisted	1050
▁Chosun	1049
▁Job	1049
▁reviewing	1048
▁promising	1048
▁risen	1048
kyun	1048
▁refugees	1047
▁harmful	1047
▁cake	1046
▁limitations	1046
Given	1046
▁comfort	1045
▁temperatures	1045
▁percentage	1045
▁studied	1045
▁guests	1045
▁copy	1045
▁sexually	1044
▁CCTV	1044
▁38	1043
▁dish	1043
▁seniors	1042
▁autumn	1042
▁rare	1042
▁glass	1041
shin	1041
ru	1041
▁wild	1040
▁insufficient	1038
▁landscape	1038
▁seriously	1038
▁Does	1038
▁truck	1037
▁killing	1037
▁manpower	1037
▁states	1037
▁Card	1037
▁Mo	1036
▁funding	1036
▁Amazon	1036
▁partially	1035
▁granted	1035
je	1034
▁Commerce	1034
▁denied	1034
▁KBS	1033
Let	1032
▁channels	1032
▁subscription	1031
▁beat	1031
▁wastes	1030
""),	1030
▁prefer	1030
▁Post	1029
▁excluding	1029
▁satisfied	1029
lu	1028
▁citing	1027
▁sun	1027
▁joining	1027
▁ID	1026
▁client	1026
▁30%	1025
▁fighting	1025
Mr	1025
▁chat	1025
▁army	1024
▁century	1024
▁Mu	1024
▁effectively	1024
▁settled	1024
▁Red	1023
▁king	1023
▁Yeong	1023
▁Conference	1022
ke	1021
▁convention	1021
▁Gyeongsangbuk	1020
▁surprised	1020
▁girlfriend	1020
if	1020
▁fines	1019
▁probably	1019
▁Jeonnam	1019
▁36	1018
▁peninsula	1018
▁Myeong	1016
▁ministries	1016
▁Doosan	1016
house	1016
▁discovered	1016
▁franchise	1016
▁pitcher	1015
ent	1015
▁clubs	1015
▁fostering	1015
▁assigned	1015
▁Dream	1014
▁otherwise	1014
ating	1014
▁solutions	1014
▁stone	1014
ory	1013
▁guest	1013
▁shipment	1013
▁Training	1012
▁missed	1012
▁note	1010
Today	1010
ad	1010
▁easing	1010
▁Kia	1009
▁earth	1008
▁strange	1008
▁wine	1008
▁Uijeongbu	1008
▁bridge	1008
▁Airlines	1007
▁hire	1007
▁sensitive	1007
▁Kookmin	1007
▁Hwa	1006
▁exit	1005
▁earned	1005
▁abundant	1005
▁Coast	1005
▁Environmental	1004
▁tuition	1004
▁hate	1003
▁winners	1003
▁link	1003
▁scores	1002
▁bodies	1002
▁reserve	1002
▁stages	1002
▁Most	1002
▁closer	1001
▁regret	1001
▁preservation	1000
▁membership	1000
▁Jeonju	1000
▁alliance	1000
▁exactly	999
▁ban	999
▁Bio	999
▁perception	999
▁Revolution	998
▁ranking	998
▁fundamental	997
▁die	997
▁tend	997
bak	996
Shin	996
▁donations	996
▁Gangdong	996
▁Ra	995
▁sauce	995
▁subscribers	994
▁stake	993
▁sustainable	993
▁St	993
▁Bong	992
▁violated	992
▁assistance	992
▁pastor	992
Ma	992
▁engage	992
▁Big	991
▁reviewed	990
▁Chungnam	990
▁certificates	989
▁treat	989
▁charm	988
▁Investigation	988
▁Gimpo	988
▁producing	987
▁Times	987
▁advertisement	987
▁unexpected	987
General	986
▁preferential	985
▁guilty	985
▁manufacturers	984
▁subcommittee	984
ex	984
▁Entertainment	984
▁demonstration	984
▁affiliates	983
▁beach	983
▁Asiana	982
▁cargo	982
▁monet	981
▁analyzing	981
▁intensive	980
▁larger	980
per	980
fledged	979
▁temporarily	979
hun	979
hyeon	979
▁systematic	979
▁violate	978
▁ferry	977
ir	977
▁sub	977
▁generations	976
▁revise	976
▁bread	976
▁collective	976
▁Italy	975
▁critical	975
jang	975
▁restricted	975
▁Awards	975
▁faced	974
▁Paris	974
▁spicy	974
▁kids	973
land	973
▁calculated	972
.”	972
▁Hana	972
▁pending	972
▁weapon	972
▁scholarship	971
Except	970
▁incentives	969
▁tariff	969
▁fail	969
hyuk	968
▁solo	968
▁streets	968
▁Transportation	968
▁volunteers	968
▁booked	968
▁row	968
▁minor	968
▁notification	966
▁carbon	965
▁cutting	965
▁pieces	965
▁Audit	964
▁intended	964
▁qualification	964
▁revitalization	964
▁entity	964
▁reveal	963
▁Head	963
▁Chae	963
▁equity	963
▁super	963
▁vegetables	962
▁Gi	962
▁childbirth	962
▁2011	962
His	961
▁2010	960
▁secondary	960
▁restructuring	959
▁targets	959
▁pursue	958
▁defeat	958
▁anger	958
▁advertisements	958
▁breaking	957
▁Brexit	957
▁Prize	957
▁sitting	956
▁Heavy	956
▁offers	956
▁bear	956
▁Now	955
▁dismissal	955
ui	955
▁reflecting	955
▁tension	954
▁Will	954
▁Southeast	954
▁Music	954
▁However	954
▁gate	953
▁answered	953
▁First	952
▁recession	952
▁abandoned	952
▁Drug	951
▁uniform	951
▁arranged	951
ine	950
▁democracy	950
gyu	949
▁Ro	949
▁Lunar	948
▁curious	948
▁coal	948
▁separated	948
▁heating	948
▁willing	948
▁films	948
▁Vietnamese	948
▁supporters	947
chi	947
▁As	946
finding	946
▁Competition	945
▁nursing	945
▁relocation	945
like	945
▁software	945
Japanese	944
▁119	944
Representative	944
▁precious	944
Act	943
▁2007	943
▁Officer	943
▁smell	943
Our	943
▁cloud	943
▁solving	942
▁aim	942
▁studio	942
▁expressing	942
▁claiming	942
▁PC	942
▁stars	942
▁FSS	940
▁evaluate	940
▁utilization	940
▁Prevention	940
▁inning	939
▁somewhat	939
▁stronger	939
▁delegation	939
▁restore	938
▁demanding	938
▁Establishment	937
▁cycle	937
▁letters	937
▁academy	936
▁Olympic	936
▁concrete	936
▁Star	935
▁correction	935
▁equality	935
▁charging	935
▁settle	934
▁clothing	933
▁interviews	933
▁shortly	933
▁happens	933
▁Building	932
▁corresponding	932
▁deceased	932
▁Tour	932
▁furniture	931
▁unions	931
▁savings	931
▁Car	931
▁dealing	930
▁Football	930
▁Regulations	930
▁pledge	930
J	930
▁shock	929
▁pace	929
▁parks	929
▁Panmunjom	929
▁sixth	929
▁John	929
▁Doo	928
▁beef	928
▁celebrate	928
▁harmony	927
▁considerable	927
▁Jakarta	926
▁rumors	926
▁renewable	925
▁hired	925
▁MBC	925
month	925
▁Je	924
▁turns	924
▁confusion	924
rim	923
▁robot	923
▁lights	922
▁noodles	922
▁hearts	922
▁Spain	921
et	921
▁signal	921
▁39	920
▁displayed	920
▁sufficient	919
▁Residents	919
▁Im	919
▁piece	919
▁legislative	919
▁unemployment	918
▁expectation	918
▁helpful	918
Han	918
▁pregnant	918
▁Chan	917
▁Good	917
▁collaboration	917
▁explains	917
▁FC	917
▁reviews	916
▁pop	916
▁BTS	916
▁churches	915
▁boss	915
Look	915
▁rehabilitation	915
▁intellectual	914
▁indoor	914
▁glad	914
▁Bible	914
▁Yeo	914
▁proposals	913
▁POSCO	913
▁stayed	913
▁moves	913
▁assistant	913
▁apologize	913
▁command	913
izing	913
▁600	912
▁welcome	912
▁reflects	912
▁samples	911
pa	911
▁Dongdaemun	911
▁confident	910
management	910
▁mine	910
▁Democracy	910
Cho	910
▁Expressway	910
▁calculation	909
men	909
▁graduates	908
▁pharmaceutical	907
▁motor	907
▁Heritage	907
▁teach	906
▁Li	906
▁37	906
▁north	906
▁enjoying	905
ung	905
Instead	905
▁apology	905
▁emotions	905
▁disposition	905
▁deficit	904
▁kimchi	904
▁accommodation	904
▁winds	904
▁Property	903
▁Guro	903
elecommunication	903
▁Thailand	903
▁ultra	903
▁homepage	902
▁equivalent	901
▁west	901
bok	901
▁pool	900
▁discharge	900
▁achievement	900
▁Authority	899
Okay	899
▁England	899
lecommunications	899
▁witness	898
▁Congress	898
▁sleeping	898
▁succeed	897
▁kitchen	896
▁2013,	896
▁singing	895
▁Woori	895
▁advisory	895
▁judiciary	895
general	895
▁extraordinary	894
▁attraction	894
▁Jeonbuk	894
▁passion	893
▁monitor	893
▁constantly	893
▁instructors	893
▁contain	893
Oh	892
▁resource	892
ak	892
▁acquired	892
▁hitting	892
bu	891
▁surprise	891
▁confrontation	891
▁warned	891
▁installing	891
▁soil	891
▁Lake	890
▁detention	890
rae	890
▁adjusted	889
ted	889
~	888
▁departure	888
Hong	888
▁Club	888
▁danger	888
▁virtual	886
▁knows	886
▁Confederation	886
▁Nak	885
▁Open	885
▁livelihood	885
dang	884
▁Library	884
▁breakfast	883
▁2020	883
▁Budget	883
▁semiconductors	882
▁ministers	881
▁length	881
▁opposite	880
▁Prosecutor	879
▁Agreement	879
▁Yeongdeungpo	879
▁finals	878
▁removal	878
▁startup	878
▁Plaza	877
▁championship	877
Y	877
▁Leader	876
▁Therefore	876
▁basketball	875
▁guaranteed	875
▁exist	875
▁equal	874
▁exceeding	874
▁sets	874
about	873
▁Review	873
▁(4)	873
beom	873
▁convergence	872
▁complicated	871
▁Inter	870
▁psychological	870
▁Celsius	868
▁attractions	867
▁resume	867
▁contained	866
▁stepped	866
▁dress	866
▁Acts	866
Ha	866
▁suspend	865
▁tough	865
▁ate	864
▁succession	864
deok	864
▁chronic	864
▁trials	863
▁immediate	862
▁Daewoo	861
▁cast	861
▁automobile	861
“	860
▁struggle	860
▁Inspection	860
▁hub	859
▁chances	858
▁parent	858
▁argument	858
▁premiums	857
Above	857
▁noted	856
ko	856
▁marks	855
▁BMW	854
▁western	854
▁exhibitions	854
▁Seodaemun	854
▁calm	854
▁Al	854
▁joy	853
People	853
▁lawyers	853
▁reconstruction	853
▁virtually	852
arious	852
▁earn	852
▁fever	852
▁particularly	852
▁leg	851
▁te	851
▁chemical	851
▁Gyeong	850
▁headed	849
▁option	849
▁politicians	849
▁For	849
▁curiosity	849
▁characterize	848
▁ends	848
-2	848
▁semi	847
▁bid	847
)""	847
▁speaking	847
▁DMZ	846
▁smaller	846
▁posting	845
▁48	845
▁Gender	845
▁120	844
ranking	843
▁Dr	843
▁survival	842
▁seminar	842
▁graduation	842
▁accounted	842
▁diagnosed	842
ka	842
▁ratings	842
New	841
▁doctors	841
▁cute	841
▁decisions	841
▁promotional	841
op	841
▁aired	840
▁Private	839
▁Chi	839
▁Actor	839
▁speculation	839
▁analysts	838
io	838
▁nervous	838
▁observed	838
▁prove	837
clock	836
minute	836
▁seekers	836
▁2,000	836
▁finishing	836
▁math	836
▁dis	836
ya	836
▁radio	835
▁UN	835
cm	835
▁telephone	834
▁origin	834
▁attempted	834
▁hole	834
▁repayment	834
▁Smart	834
ie	833
▁slump	833
▁ordinances	832
▁titled	832
▁targeting	832
▁clerk	832
▁Africa	831
▁(2	830
▁infants	830
▁marked	830
▁knowing	830
▁Sweden	830
▁Yi	829
vi	829
▁Jinping	829
face	828
▁CSAT	828
▁estimate	828
▁leaked	828
▁scenes	828
▁responses	828
▁east	828
▁normally	827
▁retail	827
▁circle	827
▁neck	827
▁governance	827
▁founded	827
▁Ri	826
▁Reform	826
▁faces	826
▁communications	825
▁Sin	825
▁seizure	825
▁Asset	825
hyung	825
Like	825
▁constitutional	824
▁Official	824
▁meets	824
▁existence	824
▁finalized	824
Chairperson	824
▁raises	824
▁fat	824
▁2016."	823
▁talents	823
▁identification	823
▁purchases	822
▁couples	822
▁proud	822
▁launching	821
use	821
▁saved	821
ster	821
▁workshop	821
▁species	820
▁banking	820
▁Exhibition	820
▁100%	820
▁FTC	820
▁Girls	819
.1	819
▁libraries	819
Meanwhile	819
▁Dynasty	818
▁Meeting	818
▁listing	818
▁pet	818
20	818
▁organic	818
Q	818
▁connecting	817
▁primary	817
ryong	816
▁assist	816
▁paragraphs	815
▁Hanjin	815
▁Federal	815
▁CJ	815
Thank	814
chairperson	814
▁unlikely	814
ize	814
▁iron	813
▁indicted	813
▁mothers	813
▁integration	812
▁3,000	812
▁exchanged	812
▁separation	812
▁Standards	812
▁worsening	812
▁Pro	812
public	811
seon	811
▁partners	811
▁discussing	811
▁2017."	810
▁commander	810
▁verify	810
▁anywhere	810
▁urgently	809
▁hopes	808
▁manual	807
▁movements	806
kg	806
Thanks	806
aged	806
▁Tower	806
▁inappropriate	805
▁cheap	805
▁London	804
▁shortage	804
▁posts	804
▁Convention	804
▁everyday	804
▁reorganization	803
▁container	803
▁millions	803
▁Winter	803
▁gifts	802
▁cheaper	802
Rather	802
▁offline	802
▁5,000	802
▁impeachment	801
ally	801
▁scenery	801
▁Branch	801
▁Gwanghwamun	801
Yoon	800
▁transition	800
▁enters	799
che	799
▁inevitably	799
▁experiencing	799
Gwangju	798
▁stomach	798
chun	798
▁Anyang	798
▁fairness	797
vestigative	797
▁casualties	797
▁root	797
▁advised	797
▁panel	796
▁Shanghai	795
▁investing	795
▁SBS	795
▁Communications	795
▁principles	795
▁formal	794
▁Communication	794
▁cook	794
▁trips	793
▁kick	792
▁Instagram	792
▁shipbuilding	792
▁button	791
.“	791
school	791
▁bidding	791
▁interpretation	791
▁dispatch	791
▁Credit	791
▁rock	790
▁strict	790
▁reaching	790
mun	790
▁bathroom	790
▁patrol	789
▁checks	789
▁deaths	789
▁tonight	789
▁intense	788
▁Daily	788
▁200,000	788
▁Capital	788
▁Game	788
Yeah	787
▁threat	787
▁passes	787
▁tied	787
▁boxes	786
▁web	786
▁hits	785
ors	785
meter	784
▁passage	783
▁feared	783
▁superior	782
▁Wi	782
▁Area	782
der	782
▁festivals	782
▁amounts	782
▁clinical	781
▁Kindergarten	781
▁pursued	781
▁passport	781
▁attorney	781
Attention	781
▁Talk	781
Hyundai	780
▁contacted	780
▁outlook	780
chon	779
▁resistance	779
▁plate	779
▁autonomy	779
▁20,000	779
▁iPhone	779
▁thousands	778
▁objection	778
▁Chungbuk	778
▁Pastor	778
▁substances	778
▁Gyeongju	777
Next	777
▁philosophy	777
Matters	777
▁Emergency	777
▁submission	776
▁destruction	776
▁d	776
▁55	776
▁injuries	776
▁weekends	776
ca	775
▁makeup	775
▁hasn	775
▁pride	775
▁Equality	775
▁Judge	775
▁novel	774
▁healing	774
▁counsel	774
▁refugee	774
▁Guard	774
Two	773
▁50,000	773
▁Of	773
▁cable	772
▁locations	772
▁arms	772
▁declined	772
▁sugar	772
▁crew	772
▁pray	772
▁processes	772
Especially	771
▁swing	771
▁Mun	771
▁rains	771
▁Techno	770
▁juvenile	770
ative	770
▁tight	770
▁completing	769
▁girls	769
▁handled	769
▁unknown	769
▁abolition	768
▁Pangyo	768
▁networks	768
▁43	768
▁bulletin	768
▁jumped	767
▁scoring	767
▁Mokpo	767
▁worship	767
▁42	766
▁blocking	765
▁regarded	765
▁compensate	765
▁reference	765
▁0	764
▁agreements	764
▁Gov	764
▁combines	764
▁regeneration	764
▁rainy	764
▁riding	764
▁democratic	763
▁discharged	763
▁petitions	763
▁signature	763
▁ownership	763
▁Test	763
▁protecting	762
▁Forces	762
Along	762
▁pattern	762
ator	762
▁issuing	762
▁concentrate	762
▁ordering	762
▁2018,	761
▁drinks	761
ee	760
▁distribute	760
▁hometown	760
▁Namyangju	760
▁visible	760
▁banned	759
▁seconds	759
▁stating	759
▁shipped	758
▁sessions	758
attached	758
▁liked	758
▁Pay	758
▁UK	758
governing	757
ber	757
Hello	757
▁treasury	757
▁competitions	757
▁profitability	757
▁Lord	757
▁automatic	757
▁Nuclear	756
▁underway	756
▁personally	756
▁permit	756
▁useful	756
▁picked	755
▁harder	755
▁Memorial	755
▁taxation	755
▁shift	754
▁suggest	754
▁speaker	754
▁forms	754
▁Camp	754
▁bringing	754
chang	754
▁fruits	754
▁unclear	753
▁quiet	753
▁wouldn	753
▁Turkey	753
Up	753
▁papers	753
▁Network	752
▁desk	752
?""	751
hak	751
▁excited	751
▁Kaesong	751
▁mediation	751
▁proportional	751
▁Byeong	750
▁cameras	750
▁disability	749
▁determination	749
▁contrary	749
▁entrepreneurs	749
priced	749
▁Interior	749
▁Tong	748
▁prolonged	748
▁floors	748
▁junior	747
im	747
▁2000	747
▁threatened	747
▁2012,	747
▁Burning	747
▁nights	747
▁defined	747
▁resulted	747
▁server	746
▁Dongjak	746
▁punished	746
▁regularly	746
▁returns	746
▁stands	746
▁valuable	745
▁""2018	745
▁guys	745
▁slowly	745
▁lifted	745
▁talented	745
ide	745
▁invite	745
▁Ban	744
yoon	744
▁firefighters	744
▁decreasing	743
▁Chamber	743
▁generally	743
▁illness	743
▁greenhouse	743
▁steady	743
▁fisheries	743
▁Yeosu	743
▁delegated	743
▁colorful	743
▁investor	742
▁sponsored	742
▁Con	742
▁systematically	742
▁extremely	741
▁edge	741
▁Cheonan	740
▁Persons	740
▁resort	740
Only	740
▁impression	740
▁legs	739
▁appliances	739
▁fulfill	738
▁complained	738
▁coordination	738
▁intervention	738
▁impressive	738
▁productivity	738
▁showcase	737
▁progressive	736
▁Consumer	736
▁argue	736
▁instructor	736
▁stabilize	736
▁translation	736
▁friendship	736
▁creates	735
▁Sae	735
▁typical	735
▁Cooperative	735
▁sought	734
▁laugh	734
▁paintings	734
▁sounds	734
▁mistakes	734
seop	734
▁Great	734
regular	733
▁Pacific	733
▁preference	733
▁testing	732
▁terminal	732
▁arrival	732
▁heatwave	732
▁washing	732
▁GM	732
▁gun	732
pro	732
▁logic	731
▁Child	731
▁involvement	731
▁chain	730
▁desirable	730
▁grandmother	729
▁partnership	729
▁attacks	729
▁Other	729
▁exceeds	729
30	729
▁Q	729
▁opposing	728
▁30,000	728
▁ending	728
▁producer	728
▁ecological	728
▁hurry	727
▁ambassador	727
▁founder	727
▁roles	727
▁unified	726
▁emissions	726
▁directions	726
▁constant	726
▁Former	725
▁machines	725
▁object	725
point	724
▁therapy	724
▁files	724
▁Du	723
for	723
▁effectiveness	723
▁replied	723
▁negligence	723
▁walls	723
Experts	723
ron	723
▁blow	722
Moon	722
wan	722
▁chair	722
▁Cabinet	721
▁mention	721
▁tens	721
▁Black	721
▁lending	721
▁Class	720
▁fly	719
▁micro	718
▁defendant	718
▁en	718
▁largely	718
▁Arabia	717
▁vessels	717
▁ledger	717
pe	717
▁2.5	717
▁crowded	717
don	717
▁grateful	716
▁44	716
▁spots	716
▁luggage	716
▁dawn	715
▁technological	715
▁aren	715
Analysts	715
▁Chul	715
▁recruiting	714
▁survive	714
▁Disabled	714
▁keeps	714
room	714
▁Program	714
Notwithstanding	713
▁imprisonment	713
▁destroyed	713
▁41	713
▁requesting	713
▁protected	713
Minister	712
80	712
▁Brazil	712
▁Hope	712
▁Po	712
▁Singer	711
▁saving	711
▁tower	711
▁shoulder	710
▁300,000	710
▁Plant	710
▁cope	710
ang	709
▁footage	709
Seo	709
▁tastes	708
▁reaction	708
▁Seon	708
▁belt	708
▁agents	708
▁quit	708
▁observation	707
back	707
du	707
▁fare	707
▁stored	707
▁thousand	707
▁Autonomy	707
▁rises	707
▁hang	706
▁waters	706
▁Le	706
▁unavoidable	706
▁bottle	706
▁portal	706
mon	706
▁attractive	705
▁heated	705
ba	705
▁heading	705
▁Only	705
▁grows	704
Un	704
▁frame	704
▁elector	704
bang	703
▁silver	703
▁exempted	703
▁reverse	703
▁relatives	702
▁harm	702
▁Contest	701
▁Heo	701
▁Indian	701
▁conservation	701
▁financing	701
▁encouraging	701
▁telling	701
▁Gimhae	701
▁laughter	701
oh	701
▁encouraged	700
▁Wall	699
▁Wang	699
▁rescued	699
chairman	698
wing	698
▁branches	698
ever	697
▁seventh	697
▁captured	697
▁52	696
▁literature	696
▁fried	695
▁driven	695
Song	695
▁daytime	694
▁prospective	694
▁(3	694
▁preserve	694
▁burned	693
▁$1	693
▁newsletter	693
▁Gunsan	693
ship	692
▁Cheol	692
▁closure	692
▁manufacturer	692
▁kill	692
▁booth	692
▁mountains	692
▁structural	691
▁failing	691
▁businessmen	691
▁Bundang	691
ik	691
▁transparent	691
Each	691
tro	691
Don	690
▁Anseong	690
▁relieve	690
▁Yangcheon	690
▁immigration	689
▁celebrities	689
▁amazing	689
v	689
▁Southern	688
▁KOSDAQ	688
▁scientific	688
Integrated	688
▁throw	687
▁examples	686
▁depends	686
▁Palace	686
▁nomination	686
▁visual	685
▁liberal	684
lim	684
Me	684
▁exams	683
▁Pocheon	683
▁dramas	683
▁eggs	682
▁defeated	682
Compare	682
▁stops	681
▁parliament	681
▁numerous	680
▁remind	680
▁overtime	680
▁conversion	680
▁realistic	680
▁provisional	680
▁flat	680
▁powder	679
▁restriction	679
▁Ui	679
specializing	679
mu	679
▁auction	679
▁Deok	679
war	679
bae	679
▁simultaneously	678
▁deposits	678
ish	678
▁KOSPI	678
▁helicopter	678
▁nose	678
▁praised	677
▁Christ	677
▁diesel	677
▁lighting	677
▁250	676
▁attach	676
15	676
▁inland	676
▁chocolate	675
ner	675
▁uniforms	675
▁sewage	675
0%	675
▁searching	675
▁missionary	674
▁Gwang	674
▁painful	674
▁facilitate	674
▁native	674
▁linking	674
▁Press	674
▁bribery	673
▁Matters	673
▁components	673
▁options	673
▁Gapyeong	673
▁Media	673
90	673
▁fewer	672
▁maritime	672
▁irregularities	672
▁Ham	672
▁symbol	672
▁functional	672
▁Constitution	672
▁indictment	672
▁auditor	671
▁Siheung	671
▁idol	671
▁synergy	671
▁At	671
▁disappear	670
▁objective	670
▁experiment	670
▁Jeollabuk	669
▁goalkeeper	669
▁negotiating	669
▁mis	669
▁imposition	669
▁wireless	669
▁Chuncheon	669
How	669
▁Experience	669
hae	668
▁absolute	668
ac	668
▁lie	668
private	668
gon	668
▁invitation	668
▁netizens	667
▁500,000	667
▁Superintendent	667
▁recovered	667
▁Evaluation	667
▁rebound	666
▁mini	666
▁49	666
▁nor	666
▁merger	666
Previously	666
▁elements	666
▁Druking	666
pop	665
▁Ambassador	665
▁exposure	665
▁belongs	665
▁threw	665
▁Gumi	665
▁metal	664
▁sum	664
▁prompt	664
▁cuts	664
Actor	664
▁Champions	664
fi	664
▁flood	664
range	664
Sure	663
ten	663
▁wealth	663
▁quarantine	662
▁Extension	662
▁robots	662
▁coverage	662
▁depression	662
▁alert	662
▁Icheon	662
▁explaining	662
▁More	661
government	661
▁challenges	661
▁hide	661
▁compromise	661
▁Ok	660
▁Yeoncheon	660
60	660
▁sand	660
▁expressions	660
▁%	660
▁Major	660
▁lifting	659
▁conclude	659
Other	659
hong	658
▁thick	658
▁Seungri	658
▁faithfully	658
▁directed	657
▁Dobong	657
▁workplaces	657
▁zero	657
▁History	657
▁cheering	657
▁happening	656
▁acquire	656
▁moon	656
▁(5	656
▁Premier	656
▁resign	656
▁flights	655
▁confirming	655
▁inner	655
National	655
▁Treasury	655
▁supervise	655
▁massage	655
▁fired	655
▁relationships	654
▁Anti	654
.2%	654
▁ill	654
▁opens	654
▁violent	654
▁Volunteer	653
made	653
▁shouldn	653
light	652
▁transparency	652
▁teeth	652
▁(4	652
▁Tottenham	652
▁Chungcheongnam	652
▁postponed	652
▁draws	652
▁preferred	651
▁rewards	651
▁split	651
▁horse	651
▁Attention	651
▁vocational	650
▁confessed	650
Jang	650
▁recycling	650
▁buyer	650
▁tells	650
▁lift	649
▁weekly	649
▁frozen	649
▁Britain	649
ze	649
▁c	649
▁Councilor	649
▁spoke	649
▁phrase	649
▁protested	648
▁feed	648
▁tools	648
▁subsidized	648
▁childhood	648
▁deployed	647
▁operational	647
▁explosion	647
▁Noh	647
▁recall	647
▁Huh	646
▁understood	646
▁misunderstand	646
,“	646
▁midst	646
▁ocean	646
▁Bento	646
▁lodging	646
▁Municipal	645
ut	645
vo	645
▁Suncheon	645
▁producers	645
▁suggests	645
▁Two	645
▁Nations	645
▁tank	645
▁retired	644
right	644
▁roof	644
▁qualifications	644
▁fix	644
tan	644
▁merit	644
▁Kwan	643
▁competing	643
▁pure	643
▁highway	642
▁economies	642
▁mask	642
▁promptly	642
▁testimony	642
▁slowing	642
▁categories	641
▁guards	641
▁buried	641
▁veterans	641
▁seasons	641
▁shutdown	641
▁artistic	641
▁constructed	640
▁Basic	640
▁/	640
▁Buk	640
moo	639
▁guarantees	639
▁marking	639
▁40%	639
low	639
▁rank	638
▁Kyu	638
▁USD	638
▁2011,	638
▁contributing	637
▁machinery	637
▁steering	637
▁switch	637
kwon	637
▁informatization	637
▁abortion	637
▁airline	637
▁Room	637
▁prohibited	636
over	636
▁revealing	635
▁prayer	635
bum	635
▁framework	635
▁explore	635
gok	635
▁disorder	635
ch	635
▁borrowed	635
▁Goseong	635
Hwang	635
▁discover	634
▁Any	634
▁conducts	634
ct	634
▁voters	633
▁youths	633
▁borrow	633
▁essay	632
▁shut	632
▁presenting	632
▁induce	632
dis	631
▁stream	631
▁70%	631
De	631
▁Baseball	631
▁controlled	631
▁homeless	631
▁colleagues	630
▁surveys	630
tion	630
▁Isn	630
▁conglomerates	630
▁definitely	630
▁capable	629
▁KBO	629
▁print	629
▁poured	629
▁FTA	629
yeong	629
▁magazine	628
taek	628
▁instructions	628
▁sells	628
▁coalition	628
▁birds	627
▁drastically	627
▁undergo	627
▁snacks	627
▁applies	627
Local	627
ology	626
▁hotels	626
AI	626
▁Kumho	625
mouth	625
▁visa	625
▁Earth	625
▁exists	625
▁judging	625
▁camping	625
▁rush	624
pped	624
▁flavor	624
▁drove	624
▁additionally	624
▁Garden	623
▁colonial	623
▁pregnancy	623
17	623
▁acknowledged	623
▁Experts	623
▁Electric	622
grade	622
wi	622
▁Eastern	621
▁outbreak	621
▁MERS	621
jeon	621
▁supervisor	621
▁Ilsan	621
▁Hu	621
▁wash	620
car	620
▁Steel	620
▁printing	620
▁toilet	620
▁2015."	620
▁tool	620
▁Suk	619
▁deleted	619
par	619
▁basement	619
rate	619
▁inquiry	619
▁"”	619
▁redevelopment	619
▁reputation	618
▁graduated	617
▁Statistics	617
▁Dokdo	617
▁commemorative	617
▁forests	617
▁surpassed	616
▁Facilities	616
▁Beach	616
▁publicity	616
▁organizing	616
▁infant	616
Prosecutors	616
▁shoot	615
▁herself	615
▁Catholic	615
▁midterm	615
▁outlets	615
ring	615
▁Geum	615
▁lay	615
▁fellow	614
▁quota	614
▁Sharing	614
Every	614
▁presents	614
▁80%	613
▁Advisory	613
▁playground	613
▁Here	613
▁aggressive	613
▁advantages	613
ability	613
▁52-	613
▁KB	613
IT	612
▁cyber	612
▁mathematics	612
70	612
▁Living	612
▁arm	612
▁thinks	612
▁Super	611
▁malls	611
election	611
▁responding	611
▁Staff	611
-1	610
▁Criminal	610
known	610
▁clause	610
▁worries	610
Na	609
▁700	609
▁batteries	609
track	609
▁USA	609
▁walked	609
▁wishes	609
▁leak	609
▁peaceful	608
▁800	608
que	608
▁leap	608
▁lowering	608
▁sheet	608
40	608
▁shower	608
Sometimes	608
▁pack	607
▁salt	607
▁pizza	607
▁stir	607
▁fault	607
▁Venture	607
▁Time	606
Mart	606
▁nations	606
Busan	606
▁Jamsil	605
▁Concert	605
▁Di	605
▁contrast	605
▁offensive	605
▁Yangju	605
▁techniques	605
▁Broadcasting	605
▁schedules	605
Three	604
▁Fed	604
1%	604
▁romance	604
▁attempts	604
sil	604
▁10-	603
moon	603
▁Seongdong	603
▁inflation	603
▁Shopping	603
▁incidents	603
▁laid	603
▁afford	602
▁emission	602
▁clinic	602
▁manufactured	602
▁Gwacheon	602
▁forming	602
▁measurement	602
▁drone	602
▁Happy	602
▁alley	601
▁Her	601
▁Nexen	601
▁Gang	601
▁accurately	601
▁aspects	601
▁captain	601
▁commitment	600
▁recruited	600
▁publication	600
▁engines	600
Chung	600
▁carriers	599
▁congestion	599
▁Manager	599
▁Accounting	599
▁abilities	599
▁Political	598
▁uncertainty	598
▁designs	598
▁expecting	598
▁wood	598
▁occupation	598
▁California	598
▁Book	598
▁absent	597
▁grace	597
▁Representatives	597
▁Shinsegae	597
▁defects	597
va	597
▁adoption	597
▁remote	596
▁packaging	596
▁Yonsei	596
▁ongoing	596
▁Malaysia	595
▁occurrence	595
responsibilities	595
▁commit	595
life	595
▁publishing	595
▁obligation	595
▁journalists	595
▁abused	594
story	594
▁adopt	594
ler	594
▁muscles	594
▁campus	594
▁tracking	593
depth	593
▁somewhere	593
▁Bus	593
▁uploaded	593
▁sight	593
24	592
▁belief	592
▁Creative	592
▁46	592
▁Or	592
▁assessed	592
▁contributions	592
▁focuse	592
▁weakened	592
speed	591
▁Italian	591
▁featuring	591
▁dignity	591
▁pan	591
os	591
▁Spanish	591
▁golden	590
Members	590
▁classroom	590
▁commemorate	590
sam	590
▁wholesale	590
▁revenues	590
▁cultivation	590
▁representation	590
▁neglected	589
▁aftermath	589
▁objects	589
▁necessity	589
▁Best	589
▁attributed	588
▁platforms	588
▁singers	588
▁initially	588
▁habits	588
▁alive	588
Special	588
▁critics	588
▁Theater	587
high	587
▁Actress	587
▁virus	587
▁renewed	587
▁pen	587
party	587
Cheong	587
▁exempt	587
Co	587
llegedly	586
▁ginseng	586
▁abnormal	586
ge	586
▁renewal	586
▁lying	586
our	585
▁m	585
▁revive	585
25	585
▁greeting	585
▁gains	585
▁surge	585
▁breast	585
▁shelter	585
▁professionals	584
▁2010,	584
▁bound	584
▁acceptance	584
▁Golden	584
▁pays	584
driving	584
▁Songdo	584
▁touching	583
▁taxis	583
▁releasing	583
▁doubt	583
▁floating	583
▁PM	583
▁hosting	583
▁trucks	582
▁Kwak	581
ong	581
▁ties	581
▁Sky	581
smoking	581
▁taxpayer	581
▁apart	581
▁errors	580
▁Kyo	580
▁cats	580
▁requiring	580
ure	580
▁Seongbuk	580
▁Traffic	579
▁aviation	579
▁worldwide	579
Kwon	579
▁proved	579
▁Enterprises	579
▁Reuters	579
▁Even	578
▁Vision	578
▁Navy	578
▁severely	578
▁batting	578
▁taught	578
▁Joong	577
▁advantageous	577
▁decade	577
▁textbooks	577
Excuse	577
▁El	577
▁Sokcho	577
▁initiative	577
▁sport	576
▁honest	576
▁integrity	576
▁disposable	576
▁heavily	576
▁infection	576
▁leakage	576
▁Republican	576
▁Corps	576
▁lacking	576
▁abolished	575
▁patterns	575
▁Learning	575
▁designer	575
▁km	575
▁51	575
▁suppliers	575
▁breaks	575
▁flying	574
▁47	574
▁skill	574
▁cheese	574
▁eastern	574
▁differentiated	574
▁examined	574
Yang	574
▁lyrics	573
>	573
▁rang	573
▁downward	573
▁surplus	573
night	573
▁Championship	572
▁desired	572
▁Cross	572
▁commencement	572
▁Putin	572
▁approve	572
14	572
▁harsh	571
▁indicat	571
Singer	571
▁innings	571
▁dad	571
▁crops	571
Ahn	571
▁context	571
▁African	570
▁stuck	570
▁asleep	570
▁warehouse	570
ip	570
▁Coach	570
▁characteristic	570
▁obtaining	569
▁Veterans	569
▁praise	569
sup	569
▁muscle	569
▁variable	569
Go	569
▁liquid	569
▁tall	569
▁prestigious	569
▁stuff	569
▁sweat	569
Min	569
▁creativity	568
▁serves	568
▁Steering	568
▁sincerely	568
!"	568
id	568
▁immigrants	568
▁FA	568
▁Ka	568
▁suspicious	568
seung	567
▁maximize	567
▁increasingly	567
▁Should	567
▁Geumcheon	567
▁exclusively	566
▁specialty	566
▁unnecessary	566
▁exciting	566
Article	566
▁searched	566
▁con	566
▁Campus	566
▁juveniles	565
▁frequency	565
▁g	565
▁Gong	565
▁Telecom	565
▁everywhere	565
▁Bupyeong	565
▁questioning	564
▁journey	564
▁discounts	564
▁convey	564
▁excavation	564
Son	564
uk	564
▁underprivileged	564
▁liver	564
▁lies	564
▁wonderful	564
▁thin	564
▁Liberal	563
▁mode	563
▁Asan	563
▁disappointed	563
▁substitute	563
▁suits	563
▁unstable	563
▁suspects	563
▁shots	562
▁Improvement	562
Lim	562
Dong	562
▁Hoe	562
▁shorter	562
▁shocking	562
▁propose	562
▁Bay	562
▁stamp	562
▁genre	562
▁ceiling	561
▁involve	561
Lawmaker	561
▁dominated	561
▁acid	561
▁fishery	561
▁Live	561
▁thereby	561
▁shaking	561
▁Not	560
▁Tell	560
▁embezzlement	560
▁decades	560
Fi	560
▁resigned	560
▁evil	560
▁transformed	560
Deputy	560
▁confidential	559
▁inquiries	559
▁Startups	559
▁pitchers	559
sh	559
▁hygiene	559
▁lineup	559
▁comfortably	558
▁rough	558
▁rear	558
ping	558
ger	558
▁sincere	558
▁observe	558
▁dismiss	558
▁therefor	558
▁shed	558
▁criticizing	557
▁beating	557
▁manages	557
▁quarters	557
▁stepping	557
ram	557
▁announcing	557
▁ring	557
▁commendation	557
▁flagship	557
▁donate	557
▁hoped	557
▁questioned	557
▁rooftop	556
▁Judicia	556
▁therefore	556
shi	556
▁exemplary	556
▁burst	556
▁medals	556
▁tendency	555
▁1980	555
Public	555
▁Night	555
▁75	555
”,	555
ti	554
▁dividend	554
▁protests	554
▁homework	554
▁threatening	554
▁Te	554
tor	553
ku	553
▁gratitude	553
▁pointing	553
▁compare	552
▁Yeoju	552
sharing	552
▁delivering	551
▁described	551
▁Guarantee	551
rok	551
▁verified	551
▁GS	551
▁committees	551
▁hobby	551
▁affection	550
▁languages	550
▁submitting	550
▁predecessor	550
▁sing	550
▁grandfather	550
▁Nonghyup	550
▁broadcaster	550
▁KTX	550
ier	550
▁landing	550
▁distributing	550
▁corrective	549
not	549
▁Solidarity	549
▁partial	549
▁Hyeon	549
Yoo	549
▁revitalizing	548
▁unprecedented	548
▁sincerity	548
▁clouds	548
▁warnings	548
▁deals	548
▁texture	548
▁architecture	548
red	547
▁sections	547
▁cap	547
▁180	547
combining	547
▁tenants	547
pyeong	547
▁Israel	547
▁writers	547
▁accepting	546
za	546
▁Studies	546
▁1.2	546
▁exception	546
▁remark	546
▁overwhelming	545
▁referring	545
▁juice	545
woong	545
▁hospitalized	545
▁Take	545
▁vary	544
▁Use	544
▁royal	544
18	544
▁sensor	543
▁arise	543
bility	543
▁cruise	543
▁appeals	543
▁vitality	543
▁moisture	542
▁attends	542
2,	542
▁trains	542
driven	542
▁vacancy	542
▁converted	541
▁wallet	541
▁Unit	541
▁yuan	541
▁Boo	540
▁truly	540
▁ethics	540
▁removing	540
▁1990	540
▁consistently	540
▁organizational	540
▁unreasonable	540
top	540
▁armed	540
▁KEPCO	539
▁soared	539
▁prospects	539
▁generate	539
▁ages	539
▁Students	539
▁congratulator	539
▁grass	539
▁Los	539
▁Data	539
▁allocation	539
▁comparison	538
▁lonely	538
▁dating	538
▁punish	538
▁restrict	538
▁tries	538
▁enhancing	538
▁trash	538
▁divorce	538
▁guardian	537
▁tennis	537
▁developers	537
▁infectious	537
art	537
Well	537
▁Jan	537
▁detection	537
▁executed	536
▁reserved	536
▁supplying	536
ries	535
▁Shipbuilding	535
Nam	535
▁computers	535
▁acquaintances	535
▁surveillance	535
▁Just	534
▁update	534
▁Reserve	534
ite	534
centered	534
▁54	534
▁laundry	534
▁Haeundae	534
▁booths	534
▁margin	534
▁piano	534
▁seller	534
▁shocked	533
`	533
▁breath	533
▁pollutants	533
▁nominated	533
▁romantic	533
▁prizes	533
▁substance	533
▁pig	533
▁choosing	532
▁pursuing	532
▁belong	532
▁diplomacy	532
▁believing	531
▁upward	531
▁emerge	531
mp	531
▁positively	531
Su	530
▁jump	530
▁Temple	530
▁boom	530
▁inspected	530
ical	530
▁Manchester	529
▁witnesses	529
▁excess	529
▁unfamiliar	529
Sorry	529
▁alarm	529
▁Disease	529
▁Mt	529
▁VR	529
▁qualified	528
▁Analysts	528
▁format	528
▁restored	528
▁doors	528
pt	527
den	527
▁humanities	527
▁automobiles	527
owned	527
▁competitors	527
net	527
Lotte	527
Though	527
▁resolving	526
▁activists	526
▁Space	526
Indeed	526
▁aiming	526
commerce	526
▁poster	526
▁cooling	526
▁budgets	526
Rep	525
pre	525
istic	525
▁barriers	525
▁Report	525
▁proven	525
chieving	525
▁occasion	524
▁amended	524
▁historic	524
▁crashed	524
▁log	524
Chief	524
Z	523
cha	523
▁Dan	523
▁Northeast	523
▁covering	523
▁examining	523
▁suggesting	523
▁eliminate	523
▁2022	523
▁oxygen	522
▁contractor	522
▁noteworthy	522
▁barrier	521
▁eased	521
▁transmission	521
▁stick	521
hu	521
▁72	521
▁worn	521
ium	521
▁celebration	521
tain	521
▁Gil	520
▁Convergence	520
▁convened	520
▁voted	520
▁comprehensively	520
gen	520
▁circulation	520
▁breakthrough	520
▁James	519
▁secretly	519
▁LED	519
▁cautious	519
▁speeding	519
Fortunately	519
▁runner	518
▁Yangpyeong	518
TV	518
Furthermore	518
▁luck	518
▁Bok	518
▁exploration	518
▁innocent	518
ley	517
▁inspector	517
▁capability	517
▁Osaka	517
▁calculating	517
there	517
▁anytime	516
oc	516
▁poisoning	516
▁fined	516
▁targeted	516
▁unmanned	516
▁desperate	515
dan	515
nuri	515
▁acquaintance	515
▁60%	515
▁measuring	515
▁Creation	515
▁forever	515
▁Holdings	515
▁59	515
▁discovery	515
▁Lu	514
▁viewing	514
▁offense	514
▁fought	514
▁windows	514
▁carrier	514
member	514
▁successor	514
▁conventional	514
▁mortgage	514
▁influenced	513
Po	513
▁convene	513
▁meant	513
▁diabetes	513
-3	513
▁railroad	513
▁tie	513
▁evasion	513
▁conservatives	512
▁tap	512
▁poll	512
▁2006	512
▁rely	512
▁fatigue	512
▁bike	512
▁declare	512
▁scent	512
▁cluster	511
▁refunded	511
▁drones	511
Governing	511
care	511
▁Ik	511
▁Mount	511
▁doll	510
▁pine	510
▁seafood	510
▁motion	510
▁dealt	510
hether	510
▁shuttle	510
▁DSC	509
eng	509
▁folk	509
▁arrange	508
▁aside	508
▁hikes	508
▁exclude	508
▁<	508
cy	508
▁Paul	508
Prior	508
▁shake	507
▁poverty	507
▁vessel	507
▁solidarity	507
▁2003	507
▁collusion	507
sin	507
▁wondering	507
lic	507
▁criticize	506
KRW	506
▁rarely	506
▁pedestrian	506
▁babies	506
ig	506
▁cherry	506
▁structures	506
eum	505
▁statute	505
▁25%	505
▁decisive	504
▁undergoing	504
shaped	504
▁Kuk	504
▁supreme	504
▁prescribing	504
▁deterioration	504
▁meter	504
▁Argentina	503
▁mobility	503
▁breathing	503
rin	503
▁Index	503
▁represents	503
side	502
▁slowed	502
▁Netflix	502
▁feedback	502
▁surpass	502
▁lifestyle	502
▁inequality	502
real	502
▁persuade	502
▁b	502
▁federal	502
▁Zealand	502
▁deliberated	501
▁Pan	501
▁pulled	501
▁Angeles	501
Be	501
▁kid	501
▁revoke	501
▁produces	501
▁deduction	500
▁doubled	500
▁boats	500
▁uncertain	500
▁billions	499
▁valid	499
ological	499
bit	499
▁trainees	499
▁Christians	499
▁audiences	499
▁reflection	499
▁statue	499
▁specifically	499
▁audition	498
sen	498
let	498
▁oppose	498
▁dozens	498
▁bacteria	498
▁textile	497
▁Eunpyeong	497
▁Morning	497
▁consciousness	497
▁Play	497
▁striker	496
▁rumor	496
fe	496
▁Embassy	496
▁63	496
gan	496
▁adjacent	496
▁Enterprise	496
▁width	495
ification	495
▁temple	495
▁Light	495
▁expired	495
▁Expo	495
▁inconveniences	495
▁cafes	495
▁perfectly	495
ration	495
▁rid	494
▁nominee	494
▁Oct	494
▁assaulting	494
▁grammar	494
▁fate	494
▁courage	494
▁Ocean	494
▁religion	493
▁wrap	493
▁yield	493
▁walks	493
▁makers	493
▁obvious	493
Gangnam	493
▁recurrence	493
▁exercises	492
▁bomb	492
▁brothers	492
▁backlash	492
▁ancient	492
▁crude	492
▁Centers	492
▁liquor	492
▁pets	492
▁preferentially	492
▁Senate	492
only	491
▁apps	491
▁inflow	491
▁technique	491
▁scenario	491
▁traveled	491
▁explosive	491
▁pipe	491
sion	491
▁predicts	491
▁pink	490
▁mobilized	490
▁fabric	490
yu	490
▁lesson	490
▁powers	490
▁Old	490
▁crack	490
▁compulsory	490
▁extenuati	490
▁reluctant	490
▁quoted	490
▁pants	490
▁chest	489
▁occupancy	489
▁unauthorized	489
▁Madrid	489
▁prevented	489
▁photographs	489
▁Gyo	489
▁downturn	489
▁Bon	489
▁immune	489
▁credibility	489
▁filling	489
▁recipients	489
book	488
▁Chungcheongbuk	488
▁prospect	488
▁exhausted	488
▁Dec	488
▁Each	488
▁appearing	488
▁confused	488
▁sat	487
▁deregulation	487
▁Stream	487
▁preparations	487
▁strictly	487
pi	487
▁greatest	487
▁Quality	486
heon	486
▁genetic	486
▁excitement	486
▁accessibility	486
▁habit	486
▁finds	486
▁JTBC	486
▁trained	485
▁maker	485
▁conveniently	485
▁emotion	485
▁indirect	485
▁Ssangyong	485
▁lessons	485
▁bribes	485
▁apologized	485
▁password	485
▁Gwanggyo	485
Pro	484
▁consistent	484
▁catching	484
▁knee	484
▁brokerage	484
▁wire	484
▁instrument	484
▁distrust	484
▁Pa	484
▁infected	484
▁documentary	484
tu	484
▁seized	484
▁exercising	484
▁admissions	483
▁wooden	483
▁stairs	483
▁proceeded	483
▁determining	483
▁egg	483
▁deposited	483
buk	483
Mo	483
▁facial	483
11	483
▁networking	482
gye	482
▁touched	482
▁slogan	482
▁ward	482
▁decreases	482
▁resumed	482
fighting	481
▁bases	481
▁intentionally	481
mer	481
▁elevator	481
▁posture	480
▁adds	480
Over	480
▁eliminated	480
Later	480
▁omitted	480
▁universal	480
▁replacing	480
▁yen	480
▁burning	480
▁filmed	480
▁Plus	479
▁64	479
Jeong	479
star	479
▁approached	479
▁reshuffle	479
▁instability	479
▁excellence	478
▁classical	478
▁ASEAN	478
5,000	478
▁31,	478
▁NIS	478
▁Student	478
Right	477
▁Am	477
▁cooked	477
▁topics	477
▁traded	477
▁upset	477
▁flu	477
▁wore	476
▁differently	476
▁(1).	476
▁menus	476
▁ideal	476
▁teaser	476
▁minds	476
▁reduces	475
▁relative	475
Pastor	475
▁soldier	475
cho	475
▁(7	475
▁minority	475
▁weakness	474
sim	474
▁loud	474
▁NC	474
▁chemistry	474
▁dramatic	474
▁outlet	474
▁scholars	474
▁ears	474
▁daughters	474
▁abolish	474
▁bone	474
▁longest	474
▁sentences	473
▁dual	473
dy	473
▁poet	473
▁onto	473
▁appealed	473
▁coordinate	473
▁welcomed	473
em	473
▁commuting	473
▁defectors	473
▁84	473
▁utility	473
▁mock	473
▁Ba	472
▁output	472
▁conversations	472
▁passive	472
▁missiles	472
▁(6	471
all	471
▁pleasure	471
▁Gymnasium	471
▁flows	471
▁Seol	471
▁hat	471
▁aspect	471
▁Hynix	471
▁defensive	471
au	471
▁Both	471
▁recommendations	471
tter	471
▁glasses	471
▁adapt	470
▁Hi	470
▁café	470
00	470
▁variables	470
▁Personnel	470
reliance	470
▁Dongducheon	470
dam	470
▁filing	470
▁emphasizing	469
Any	469
▁comeback	469
▁prostitution	469
▁Products	469
▁adjusting	469
▁leaking	469
▁68	469
19	469
▁Golf	469
▁allocated	469
▁vacant	468
▁enacted	468
▁recalled	468
▁Futures	468
▁Honam	468
work	468
▁presidents	468
decentralization	468
▁2018."	468
Vice	468
▁cloudy	468
▁inheritance	467
▁subsidiaries	467
▁pouring	467
▁newspapers	467
▁Gwangmyeong	467
▁refuse	467
▁guy	467
▁hacking	467
▁occurring	467
▁bilateral	467
▁gambling	467
▁embarrassed	467
ven	466
▁electronics	466
▁lend	466
▁Animal	466
▁rivers	466
▁cabinet	466
▁snack	466
added	465
▁cry	465
▁caution	465
Ordinance	465
▁Sept	465
▁activist	465
Expectations	465
▁clients	465
▁parked	465
▁Prince	465
▁flooded	465
▁cultures	465
▁FIFA	465
ities	464
▁strongest	464
▁soaring	464
▁130	464
▁Commissioner	464
▁Candidate	464
cost	464
wha	464
▁pull	464
▁cumulative	464
ball	464
▁warrants	464
▁surveyed	464
▁celebrity	464
▁attacked	464
▁imagination	464
5%	463
▁electrical	463
Actually	463
▁welcoming	463
▁reborn	463
largest	463
▁upgrade	463
▁gasoline	463
▁conditioner	463
▁workweek	463
▁properties	463
▁emphasis	463
▁territory	463
▁struck	462
▁capture	462
▁arose	462
▁wheel	462
▁inconvenient	462
▁Thanks	462
▁threats	462
Pursu	462
▁Yeongdong	461
▁hip	461
▁dormitory	461
▁debts	461
▁rival	461
▁readers	461
Ho	461
▁proof	461
▁midnight	461
▁BioLogics	460
▁lover	460
▁i	460
▁cakes	460
▁4-	460
▁residing	460
chief	460
▁eaten	460
ble	460
▁urge	460
▁approaching	460
▁Biegun	460
▁pensions	460
▁realizing	460
stop	460
▁boarding	459
▁Everyone	459
▁Stock	459
▁seasonal	459
▁instant	459
▁reveals	459
▁repeat	459
▁lobby	459
les	458
▁noticeable	458
▁alternatives	458
Head	458
▁90%	458
▁plenty	458
▁dancing	458
▁intersection	458
▁weekdays	458
▁pot	457
▁53	457
▁gym	457
▁hiding	457
Ra	457
▁Travel	457
▁problematic	457
▁decides	457
▁hanging	457
▁bicycles	457
▁dried	457
▁Nov	457
▁suggestions	457
▁prominent	457
▁television	457
▁tours	457
▁cheer	456
▁Paldang	456
▁Non	456
▁activated	456
yo	456
▁Hang	456
▁Yo	456
Traditional	456
▁reliable	456
▁cigarette	456
▁twin	456
▁realization	455
▁Bolton	455
ray	455
▁funny	455
▁penalties	455
▁sympathy	455
▁lacks	455
▁Working	455
▁Mirae	455
▁hurts	455
▁evaluating	455
▁mix	455
▁Advanced	455
▁containers	455
▁reconciliation	455
▁treatments	455
▁textbook	455
▁interim	455
▁Gas	455
▁freeze	454
▁estimates	454
support	454
▁outer	454
▁Site	454
▁defect	454
ttaching	454
▁900	454
▁Assessment	454
▁economics	454
▁publish	454
▁advisor	454
Prime	454
▁consignment	453
▁till	453
ahn	453
▁2019,	453
hosted	453
▁Renault	453
▁invention	453
▁Osan	453
▁prejudice	453
▁asks	453
▁Survey	453
85	453
▁Kimchi	453
▁reappointed	453
myeong	453
▁escaped	453
▁Spring	453
▁rounds	453
▁overcoming	453
Jin	453
▁associations	452
▁syndrome	452
▁Shi	452
▁rankings	452
▁Dis	452
▁coexist	452
▁cooperatives	452
woon	452
▁proceeds	452
▁allegation	452
▁resumption	452
can	451
▁civilians	451
▁accelerate	451
▁belatedly	451
▁journalist	451
▁utilized	451
▁Executive	451
▁printed	451
▁ignored	451
▁1.3	451
▁founding	451
▁Gyeonggido	451
▁tone	451
▁85	450
▁Heroes	450
▁tropical	450
▁listened	450
▁constitution	450
qui	450
▁specialist	450
▁cigarettes	450
▁improvements	449
▁Work	449
bar	449
▁stabilization	449
▁IP	449
▁Three	449
▁Relations	449
▁With	449
▁mound	449
▁emphasizes	449
▁silent	449
▁developmental	448
port	448
▁aides	448
▁Pyeongchang	448
American	448
▁brings	448
▁humanitarian	448
lin	448
▁uncertainties	448
▁occupied	447
▁Nuri	447
▁traces	447
Star	447
▁compliance	447
▁caring	447
▁depth	447
▁inventory	447
utonomous	447
▁Measures	447
ned	447
▁tested	447
▁assignment	447
▁substantial	447
Con	447
▁Journal	446
rang	446
▁tradition	446
▁yard	446
▁IC	446
▁covers	446
▁halls	446
▁tip	446
▁evaluations	446
▁throwing	445
▁packed	445
▁Hanam	445
down	445
▁repay	445
▁reception	445
▁refrain	445
Statistical	445
▁coupon	445
▁Ronaldo	445
▁(19	445
▁Story	444
▁highlight	444
La	444
▁lucky	444
▁corrected	444
▁1.8	444
▁lady	444
▁controlling	444
hood	444
49	444
▁fence	444
Scholastic	444
▁Content	444
▁reservations	444
▁practicing	444
▁essence	444
▁heaven	443
▁custom	443
50	443
▁radiation	443
▁crying	443
▁proceeding	443
▁enemy	442
▁acted	442
ff	442
▁Chu	442
▁Terminal	442
▁soul	442
▁nurse	442
▁transferring	442
▁obesity	442
▁satellite	442
▁besides	442
4%	442
▁prevents	442
▁socially	441
▁‘	441
▁avoiding	441
▁imposing	441
▁Yeom	440
▁protein	440
▁defender	440
▁reversal	440
▁anticipated	440
▁crossing	440
28	440
▁Bloomberg	440
▁reforms	440
ile	439
▁input	439
▁sin	439
▁foldable	439
act	439
▁noticed	439
▁Gwangyang	439
Pacific	439
▁hero	439
▁discipline	438
▁appreciation	438
▁Maybe	438
▁Code	438
Incheon	438
▁Second	438
▁firefighting	438
▁Hanyang	438
▁introduces	438
▁relax	438
▁copies	438
▁terrible	437
▁Men	437
°	437
▁diversity	437
▁Gyeyang	437
yi	437
),""	437
▁passionate	437
▁Pre	437
▁edition	437
▁airlines	436
▁Hoon	436
16	436
▁palace	436
▁Bitcoin	436
▁describe	436
▁clarify	436
▁""2019	436
cing	436
▁Compensation	436
▁surname	436
▁unemployed	436
▁(5)	435
▁Starbucks	435
▁viewed	435
▁(8	435
▁intensively	435
▁warming	435
▁cleared	435
12	435
▁f	434
▁grasp	434
▁breeding	434
Ko	434
▁rail	434
▁worsened	434
▁procurement	434
▁remodeling	434
▁Railroad	434
▁intentions	434
▁Orchestra	434
29	434
▁batter	434
▁terminated	434
▁Namsan	434
▁Thai	434
lan	434
▁Expenses	434
▁overdue	434
Finally	433
ists	433
▁David	433
▁pyeong	433
▁Make	433
▁spouse	433
▁beneficiaries	433
▁circuit	432
▁rushed	432
▁avoided	432
▁Digital	432
▁Graduate	432
▁5%	432
▁Dodgers	432
▁receipts	432
▁wet	432
▁57	432
▁profile	432
▁About	431
▁postpone	431
▁KakaoTalk	431
interest	431
▁Companies	431
▁thermal	431
Besides	431
▁crash	431
▁decorated	431
▁flowing	431
▁reaches	431
▁matching	431
▁56	431
third	431
▁nurses	431
▁modified	431
▁highlighted	431
Council	431
▁anxious	431
▁bloom	431
▁Venezuela	431
▁elder	431
▁Mall	430
▁salad	430
▁61	430
0	430
▁specialists	430
▁lovely	430
▁complain	430
▁gospel	430
▁drought	430
▁eighth	430
▁Members	430
▁Spirit	430
▁treaty	430
▁Ms	429
▁sees	429
▁62	429
▁tunnel	429
▁logo	429
▁investigator	429
Foreign	429
▁concepts	429
▁Customs	429
▁Change	429
▁summoned	429
▁imagine	428
▁Robert	428
▁marry	428
League	428
▁adviser	428
▁selects	428
▁Cheon	428
▁stimulate	428
Young	428
▁Pil	428
▁combine	428
▁sunlight	428
▁Switzerland	427
Chinese	427
ious	427
AR	427
standing	427
66	427
gyeong	427
▁dental	427
35	427
▁differ	427
▁Regulation	427
▁providers	427
▁veteran	427
▁tenant	427
▁After	426
▁protocol	426
▁indicated	426
▁Happiness	426
▁ingredient	426
Perhaps	426
▁foreigner	425
▁distinguish	425
▁reversed	425
▁glance	425
Mi	425
▁hospitalization	425
▁shook	425
▁pastors	425
▁bitter	425
▁Citizen	425
area	425
▁OLED	425
Citizens	425
▁blocks	425
▁preventive	425
▁resting	424
▁Wan	424
▁destroy	424
Jo	424
▁~	424
purpose	424
▁islands	424
▁indirectly	424
▁Iranian	424
▁Alliance	424
▁2001	424
▁mysterious	423
▁probation	423
▁audits	423
▁malicious	423
▁forgot	423
▁choices	423
▁storm	423
▁Ethics	423
Here	423
▁drank	423
▁harvest	422
▁minus	422
▁Lawmaker	422
▁Estate	422
▁retailers	422
▁travelers	422
▁whatever	422
▁seeds	422
▁secrets	422
▁merchant	422
▁Hyuk	422
▁Pharmaceutical	422
▁urging	422
▁Apartment	422
88	421
▁enactment	421
▁Monet	421
Global	421
▁lung	421
ep	421
▁bottles	421
cc	421
▁impressed	421
▁stressing	421
▁sacrifice	421
▁cave	421
▁ourselves	420
▁defend	420
▁commerce	420
▁Resort	420
▁indicates	420
▁speakers	420
▁patents	420
▁stroke	420
▁trauma	420
▁Mart	419
CC	419
▁Nexon	419
▁Gangbuk	419
▁rape	419
▁commodity	419
board	419
▁relieved	419
▁par	418
▁burdened	418
▁intensified	418
▁seed	418
IC	418
▁measured	418
▁layer	418
▁shaken	418
▁chart	418
▁slight	418
▁jail	418
▁paradigm	418
▁valley	418
▁overnight	418
▁arriving	418
▁featured	417
▁approximately	417
▁taxpayers	417
▁displays	417
▁volatility	417
▁Summer	417
ard	417
▁negotiate	417
▁auditorium	417
fer	416
▁Barcelona	416
▁Ex	416
▁boys	416
▁Jecheon	416
Children	416
▁steep	416
▁notable	416
13	416
sports	415
▁thankful	415
handed	415
▁Professional	415
▁nickname	415
▁wrapped	415
kyo	415
tel	415
▁execute	415
▁sisters	415
▁affiliate	415
Four	415
▁aide	415
▁bird	415
▁swept	414
▁faction	414
▁crossed	414
▁challenging	414
▁recognizes	414
ab	414
▁TF	414
▁enthusiastic	413
▁2002	413
heung	413
▁fairly	413
▁filter	413
▁sponsor	413
▁threaten	413
▁script	413
▁fishermen	413
▁hungry	412
▁luncheon	412
tending	412
▁Master	412
▁bold	412
High	412
▁Miss	412
▁Growth	412
▁unfavorable	412
▁mounting	412
▁Deal	412
▁emphasize	411
hui	411
▁paint	411
▁suggestion	411
▁treating	411
▁pocket	411
▁regain	411
▁Sim	411
▁Australian	411
▁affair	411
▁champion	410
▁notes	410
▁Subsidies	410
▁Pe	410
▁transformation	410
▁CEOs	410
▁cultivate	410
▁Shinzo	410
▁mature	410
rk	410
▁permitted	410
Why	409
▁Arena	409
▁2014."	409
itis	409
Cha	409
▁criminals	409
gra	409
▁rookie	409
▁label	409
▁Judiciary	409
ver	409
▁flooding	409
ina	408
▁Inc	408
▁hoping	408
▁lens	408
▁spa	408
▁appraisal	408
▁COEX	408
▁nurture	408
▁vaccination	408
▁mentally	408
▁ranks	408
▁withdrawn	407
▁component	407
▁servant	407
city	407
▁MC	407
Ro	407
koo	407
▁polarization	407
▁instruments	407
▁dispose	407
▁eldest	407
▁designers	407
▁anyway	407
21	407
▁ninth	407
▁strive	407
▁waited	407
▁physically	406
mark	406
▁blame	406
▁remembered	406
uff	406
▁vacuum	406
▁amusement	406
▁dividends	406
▁referee	406
▁certainly	406
▁athlete	406
▁wisdom	405
▁jacket	405
▁Turkish	405
▁staged	405
▁reinforcement	405
▁scattered	405
sol	405
▁Nakdong	404
▁addiction	404
▁dates	404
hand	404
field	404
▁bell	404
▁vivid	404
▁Ni	404
26	404
▁Series	404
▁depend	404
▁termination	403
▁Language	403
▁kicked	403
▁reunion	403
▁enormous	403
▁Wave	403
▁reactions	403
▁deepening	403
▁Lab	403
▁normalization	403
▁1.6	403
▁squad	402
▁tensions	402
▁Zero	402
Usually	402
▁ROK	402
▁stolen	402
song	402
▁lawsuits	402
▁112	402
ham	402
▁sanitary	402
▁coaches	402
▁obligations	401
▁intensifying	401
▁developer	401
▁faculty	401
▁advancement	401
▁enhanced	401
▁authorized	401
▁privacy	401
▁legally	401
▁comparing	401
▁pledges	401
▁smiling	400
▁IoT	400
▁publicize	400
▁represented	400
gyeom	400
under	400
Good	400
▁Medicine	400
▁SW	400
▁ramen	400
▁respected	400
▁Wage	400
▁intend	399
▁complaining	399
▁stopping	399
▁absurd	399
ach	399
▁pipes	399
▁upload	399
▁pages	399
▁nutrition	399
▁Dam	399
33	399
▁intensity	398
▁lane	398
▁Call	398
Asked	398
▁aptitude	398
▁incentive	398
place	398
▁firmly	398
▁parcel	398
IS	398
Ryu	398
▁rejection	397
▁Display	397
▁chaebol	397
▁Arab	397
▁Jinju	397
▁Wonju	397
▁auditors	397
▁custody	397
working	397
Jeju	397
▁encouragement	397
▁healthcare	397
▁mirror	397
▁disorders	397
▁reserves	396
▁Y	396
▁knife	396
▁depicts	396
▁Season	396
▁dressed	396
▁fintech	396
▁lecturer	396
▁collateral	396
▁1998	396
▁entitled	396
hyang	396
▁worrying	396
▁strengths	396
employment	396
▁installment	396
▁Natural	396
looking	396
▁colleges	396
▁ratification	396
▁weakening	396
▁collision	396
▁eligibility	395
▁1,500	395
new	395
▁bail	395
▁beds	395
▁commodities	395
▁crowd	395
Critics	395
▁countermeasure	395
▁declining	395
▁reject	395
▁liquidity	395
▁Gate	395
▁breakdown	395
▁sophisticated	395
▁Sector	395
▁pitching	395
keun	394
▁outcomes	394
▁accordingly	394
▁unilaterally	394
▁count	394
ps	394
6,000	394
▁pigs	394
▁findings	394
▁keynote	393
▁thereto	393
▁measles	393
39	393
▁thrown	393
▁73	393
▁validity	393
Ga	393
▁divide	393
▁Countermeasures	393
▁injection	393
▁helicopters	393
▁climb	393
water	392
Can	392
chu	392
▁benchmark	392
▁Ca	392
▁fraudulent	392
▁irregular	392
▁spare	392
▁specifications	392
▁mechanical	392
▁beverage	392
▁Every	392
▁Ar	391
▁magic	391
▁prosperity	391
87	391
▁Tree	391
▁moral	391
▁immunity	391
▁brown	391
▁58	391
▁Syria	391
▁dramatically	391
-4	391
ud	391
▁sunset	391
▁intangible	391
▁cleaner	391
▁raining	391
▁demolition	390
▁KINTEX	390
▁brilliant	390
cal	390
▁1.4	390
▁transform	390
▁workforce	390
dimensional	390
▁Teachers	390
▁Tech	390
▁sensors	390
▁Railway	390
▁shoe	389
gyun	389
▁shame	389
▁stole	389
▁Coordination	389
▁finances	389
▁closest	389
▁designating	388
▁Things	388
▁burdensome	388
▁4,000	388
▁calculate	388
é	388
▁dessert	388
▁Ceremony	388
▁climbing	388
▁sa	388
▁Holy	388
▁66	388
▁Mom	388
64	387
▁parade	387
▁Z	387
▁relaxed	387
▁experiments	387
▁relay	387
96	387
▁youngest	387
▁fairy	387
▁activate	387
▁united	387
99	387
▁cons	387
▁woke	386
▁auxiliary	386
▁ma	386
▁environments	386
ack	386
▁assumed	386
▁believers	386
▁preserved	386
▁optimal	386
gyo	386
▁CCTVs	386
▁boasts	386
65	386
▁Start	386
▁110	386
▁delegate	385
-20	385
▁finger	385
▁hardly	385
▁Michuhol	385
Daegu	385
▁employers	385
▁railways	385
▁Ne	385
▁cups	385
▁unity	385
▁hearings	385
▁commute	384
▁deploy	384
▁bones	384
▁fighter	384
▁clip	384
▁periods	384
▁supplier	384
ot	384
▁examinations	384
▁Newspaper	384
▁beans	384
▁purifiers	384
▁Seogwipo	384
▁polls	383
▁Presbyterian	383
▁scared	383
▁default	383
▁arguing	383
▁companion	383
ino	383
▁locked	383
63	383
Around	383
▁farmland	383
▁pity	383
▁favors	383
▁Express	383
▁disadvantage	382
▁verge	382
▁Bin	382
▁flew	382
▁possession	382
▁Bum	382
▁painted	382
▁recipient	382
▁engineer	382
▁bath	382
▁Disabilities	381
▁Indonesian	381
▁cellphone	381
hoe	381
▁Democrats	381
▁provider	381
▁develops	381
▁determines	381
▁politician	380
▁happily	380
▁sang	380
▁nowadays	380
▁acknowledge	380
▁crucial	380
▁Byun	380
▁disadvantages	380
▁Fourth	380
▁animation	379
Depend	379
▁vaccine	379
wa	379
▁AM	379
▁satisfy	379
lor	379
▁umbrella	379
▁Christianity	379
▁booking	379
▁planting	379
▁pressed	379
▁Queen	379
▁loves	379
rak	379
▁lake	379
▁entities	378
▁Vi	378
▁Buddhist	378
▁Order	378
▁comedy	378
▁specialize	378
wol	378
▁ankle	378
▁Lo	378
77	378
▁stipulated	378
▁intervene	378
▁manufacture	378
▁fits	377
▁roll	377
foot	377
▁spotlight	377
▁beneficial	377
▁coaching	377
▁literary	377
▁arrears	377
▁signboard	376
▁Duty	376
▁expires	376
▁Canadian	376
Corruption	376
▁Geo	376
▁extending	376
▁timely	376
▁commissioner	376
▁conveyed	376
▁mining	376
▁boiler	376
▁intent	376
▁Fortress	376
▁relics	375
▁considers	375
▁protesting	375
▁chef	375
▁guitar	375
▁Resident	375
▁infringement	375
▁unpaid	375
▁none	375
▁1,0	375
▁engineers	374
▁lovers	374
▁idle	374
▁terrorist	374
▁accusation	374
▁Mark	374
flight	374
.'"	374
ai	374
▁messenger	374
▁bowl	374
▁reside	374
▁upgraded	373
▁steak	373
▁improves	373
▁freight	373
Your	373
ren	373
▁Gwan	373
▁excessively	373
▁Livestock	373
Overseas	373
▁requirement	373
Students	373
▁endure	373
▁plunged	373
▁masks	373
▁Distribution	373
▁unveil	373
ug	372
tang	372
Both	372
▁Chemical	372
Life	372
gwan	372
▁Performance	372
mok	372
▁2020,	372
▁remarkable	372
▁160	371
▁vegetable	371
94	371
▁surprising	371
▁2020."	371
▁scholarships	371
▁excuse	371
▁panels	371
▁SUV	370
▁trusted	370
ev	370
▁lottery	370
special	370
▁borrowing	370
▁GDP	370
7%	370
lar	370
om	370
▁ideology	370
▁delete	370
▁evacuation	370
▁attachment	370
▁Cafe	369
▁updated	369
▁Hill	369
▁Commercial	369
▁Girl	369
ix	369
▁Too	369
▁motivation	369
director	369
▁forgotten	369
Unfortunately	369
non	369
▁boring	369
▁bonus	369
▁Honor	369
▁significance	369
34	369
chae	369
▁abusing	368
▁foul	368
▁2013."	368
▁waist	368
▁awkward	368
▁triggered	368
▁terminate	368
▁biological	368
▁barely	368
▁Choo	368
▁salaries	367
od	367
▁lasted	367
▁freezing	367
▁revived	367
▁Ku	367
▁prescription	367
▁Parliament	367
▁retaliation	367
▁detect	367
▁Four	367
Ji	367
▁coin	366
▁detective	366
▁spokesperson	366
▁Michael	366
▁testified	366
nic	366
▁retire	366
cu	365
▁reinforce	365
▁campaigns	365
▁(10	365
joong	365
▁exported	365
▁2019."	365
▁liaison	365
road	365
▁fled	365
▁lifetime	365
▁courts	365
▁borne	364
▁communicating	364
▁Their	364
▁Knowledge	364
▁prediction	364
▁App	364
▁arrangement	364
▁drill	364
86	364
season	364
kwang	364
▁participates	364
ny	364
ped	364
eo	364
▁Chungju	363
▁interpret	363
▁chip	363
▁ha	363
▁rainfall	363
▁maybe	363
▁individually	363
▁Islamic	363
Trump	363
▁reorganized	363
▁chemicals	363
protective	362
▁dependent	362
▁permits	362
▁140	362
▁Ru	362
tric	362
▁virtuous	362
excluding	362
▁intelligent	362
▁3.5	362
▁CNN	362
▁petitioner	362
▁CBS	362
NC	362
zi	362
▁vitamin	362
▁Tongyeong	362
45	362
▁organ	362
▁ear	361
▁tragedy	361
84	361
Lo	361
▁chaos	361
▁committing	361
▁pump	361
▁rented	361
▁enforced	361
child	361
my	361
Residents	361
▁coupons	361
▁fitness	360
▁neglect	360
▁Gold	360
▁Such	360
▁indicator	360
▁councils	360
▁predicting	360
▁Dance	360
▁shoulders	360
imum	360
▁angle	360
▁Ver	360
▁counselors	360
▁erupted	360
▁Bi	359
▁tuberculosis	359
▁Export	359
▁affects	359
▁distorted	359
▁Yellow	359
9%	359
▁respective	359
▁denuclearize	359
▁revoked	359
▁spatial	359
▁pepper	358
▁refuted	358
▁lump	358
▁ignore	358
▁luxurious	358
▁laptop	358
▁probability	358
▁interfere	358
▁overlapping	358
▁40,000	358
▁Beauty	358
▁Up	358
Hi	358
▁threshold	358
ition	357
▁Subway	357
▁Also	357
kuk	357
▁inflammation	357
Real	357
ging	357
▁trail	357
▁clock	357
▁totally	357
▁Netherlands	357
▁load	357
Jeon	357
▁starter	357
ward	357
▁exploded	357
▁bean	357
▁al	356
▁commonly	356
ency	356
Sung	356
▁Obama	356
▁Cold	356
▁tissue	356
▁embassy	356
▁wider	356
▁academia	356
▁NH	356
▁Ya	356
▁practically	356
cus	356
yun	356
▁pitch	356
▁isolated	355
▁stipulates	355
▁stew	355
▁promises	355
9,000	355
▁Koh	355
▁deciding	355
Whenever	355
▁economically	355
ional	355
▁Mary	355
▁conjunction	355
▁exchanging	355
▁disadvantaged	354
▁burn	354
▁Deliberati	354
▁Farm	354
Accordingly	354
▁encounter	354
▁choir	354
▁medication	354
75	354
risk	354
▁disappearance	354
Dae	354
sub	354
▁Long	354
▁76	354
▁24-	354
▁Ph	354
▁Beom	353
▁commercialized	353
▁worsen	353
▁quarterly	353
▁presided	353
67	353
Bo	353
▁fastest	353
▁Saemaul	353
▁skating	353
3%	353
chol	353
▁Senator	353
▁guideline	353
▁LH	353
▁musicians	352
▁intake	352
▁probe	352
▁oldest	352
qua	352
27	352
▁broadcasted	352
▁soap	352
-5	352
▁Note	352
▁perpetrator	352
▁potato	352
▁regrettable	352
▁Forestry	352
▁witnessed	352
▁obstacles	352
▁maturity	351
▁dying	351
▁gallery	351
▁opera	351
▁shadow	351
▁paste	351
▁baggage	351
geum	351
▁cried	351
ens	351
▁Dasan	351
▁Mexican	351
week	351
▁Bill	351
▁mushrooms	351
▁theft	351
▁stagnant	351
▁1999	351
▁observers	350
▁fantastic	350
8,000	350
▁villa	350
▁seeks	350
▁Eco	350
▁evacuated	350
▁Educational	350
Baek	350
▁holes	350
ranked	350
▁definition	350
▁Crime	350
▁noodle	350
▁lock	350
▁belly	350
▁hiking	350
▁disbursement	350
▁dioxide	350
▁frustrated	349
first	349
ow	349
▁leather	349
▁packages	349
val	349
▁performs	349
▁Sha	349
Democratic	349
▁Kiwoom	349
▁Mobile	349
edge	349
▁toilets	349
▁reliability	349
▁71	349
▁defamation	349
▁careers	349
▁absorb	349
▁headquarter	349
▁Kingdom	348
69	348
played	348
▁packing	348
▁surrounded	348
president	348
▁symbolic	348
▁Stand	348
bal	348
ara	348
▁toxic	348
rey	348
▁Comprehensive	348
▁Legislation	348
▁spiritual	347
zz	347
▁doubts	347
▁acquir	347
▁ripple	347
▁commentary	347
▁loses	347
▁broadcasters	347
▁69	347
▁Guri	347
ants	347
▁2004	347
▁Taekwondo	347
▁Kun	347
▁guided	347
▁owns	346
▁Intellectual	346
▁cotton	346
▁volleyball	346
▁Francisco	346
Candidate	346
▁odds	346
▁chiefs	346
ye	346
▁widespread	346
Ex	346
▁advise	346
▁licenses	346
iv	346
tr	346
▁Mobis	345
ible	345
▁earning	345
two	345
▁mold	345
▁genres	345
ker	345
▁Suh	345
▁(9	345
Financial	345
▁correctly	345
6%	345
▁refreshing	345
▁duration	345
▁balls	345
▁answering	345
▁sellers	345
name	345
▁refusal	345
Palembang	345
▁consortium	345
SK	345
▁tag	345
nna	345
▁fatal	345
▁dam	344
Russia	344
▁67	344
▁Duk	344
▁associated	344
door	344
▁1970	344
▁spreads	344
▁planted	344
▁exterior	344
dal	344
▁lately	344
▁forcing	344
▁shouted	344
▁commentator	344
rt	344
▁radar	343
▁350	343
suming	343
▁2030	343
EU	343
▁wounds	343
▁attendees	343
▁pedestrians	343
ura	343
▁photograph	343
▁UNESCO	343
▁pose	343
▁bronze	343
▁MOU	343
▁investigators	343
▁architectural	343
breaking	343
▁1%	343
▁LNG	342
▁practiced	342
▁Texas	342
58	342
ect	342
▁openly	342
▁Castle	342
▁apparently	342
▁withdrew	342
▁struggled	341
▁Generation	341
▁Ah	341
▁oriental	341
▁Base	341
rmed	341
Man	341
▁Collection	341
▁Messi	341
▁nerves	341
▁unfairly	341
▁vocal	341
▁admit	340
Second	340
▁contacting	340
fine	340
▁fiercely	340
▁Cyber	340
▁recovering	340
▁carries	340
▁AR	340
▁fusion	340
▁pleased	340
▁Mrs	340
air	340
step	340
Sohn	340
sul	340
▁lacked	339
▁retaliat	339
▁Mc	339
▁tightening	339
▁77	339
▁exclusion	339
▁nursery	339
▁phishing	339
▁integrate	339
▁noon	339
Ki	339
▁Daniel	338
▁gross	338
▁sponsorship	338
▁Ae	338
▁poem	338
▁expresses	338
uri	338
▁1997	338
tax	338
▁CO	338
▁translated	338
▁Treatment	338
rye	338
▁obstacle	338
▁Tom	338
▁legitimate	338
▁tide	337
▁Uiwang	337
duk	337
▁varieties	337
fire	337
herself	337
▁broadcasts	337
rise	337
▁announcer	337
▁Metro	337
▁narrowed	336
hop	336
▁stealing	336
▁LA	336
▁bi	336
▁burdens	336
▁arrives	336
▁contacts	336
▁majors	336
Happy	336
▁newborn	336
▁pair	336
▁cleaned	336
▁respiratory	335
▁memorandum	335
▁lanes	335
▁arbitration	335
Hyun	335
▁breach	335
▁holder	335
▁classification	335
▁revival	335
▁wound	335
▁athletic	334
▁verbal	334
▁lecturers	334
▁internally	334
▁2005	334
▁discomfort	334
▁bargaining	334
▁74	334
Le	334
▁airplane	334
▁Examination	334
▁verifying	334
▁infinite	334
▁Inha	333
▁monopoly	333
Participants	333
▁episodes	333
▁intentional	333
▁Tak	333
business	333
▁funded	333
▁weird	333
▁ballistic	333
▁concerts	333
▁mild	333
▁arises	333
▁evenly	333
esteem	333
▁fighters	333
▁bookstore	333
▁Age	333
▁Namdaemun	333
▁autopsy	333
▁troupe	333
▁Sookmyung	333
box	333
▁Yeonsu	333
▁argues	333
▁Hankyoreh	333
▁Organizations	332
▁shipments	332
put	332
▁nephew	332
▁oral	332
▁Rose	332
▁trapped	332
▁circumstantial	332
▁mileage	332
▁Andong	332
▁tailored	332
▁Far	332
zu	331
ap	331
▁Shimbun	331
▁premise	331
▁dominant	331
▁briefly	331
▁moments	331
Everyone	331
▁Challenge	331
▁distinguished	331
ntrustment	331
▁giant	331
▁hitter	331
▁chips	331
▁Fine	331
▁detached	331
ica	331
▁Action	330
▁licensing	330
▁Next	330
▁simultaneous	330
▁candlelight	330
▁orange	330
▁transfers	330
▁bonuses	330
tier	330
Pa	330
▁laser	330
Car	330
Major	330
▁Soviet	330
▁confession	330
▁influential	330
▁viewer	330
▁Put	330
▁odor	330
▁routine	330
▁sculpture	330
▁sp	329
▁forefront	329
▁convert	329
▁boards	329
▁Ta	329
▁cliff	329
pan	329
▁dividing	329
▁delaying	329
Moreover	329
▁triple	329
▁Bears	328
hoo	328
▁falsely	328
▁vi	328
▁picking	328
▁forecasts	328
▁pros	328
▁competed	328
▁regulated	328
▁fur	328
▁commemoration	328
▁cheered	328
sum	328
▁Week	328
▁Study	328
▁Pi	328
▁sparked	328
▁blowing	328
▁tobacco	328
▁Ti	328
▁independently	328
▁eradicate	328
▁Maduro	328
aging	328
nae	327
▁backdrop	327
▁Grade	327
▁deteriorated	327
▁Prosecution	327
▁steam	327
hi	327
ana	327
▁normalize	327
May	327
▁Kids	327
▁Aug	327
table	327
▁radon	327
▁Biennale	327
▁la	327
▁bars	326
ER	326
▁someday	326
4,000	326
▁deployment	326
▁Startup	326
▁mentoring	326
▁refrigerator	326
▁themes	326
▁acquitted	326
▁Feb	326
▁drops	326
▁Check	326
lation	325
▁automotive	325
med	325
vis	325
▁15,000	325
▁liability	325
▁potatoes	325
performance	325
ella	325
▁proceedings	325
▁emergence	325
▁stabbed	325
▁Fashion	325
▁pursuit	325
▁drastic	325
▁delicate	325
▁administrator	325
zo	325
▁preemptive	325
▁silence	325
▁desperately	324
▁medicines	324
from	324
▁whereabouts	324
·	324
▁Standard	324
▁Santa	324
▁commented	324
▁editing	324
▁column	324
▁liberation	324
▁hill	324
▁Per	324
▁employer	324
▁varies	324
▁dong	324
come	323
▁governors	323
▁moderate	323
▁sued	323
▁hung	323
▁Chicago	323
▁Geoje	323
▁portfolio	323
▁inviting	323
▁zoo	323
▁download	323
▁attacking	323
▁plaza	323
▁innocence	322
▁juniors	322
▁applicable	322
▁ho	322
▁Uber	322
▁Didn	322
▁Out	322
▁Mission	322
tch	322
▁copyright	322
wide	322
▁grave	322
▁Nobel	322
▁courier	322
▁elect	322
▁lab	322
▁appointments	322
▁placing	322
▁Balance	322
▁Typhoon	322
Small	322
Ju	322
▁gotten	321
▁signals	321
taking	321
▁150,000	321
36	321
▁wise	321
2)	321
▁remuneration	321
j	321
▁depressed	321
▁counterattack	321
▁Sexual	321
▁Corporate	321
▁instructed	321
sk	321
▁Berlin	321
▁SME	321
ple	320
ub	320
▁broad	320
▁2018-2019	320
▁Americans	320
▁kidney	320
▁Top	320
▁Attorney	320
▁controls	320
▁brush	320
▁analyzes	320
▁instruction	320
▁detained	320
ick	320
▁Championships	320
▁authorization	320
▁tent	320
▁VIP	319
articipatory	319
▁1.1	319
▁Yongbyon	319
stone	319
District	319
▁vicious	319
▁Sciences	319
▁establishes	319
▁appropriateness	319
▁headlines	319
▁enhancement	319
▁Event	319
▁scientists	319
▁democratization	319
▁elite	318
▁Guardian	318
uc	318
▁En	318
▁theaters	318
▁Latin	318
▁dining	318
▁hundred	318
▁plaintiff	318
▁memorable	318
▁Together	318
▁atmospheric	318
photo	318
▁shifted	317
▁Mar	317
▁entirely	317
▁identifying	317
▁indication	317
Five	317
▁pressing	317
ning	317
governmental	317
(1)	317
▁crop	317
unconstitutional	316
▁dismantling	316
▁reforming	316
saving	316
ties	316
▁Sc	316
▁Royal	316
▁boundary	316
1,	316
▁secretariat	316
▁specify	316
▁Uzbekistan	315
cul	315
▁mainstream	315
▁drills	315
Ministry	315
▁devoted	315
▁tables	315
▁dolls	315
▁j	315
▁Saemangeum	315
▁circumstance	315
▁photography	315
Provisional	315
▁mentioning	315
economic	315
▁equally	315
▁bullpen	315
▁meaningless	314
▁cooperating	314
▁accessible	314
▁defective	314
▁hardships	314
▁appliance	314
▁By	314
▁foregoing	314
▁stalled	314
▁Parents	314
▁boycott	314
▁description	314
▁mo	314
▁fog	314
RE	314
pen	314
▁su	314
▁descendants	314
▁greet	314
▁promotes	314
08	314
▁sake	314
▁pad	314
ign	314
▁modify	314
ez	314
▁accuracy	314
▁promotions	313
▁Multi	313
▁r	313
app	313
▁discarded	313
▁quantities	313
▁celebrating	313
▁motorcycle	313
▁disagreement	313
▁orchestra	313
▁farmer	313
OC	313
▁sorrow	313
▁breathe	313
▁neither	313
uring	313
▁crazy	313
▁refusing	312
▁outflow	312
▁sanitation	312
3,000	312
ari	312
400	312
▁catches	312
▁conductor	312
▁Harry	312
value	312
▁DNA	312
▁chairs	312
▁endless	312
self	312
▁element	312
▁Domestic	312
yeop	312
ably	311
▁bracket	311
▁presentations	311
▁apple	311
▁exhaust	311
▁assign	311
▁Fan	311
▁Appraisal	311
▁Gen	311
▁unilateral	311
▁nail	311
ual	311
▁paths	311
23	311
Ang	311
▁Liberation	311
▁na	311
▁PD	310
▁gray	310
IN	310
cre	310
▁pledged	310
▁naked	310
Technical	310
48	310
▁absolutely	310
▁Kangwon	310
▁purifier	310
▁beverages	310
▁accommodate	310
▁latter	310
▁fountain	310
▁van	310
▁assume	309
▁behaviors	309
▁empathy	309
▁extensive	309
▁marathon	309
▁naval	309
▁blog	309
▁speaks	309
▁desires	309
▁websites	309
▁sanction	309
being	309
▁charter	309
▁Modern	309
▁intermediate	309
▁Infinite	309
▁catcher	309
▁dynamic	309
eon	309
▁Gochang	309
▁translate	309
▁slept	308
Defense	308
▁wing	308
▁Factory	308
▁challenged	308
ryeong	308
:20	308
Actress	308
▁profitable	308
▁screens	308
▁approaches	307
▁heal	307
▁THAAD	307
list	307
UN	307
▁disc	307
▁granting	307
▁councilors	307
▁Ice	307
Yu	307
▁Gap	307
▁PyeongChang	307
Sun	307
▁dreamed	307
▁subcontractors	307
▁Coin	307
Floor	307
▁Hwan	307
▁sculptures	307
▁faithful	307
▁defending	307
▁toys	307
gwang	306
▁remittance	306
▁TVs	306
▁ca	306
▁Dongtan	306
▁brief	306
▁parental	306
▁envoy	306
▁surged	306
AP	306
▁guides	306
▁YG	306
more	306
▁bleeding	306
vin	306
▁GTX	305
▁gardens	305
▁volunteering	305
▁rational	305
▁navigation	305
▁Web	305
▁progressed	305
▁hinder	305
▁Eagles	305
inch	305
▁Participation	305
▁impaired	305
68	305
▁piled	305
▁Yes	304
▁nutrients	304
▁82	304
▁altogether	304
▁explanations	304
▁adolescents	304
▁Shall	304
2,000	304
▁0.1	304
▁opponents	304
▁delays	304
▁revenge	304
Kia	304
▁Kane	304
▁Gye	304
▁nano	304
▁karaoke	304
fish	304
than	303
▁repaired	303
▁SM	303
▁consulted	303
pl	303
▁Pal	303
ban	303
▁mm	303
▁compiled	303
▁Last	303
▁countless	303
▁1.7	303
▁skilled	303
▁staffs	303
▁occasions	303
▁hesitate	303
▁surely	303
gol	303
▁culprit	303
q	303
▁ceramic	303
▁Front	303
Her	303
▁divisions	303
▁embroiled	303
▁Moscow	303
▁Mongolia	303
▁coins	303
God	302
▁valuables	302
▁2.0	302
▁unfortunate	302
▁educate	302
▁OECD	302
finals	302
▁offenders	302
▁enabl	302
▁ambulance	302
▁unlimited	302
▁ski	302
▁humidity	301
▁spectators	301
▁reservoir	301
row	301
Such	301
▁lightning	301
second	301
▁Shilla	301
▁dirty	301
▁2012."	301
▁shrinking	301
▁Sales	301
▁finalize	301
▁entrusting	301
▁conditioners	301
▁monument	301
▁10:30	301
▁nationality	301
▁tail	301
fold	301
▁miracle	301
▁suffers	301
▁plates	301
▁missionaries	301
mb	301
▁bin	301
▁museums	301
mul	301
▁Funds	300
▁reunification	300
▁trademark	300
Vladimir	300
▁inducement	300
▁Spokesman	300
tation	300
fa	300
▁cheerful	300
▁trace	300
▁arguments	300
▁Liverpool	300
▁supervisory	300
▁(18	300
▁Hello	299
▁extinguish	299
nation	299
▁audio	299
▁invasion	299
part	299
▁conscience	299
▁delinquent	299
quarter	299
▁Myanmar	299
▁lightly	299
▁exceptional	299
cent	299
▁conferences	299
▁pasta	299
elect	299
▁Campaign	298
▁enthusiasm	298
cut	298
▁texts	298
▁Donghae	298
▁construct	298
power	298
wage	298
▁ports	298
sale	298
▁plunge	298
ute	298
▁flexibility	298
MC	298
▁appointing	298
Free	298
▁15%	298
▁calendar	298
ied	298
▁demonstrated	298
prosperity	298
▁resemble	298
▁Highway	297
▁Over	297
▁elders	297
95	297
▁continent	297
▁minimal	297
43	297
▁Max	297
catching	297
▁trailer	297
sided	297
▁counselor	297
▁basically	297
Woo	297
▁''	296
bra	296
mar	296
▁sends	296
kyum	296
▁mystery	296
▁birthrate	296
▁extinguished	296
▁newlyweds	296
▁formulation	296
▁Boat	296
▁soju	296
▁subcontractor	296
▁Woman	296
▁discounted	296
▁humanity	296
▁Dal	296
▁congressman	296
▁Tire	296
aid	296
▁franchises	296
▁parallel	296
▁consumed	295
▁SAT	295
▁catalyst	295
▁airports	295
▁tape	295
▁biased	295
▁fingerprint	295
▁cloth	295
▁Rome	295
▁Cambodia	295
▁Studio	295
LG	295
▁tanks	295
▁guardians	295
▁Battle	295
▁gene	295
▁sort	295
Dr	295
▁combat	295
▁climbed	294
▁allies	294
▁revising	294
▁discovering	294
▁Egypt	294
▁creditors	294
▁Price	294
ern	294
▁sovereignty	294
Companies	294
▁cosmetic	294
PM	294
pon	294
▁march	294
▁Sindang	294
▁influenza	294
▁Violence	294
Hav	294
▁stem	294
▁scary	294
▁shirt	293
eu	293
▁collided	293
▁occasional	293
▁Low	293
▁fares	293
▁blossoms	293
▁anticipation	293
▁plain	293
ib	293
▁preview	293
ria	293
PC	293
▁resolutions	293
▁Mother	293
▁Qatar	293
▁sympathize	293
▁activation	293
▁celebrated	293
payment	293
55	293
▁demonstrate	293
▁Counseling	293
▁obstruction	292
▁Auto	292
▁destroying	292
▁expands	292
▁Coalition	292
▁KIA	292
eastern	292
▁accessories	292
▁Taean	292
▁Economics	292
▁quarterfinals	292
▁Everything	292
▁justifiable	292
rum	292
▁400,000	292
you	292
▁portrait	292
gae	292
▁colleague	292
▁desert	291
▁Peter	291
▁repository	291
▁fears	291
▁possibilities	291
▁Cooperatives	291
7,000	291
▁earthquakes	291
▁Electronic	291
▁Come	291
▁modification	291
▁Watch	291
▁Nissan	291
fried	291
▁beforehand	291
invested	291
8%	291
▁Try	291
▁Geumgang	290
▁sensitivity	290
▁Logistics	290
▁sons	290
▁density	290
▁noble	290
ov	290
▁blamed	290
▁insects	290
▁contemporary	290
▁Has	290
EN	290
▁strikes	290
▁serial	290
▁registering	290
Provided	290
▁cow	290
▁honored	290
▁95	290
▁spray	290
Love	290
▁translator	290
▁offshore	290
▁comedian	290
xi	290
Tomorrow	289
▁2006,	289
▁recogniz	289
▁semifinals	289
▁uncle	289
▁vertical	289
▁conscientious	289
▁housewives	289
▁2005,	289
log	289
▁Assistance	289
▁missions	289
▁groundbreaking	289
colored	289
MO	288
shirt	288
▁inherit	288
▁steal	288
▁po	288
▁Macron	288
▁sole	288
ions	288
▁formulated	288
▁Rock	288
▁sizes	288
▁Cloud	288
▁departed	288
▁Shop	288
▁destinations	288
▁deny	288
▁Stephen	288
▁tire	288
▁Sch	287
▁towns	287
▁craft	287
▁reckless	287
cap	287
▁Little	287
three	287
▁authentication	287
57	287
▁organs	287
▁regards	287
▁Prefecture	287
▁fundamentally	287
Inside	287
▁unchanged	287
▁PO	287
▁psychology	287
▁starring	287
▁depart	287
▁Brand	287
national	287
▁shorten	287
▁poly	286
▁indeed	286
▁algae	286
ob	286
▁Sol	286
Still	286
▁handsome	286
dol	286
▁surgical	286
▁Seosan	286
▁vocabulary	286
▁clearance	286
▁addresses	286
▁Juvenile	286
▁prohibit	286
pper	286
41	286
rich	286
Nowadays	286
▁quietly	286
▁millimeters	286
-19	286
▁installments	286
▁rocket	285
▁favored	285
▁deliberately	285
▁blank	285
▁88	285
▁coat	285
▁loaded	285
Lastly	285
Ba	285
specific	285
▁Sungkyunkwan	285
▁vast	285
Third	285
▁ultimately	285
▁loving	285
▁unconscious	285
▁gear	285
▁Ten	285
▁camps	285
▁restor	285
▁Trust	285
▁businessman	285
▁170	285
▁database	285
rtificial	285
31	284
▁slavery	284
▁accelerating	284
▁Com	284
▁petrochemical	284
▁runway	284
pm	284
▁dictatorship	284
▁accompanying	284
▁ethical	284
▁Sachs	284
▁consume	284
▁Mal	284
▁weren	284
▁unjust	284
▁links	284
06	284
▁necessarily	284
89	284
▁Mental	284
▁tactics	284
people	284
▁Gunpo	284
ek	283
▁tender	283
▁scrap	283
▁amateur	283
bed	283
▁colored	283
▁sexy	283
▁gateway	283
▁headache	283
▁implements	283
Senior	283
▁tablet	283
directed	283
▁amend	283
Tae	283
▁renovation	282
nes	282
▁beneficiary	282
▁Jincheon	282
floor	282
▁Photo	282
gak	282
▁laboratory	282
▁acute	282
▁overhaul	282
▁stones	282
▁subscribe	282
▁Critics	282
▁enforce	282
▁Truth	282
▁cleaners	282
▁QR	282
▁exporting	282
ox	282
market	282
ction	282
▁killer	282
▁verdict	282
▁Forms	282
▁axis	281
▁disposed	281
Se	281
22	281
king	281
▁Jobs	281
▁leaks	281
▁licensed	281
▁prohibition	281
▁roots	281
▁speculative	281
▁shortages	281
▁Facility	281
▁euros	281
▁manipulated	281
ori	281
▁restroom	281
▁ace	281
▁implementer	281
▁rocks	281
▁Assistant	280
▁inspecting	280
▁conglomerate	280
▁Country	280
▁ultrafine	280
▁postponement	280
▁tooth	280
eul	280
▁instance	280
▁poetry	280
▁Reconciliation	280
▁Hub	280
▁ballot	280
▁anchor	280
▁Tesla	280
▁gentle	280
▁proactively	280
▁sticker	280
▁wastewater	279
daero	279
▁convicted	279
▁3.3	279
▁honey	279
bul	279
▁gases	279
▁tangible	279
▁jumping	279
▁chapter	279
▁genuine	279
funded	279
▁fiber	279
▁justices	279
▁oversee	279
phy	279
▁bench	278
▁servers	278
▁blanket	278
▁4.5	278
▁partly	278
46	278
▁fi	278
▁recommends	278
▁Oil	278
eui	278
▁bubble	278
▁spoon	278
▁washed	278
▁92	278
▁Look	278
▁asbestos	278
▁accelerated	278
▁2016.	278
round	277
▁ventilation	277
▁rotation	277
▁2023	277
▁pottery	277
▁60,000	277
▁vowed	277
▁Hanbok	277
▁grilled	277
▁rolling	277
ight	277
▁sinking	277
▁Section	277
ey	277
▁ancestors	277
▁purification	277
▁proving	277
▁protects	277
▁Hollywood	277
▁Right	277
Support	277
hyo	276
▁civilization	276
▁Chicken	276
▁lively	276
home	276
▁accepts	276
▁professionalism	276
▁fortune	276
▁plot	276
▁calmly	276
▁ensur	276
▁Mars	276
▁supervising	276
▁grievance	276
▁jet	276
▁Rev	276
▁vibration	276
▁consecutively	276
▁graduating	276
▁underdeveloped	276
▁dense	276
IP	276
▁seaweed	276
▁corn	275
▁wrist	275
▁priced	275
▁poorly	275
food	275
▁editor	275
▁Yeongnam	275
59	275
▁inspectors	275
▁Mok	275
Li	275
distance	275
▁Oceans	275
▁establishments	275
ces	275
▁sadness	275
▁handmade	275
World	275
▁2.2	275
▁DJ	274
▁precedent	274
▁blacklist	274
▁module	274
▁loose	274
ice	274
▁experimental	274
▁Response	274
.6%)	274
▁expenditures	274
38	274
▁nerve	274
▁centimeters	274
▁engaging	274
▁revelation	274
▁insisting	274
▁hinted	274
hang	274
▁broth	274
,000,000	274
▁exercised	274
▁accidentally	274
▁Payment	274
▁influx	273
▁Sri	273
04	273
rio	273
▁1996	273
▁observations	273
▁1,2	273
EX	273
▁subcontracting	273
▁disturbance	273
Ja	273
▁sidewalk	273
▁packs	273
▁creators	273
▁George	273
▁drunken	273
▁Communist	272
▁curb	272
▁Dubai	272
Attached	272
forming	272
▁demonstrations	272
▁advisors	272
▁Minjoo	272
▁rubber	272
atic	272
▁generous	272
▁grab	272
▁aggregate	272
44	272
▁shrimp	272
ware	272
▁jam	272
Je	272
rry	272
▁Iraq	272
▁symposium	272
▁monitors	272
▁Place	272
tra	271
▁accumulate	271
▁Emirates	271
▁rapper	271
▁seriousness	271
▁click	271
▁tips	271
▁insect	271
▁Father	271
small	271
▁joints	271
▁Taxi	271
yon	271
▁attributable	271
▁Was	271
▁boiled	271
Air	271
▁Participatory	271
Out	271
kwan	271
1,000	271
▁rude	271
▁ICO	271
social	271
▁intensify	271
▁tremendous	271
▁internship	270
tive	270
▁Waste	270
▁disruption	270
▁hunger	270
▁designing	270
▁nurturing	270
Da	270
▁perpetrators	270
▁conviction	270
5%)	270
▁candidacy	270
▁forcibly	270
▁fingers	270
▁bears	270
▁deeper	270
▁Seongsan	270
▁midfielder	270
▁Metal	270
▁81	270
▁alumni	270
▁Bareun	270
▁Patriots	269
▁counted	269
▁Gyu	269
pass	269
des	269
▁failures	269
▁Interest	269
▁recycled	269
▁crown	269
▁negatively	269
era	269
▁cattle	269
▁symptom	269
▁Pung	269
▁employ	269
▁summary	269
▁renew	269
Dis	269
▁bored	269
▁bakery	269
minister	269
Bank	269
▁2021	269
▁shouting	268
▁abusive	268
▁exploring	268
0%)	268
▁satisfactory	268
▁dismantle	268
▁Forensic	268
rac	268
▁ok	268
doo	268
▁Scholarship	268
▁warmth	268
▁subsequent	268
▁Wanna	268
▁n	268
▁incorporated	267
▁transit	267
some	267
▁banner	267
help	267
entrepreneurship	267
▁Hanok	267
sufficiency	267
▁advancing	267
Us	267
▁rampant	267
osis	267
▁mad	267
▁readjustment	267
post	267
62	267
▁villagers	267
▁0.3	267
▁optical	266
▁shade	266
▁disappointing	266
▁plaque	266
FA	266
▁initiated	266
▁tube	266
▁deducted	266
ified	266
▁discharging	266
▁rushing	266
▁Yemeni	266
▁Khashoggi	266
▁Cor	266
▁8,000	266
▁3.1	266
▁scholar	266
wang	266
▁flash	266
▁neutral	266
▁Eulji	266
▁Tigers	266
▁Gospel	266
▁fist	266
▁consolation	266
oid	266
▁Main	266
▁useless	266
▁Za	266
▁Give	266
▁god	266
▁Money	266
▁Goryeo	265
▁extract	265
▁disappointment	265
▁chairmen	265
▁lined	265
▁dismantlement	265
they	265
▁migrat	265
Fire	265
▁sushi	265
▁From	265
▁widening	265
▁majored	265
thirds	265
▁constraints	265
▁tomb	265
▁treasure	264
▁knock	264
▁hyper	264
▁drying	264
▁Boy	264
▁pour	264
▁Pu	264
▁councilor	264
▁Taiwanese	264
▁greeted	264
▁sweep	264
▁blueprint	264
▁Disclosure	264
hearted	264
ony	264
▁transplant	264
▁Income	264
▁repairing	264
MS	264
▁harassed	264
▁grants	264
examination	264
▁radical	263
▁portable	263
▁imp	263
▁wings	263
base	263
▁proviso	263
Shortly	263
100	263
▁imminent	263
▁fantasy	263
▁renowned	263
▁contracted	263
sta	263
▁optimistic	263
78	263
▁journal	263
▁endangered	263
▁Eul	263
▁Paik	263
but	262
▁eliminat	262
stage	262
▁misconduct	262
▁distributor	262
▁affecting	262
97	262
▁urgency	262
▁Sook	262
▁assess	262
gar	262
▁livelihoods	262
▁indicate	262
▁lounge	262
79	262
▁graders	262
▁repatriation	262
▁bookstores	262
▁leagues	262
▁quantitative	262
▁isolation	262
56	262
▁reactor	262
▁sour	262
▁KCC	262
▁cabbage	262
▁summits	262
:50	262
▁magnitude	261
▁ghost	261
Hoste	261
most	261
▁Kumgang	261
dle	261
(2)	261
▁9:30	261
▁emperor	261
▁Field	261
▁kindly	261
selling	261
▁Kyeong	261
▁Giants	261
▁occupy	261
▁ombudsman	261
▁posing	261
gy	261
▁dissemination	261
▁tvN	261
▁Pass	261
▁vague	261
▁Literature	261
▁1,200	261
▁weaken	261
▁maternity	261
▁criticisms	261
▁hardware	261
rmal	260
▁Part	260
▁string	260
▁underwear	260
▁overlap	260
▁2022."	260
▁Way	260
▁Coffee	260
▁tear	260
SNS	260
▁Ewha	260
▁PR	260
Shim	260
▁connections	260
Or	260
bus	260
▁hybrid	260
▁CD	260
▁federation	260
▁Bush	260
▁leaf	260
▁subcommittees	260
▁da	260
▁consolidated	260
lon	260
▁Rice	260
▁(6)	259
▁raid	259
▁Biologics	259
parent	259
cultural	259
▁basket	259
▁evacuate	259
set	259
▁terrestrial	259
98	259
▁wheels	259
▁78	259
▁formulating	259
▁counterpart	259
▁mentors	259
▁dissatisfaction	259
▁1,3	259
▁reiterated	259
▁burial	259
▁broker	259
▁divulge	259
▁bankruptcy	259
▁widened	259
ft	259
▁2.3	259
▁constituency	259
▁precise	259
served	258
▁twenty	258
▁surroundings	258
74	258
▁roadmap	258
▁Ali	258
▁rhythm	258
ians	258
▁Early	258
▁valve	258
.3%)	258
▁teamwork	258
▁guns	258
▁Hawaii	258
▁Cheil	258
▁Ad	258
▁wondered	258
▁radioactive	258
▁baseman	258
▁accumulation	257
▁Belgium	257
▁limitation	257
▁adverse	257
▁respects	257
af	257
GB	257
▁survivors	257
try	257
▁ambiguous	257
▁constructing	257
▁cognitive	257
▁consultant	257
KT	257
▁treasurer	257
▁raided	257
▁(12	257
ppellate	257
▁Choir	257
▁Lions	257
▁kilograms	257
▁Accounts	257
gam	256
▁Commodity	256
▁tsunami	256
▁lips	256
▁Gallery	256
▁di	256
▁mushroom	256
▁shortened	256
action	256
▁injected	256
▁greetings	256
▁soy	256
▁clinics	256
▁insurers	256
▁gang	256
▁3%	255
▁appreciated	255
▁handicapped	255
▁Win	255
▁concessions	255
uck	255
nch	255
▁stationed	255
▁screened	255
tz	255
▁ads	255
▁teaches	255
▁referendum	255
▁ascertain	255
▁prince	255
▁365	255
▁captivate	255
International	255
▁politically	255
▁accommodations	255
har	255
▁pulling	255
ST	255
▁typhoons	255
▁elegant	255
▁salmon	254
▁revocation	254
PS	254
ini	254
▁Freedom	254
▁lent	254
▁presidency	254
Sir	254
▁kindness	254
▁Elderly	254
▁wounded	254
▁boundaries	254
born	254
▁soundness	254
▁cafeteria	254
▁composer	254
▁congress	254
▁Microsoft	254
▁compact	254
▁damaging	254
ON	254
▁puppy	254
▁tracks	254
▁archives	254
ane	254
ef	254
Market	254
▁Ganghwa	254
▁79	254
▁rope	254
▁Junior	253
▁mayors	253
Google	253
▁impracticable	253
▁Restaurant	253
▁icon	253
dd	253
Domestic	253
▁Nature	253
▁Mercedes	253
▁Since	253
▁Sub	253
▁dragged	253
▁Va	253
▁Hadong	253
▁bann	253
▁rap	253
▁titles	253
▁secretaries	253
▁centering	252
▁unite	252
Anyway	252
▁torn	252
▁dock	252
▁undermine	252
▁carpool	252
.4%)	252
▁Woods	252
▁supplemented	252
▁83	252
▁subsidization	252
▁mechanism	252
▁collects	252
▁Mae	252
▁Punishment	252
▁perfume	252
▁frustration	252
▁earners	252
pping	252
▁tentative	252
winning	252
▁Sorry	252
▁Kazakhstan	251
▁Chelsea	251
▁Reading	251
▁Analysis	251
▁currencies	251
▁rents	251
▁petroleum	251
▁tasting	251
Ulsan	251
▁KEB	251
▁crackdowns	251
▁Laos	251
▁conscious	251
▁placement	251
▁pub	251
▁pharmacy	251
▁Hannam	251
▁codes	251
▁Namhae	251
▁arbitrarily	251
▁trigger	251
cheong	251
▁Inspector	251
▁merchandise	251
:10	251
▁handing	250
▁valuation	250
▁friction	250
▁ignoring	250
▁belts	250
everal	250
▁conflicting	250
▁aunt	250
▁1.9	250
Regardless	250
500	250
▁specially	250
▁controversies	250
▁token	250
bat	250
kin	250
▁Liu	250
▁DB	250
▁dominate	250
▁DPRK	250
▁drainage	250
▁stamps	250
▁Ge	249
nie	249
▁costume	249
▁outline	249
▁presumed	249
Lawyer	249
▁clash	249
Green	249
▁applause	249
▁Flower	249
▁architect	249
rom	249
▁innovate	249
▁streaming	249
▁differential	249
▁median	249
▁thesis	249
▁grain	249
▁diversify	249
▁novels	249
▁vendors	249
▁Mac	249
ade	249
▁6,000	249
▁spotted	249
▁landmark	249
▁Saint	249
▁maps	249
▁anonymous	249
▁neat	249
▁Vladivostok	249
▁necessities	249
▁decent	249
▁Five	248
▁collaborate	248
Sam	248
▁Band	248
Coach	248
▁altitude	248
▁cure	248
▁incomes	248
▁polling	248
▁vinyl	248
▁honorable	248
▁du	248
▁legend	248
mae	248
▁Resource	248
▁trick	248
KMA	248
▁Liga	248
etic	248
▁Fa	248
Land	248
▁exotic	248
gap	248
▁sensation	248
▁99	248
approximately	248
▁Model	248
unit	247
▁Seven	247
▁disrupted	247
▁blossom	247
▁imprisoned	247
▁dressing	247
see	247
▁2.4	247
▁queen	247
▁2.6	247
▁vested	247
▁wrapping	247
▁Kolon	247
▁Cinema	247
▁strawberry	247
▁trophy	247
Soon	247
▁cancelled	247
▁rallies	247
▁humidifier	247
gate	247
▁100-	247
▁earliest	247
▁spy	247
▁101	247
▁repairs	246
▁capitalization	246
▁dumping	246
Judge	246
▁2015.	246
▁nearest	246
▁tongue	246
sky	246
▁Fi	246
▁Ship	246
▁preced	246
▁poses	246
▁ne	246
rg	246
▁Severance	246
▁80,000	246
▁hint	246
▁castle	246
▁Las	246
take	246
▁pretend	246
▁ABC	246
▁manipulating	246
▁Radio	246
▁Selection	246
▁Tu	246
▁regulate	246
▁bite	246
▁$2	246
▁inherited	246
▁Consultati	246
az	246
▁fertilizer	246
fo	245
▁overheated	245
▁hopeful	245
▁proposing	245
▁backward	245
▁Platform	245
fin	245
▁Fish	245
▁elimination	245
▁Meng	245
▁relocate	245
▁minimiz	245
▁Ireland	245
▁Parking	245
▁dies	245
▁slope	245
▁incidence	245
▁wrinkles	245
▁inclusive	245
▁appealing	245
▁(15	245
71	245
▁Boston	245
lia	245
▁Advisor	245
▁Case	245
▁drawings	245
PA	245
▁diary	245
Thus	244
illa	244
▁sightseeing	244
▁writings	244
▁modernization	244
▁sunny	244
▁salty	244
▁w	244
▁merits	244
▁casting	244
▁Healing	244
dustrialization	244
▁despair	244
▁performers	244
▁bother	244
▁tribute	244
▁Corruption	244
▁optimized	244
good	244
Fund	244
54	244
▁bride	244
▁(11	244
▁educated	243
▁streak	243
lt	243
▁0.5	243
▁Fe	243
▁Basketball	243
▁Lady	243
Researcher	243
cer	243
half	243
▁grabbed	243
▁decree	243
▁inadequate	243
▁protesters	243
▁shipper	243
▁fixing	243
▁vitalize	243
▁flowed	243
Im	243
▁slip	243
▁1000	242
▁LPG	242
van	242
▁appropriately	242
▁levy	242
▁underwater	242
▁posters	242
▁participant	242
▁tech	242
scenes	242
▁coating	242
▁convinced	242
nu	242
▁Brazilian	242
▁fortunate	242
▁tasty	242
▁survived	242
▁pressured	242
▁mart	241
▁disappears	241
▁retreat	241
▁wars	241
▁Pen	241
▁Sangju	241
digit	241
▁melody	241
ene	241
▁liable	241
▁lighter	241
▁Colombia	241
▁joke	241
▁See	241
▁pesticides	241
▁universe	241
▁2-0	241
▁styles	241
▁classrooms	241
▁0.2	241
▁mat	241
▁Commander	241
▁overturned	240
▁slim	240
▁mutually	240
▁kingdom	240
▁12,000	240
bro	240
▁1991	240
cast	240
ville	240
▁Product	240
kilometer	240
▁cord	240
▁chasing	240
▁municipalities	240
▁Konkuk	240
▁Philip	240
tak	240
▁Subcommittee	240
▁ch	239
▁counting	239
000	239
▁interviewed	239
▁laughed	239
Hanwha	239
▁relocated	239
▁1/3	239
▁Ben	239
cluding	239
▁linkage	239
▁Empire	239
▁ceramics	239
cies	239
▁curve	239
▁87	239
▁relaxation	239
kook	239
▁k	239
fu	239
▁Disney	239
▁notebook	238
▁merged	238
▁summon	238
▁70,000	238
▁Austria	238
▁LCD	238
▁predictions	238
▁trap	238
▁patience	238
▁Qu	238
▁2%	238
▁Areas	238
NA	238
cle	238
▁bat	238
▁commissioning	238
▁KORAIL	238
▁declaring	238
Afterwards	238
▁exporters	238
▁cerebr	238
▁wherever	238
cancer	238
▁timetable	238
King	238
▁Crown	238
▁classify	237
Smart	237
▁Concern	237
Won	237
▁dropping	237
elected	237
▁yoga	237
▁rolled	237
▁arranging	237
▁1:1	237
▁Taegeukgi	237
Ten	237
town	237
▁occasionally	237
Decree	237
▁pin	237
▁brokers	237
▁Syrian	237
bad	237
anitation	237
lip	237
▁evaluates	237
▁contests	237
▁allergic	237
Originally	237
▁Course	237
▁cookies	236
▁habitat	236
▁trans	236
▁cracked	236
▁hydro	236
▁deviation	236
▁Sport	236
▁quarrel	236
▁tense	236
▁thanked	236
▁spite	236
▁Anniversary	236
▁SOC	236
▁Secondary	236
▁extinguishing	236
▁Palembang	236
▁imbalance	236
▁Hangang	236
▁visually	236
▁amendments	236
▁Partners	236
▁associate	236
degree	236
▁angel	236
▁Automobile	236
▁ink	236
▁intervened	236
▁IPO	236
DC	235
▁aggressively	235
filial	235
pet	235
size	235
▁sparking	235
introduction	235
Seven	235
▁photographer	235
ay	235
▁holders	235
▁webtoon	235
ien	235
▁releases	235
▁diarrhea	235
▁reminiscen	235
▁Greek	235
▁Well	235
yul	235
▁incineration	235
Black	234
iz	234
five	234
▁quotation	234
lit	234
▁Body	234
▁450	234
rooted	234
Citing	234
▁classic	234
▁competence	234
Allowances	234
▁hunting	234
▁Run	234
▁immersion	234
▁UAE	234
▁Pyeongyang	234
▁Blockchain	234
▁poems	234
▁91	234
Kyung	234
▁planes	234
▁sized	234
▁blessing	234
▁flames	234
▁Silicon	234
Six	234
▁genius	234
▁nest	234
▁Ceramic	234
▁beliefs	234
▁appetite	234
RT	234
▁appearances	234
fr	234
▁takers	233
▁opposes	233
▁beaten	233
ave	233
▁reinforced	233
▁throat	233
organized	233
▁Roman	233
▁retain	233
▁Android	233
renowned	233
▁distinctive	233
▁114	233
▁accompany	233
▁Everland	233
▁Boeing	233
▁justification	233
▁thunder	233
▁quiz	233
▁93	233
ular	233
▁formula	232
▁galleries	232
well	232
▁tightened	232
green	232
▁fasting	232
Persons	232
▁refuses	232
onic	232
Sales	232
plan	232
▁2004,	232
▁Ajou	232
▁cracks	232
,600	232
▁86	232
▁terminals	232
▁Louis	232
▁lands	232
▁Heart	232
▁proves	232
▁mankind	232
Secretary	232
▁artifacts	232
▁Semiconductor	232
▁oneself	232
▁fluid	232
▁shelters	232
▁globally	232
▁Jack	232
▁360	232
building	231
▁cheers	231
▁laborers	231
▁alright	231
▁recreation	231
▁Assemblyman	231
sea	231
▁Round	231
▁ambition	231
ments	231
▁freshmen	231
game	231
▁bo	231
▁contractors	231
▁occupational	231
0.5	231
▁ecology	231
▁farewell	231
AM	231
▁tactical	231
▁devise	231
▁tale	231
▁Employees	231
▁cardiovascular	231
Suwon	231
TC	231
▁Paulo	231
▁strip	231
Big	231
▁shy	231
ryul	231
▁Days	231
ement	231
▁7:30	230
▁nobody	230
▁attitudes	230
▁Video	230
▁sedan	230
▁defended	230
▁octopus	230
▁2.7	230
▁transcript	230
▁exhibited	230
▁consignee	230
▁apples	230
▁disappearing	230
▁productive	230
▁clue	230
Benz	230
▁fluctuations	230
▁environmentally	230
▁Full	230
ou	230
▁unpredictable	230
Yong	230
▁motel	230
▁Eo	230
▁deadlock	230
▁safer	230
Controversy	230
▁deteriorate	230
,300	230
▁supermarket	230
▁Dome	230
▁Gyeongin	230
▁cartoon	230
▁existed	229
▁saves	229
▁resurrection	229
gal	229
with	229
▁bent	229
dollar	229
▁artworks	229
▁Tunnel	229
▁offender	229
▁painter	229
▁sh	229
▁absorbed	229
RO	229
▁Baekje	229
▁critic	229
▁retrial	229
▁horror	229
▁h	229
▁relie	229
▁aids	229
▁chickens	229
▁Wyverns	229
▁Gimcheon	229
▁pills	229
▁subtle	229
kyeom	229
▁intact	229
▁voucher	228
▁define	228
▁CGV	228
▁diagnose	228
▁souvenirs	228
▁Clean	228
▁chewy	228
qu	228
▁crab	228
2018	228
▁divorced	228
▁sentencing	228
▁dye	228
▁Gam	228
ney	228
▁Wol	228
▁seminars	228
▁expedition	228
Family	228
"""	228
▁cuisine	228
cryptocurrencies	228
▁Pink	227
▁accomplish	227
evertheless	227
▁durability	227
▁proxy	227
▁circular	227
93	227
▁priest	227
▁monk	227
▁burger	227
▁Settlement	227
▁insists	227
open	227
▁laughing	227
ics	227
▁Saemaeul	227
▁hostile	227
▁gaps	227
▁Okinawa	227
▁landed	227
gung	227
▁questionnaire	227
▁enrolled	227
▁smiles	227
Private	227
▁Pope	227
▁(20	227
▁1960	227
▁striv	227
▁matched	227
aries	227
▁rides	227
▁signboards	227
▁Cemetery	226
▁contaminated	226
▁wandering	226
▁rumored	226
.2%)	226
▁supervisors	226
▁imposes	226
▁charms	226
representative	226
▁ethnic	226
▁Independent	226
▁leased	226
▁briquettes	226
ue	226
▁v	226
▁lamp	226
ral	226
▁automation	226
nk	226
▁understands	226
▁merely	226
▁DRAM	226
▁liquidation	226
▁duck	226
▁dreaming	226
Shinhan	226
▁dermatitis	226
▁geographical	225
ese	225
left	225
▁Namyang	225
▁transported	225
▁disinfection	225
del	225
▁Cell	225
▁Mattis	225
▁granddaughter	225
▁shrink	225
▁legitimacy	225
gg	225
shing	225
▁objectives	225
▁End	225
▁saints	225
written	225
yeo	225
▁siblings	225
10,000	225
▁Bell	225
▁habitual	225
200	225
▁rebounds	225
financial	225
▁aerial	225
cation	225
▁Gift	225
▁repeating	224
▁Jordan	224
▁dependence	224
iness	224
▁reorganize	224
▁random	224
▁cart	224
reum	224
▁coding	224
▁sometime	224
▁harbor	224
▁crystal	224
OS	224
academic	224
nce	224
▁diversified	224
▁voiced	224
▁PCs	224
EL	224
Social	224
▁fermented	224
▁Legal	224
ata	224
▁derived	224
▁Greece	224
▁stays	224
ICT	224
baek	223
▁costumes	223
using	223
▁honeymoon	223
▁noisy	223
▁interact	223
▁masters	223
CO	223
▁Certification	223
▁vain	223
▁beside	223
▁Mat	223
▁glimpse	223
▁(16	223
▁Emperor	223
ique	223
oma	223
+	223
▁Ab	223
▁Conduct	223
len	223
▁guaranteeing	223
▁workout	223
committee	223
▁dominance	223
▁Th	223
▁sword	223
Bu	223
▁Personal	223
73	223
▁particles	223
▁weaknesses	223
Doosan	222
▁palm	222
▁spectacular	222
▁skirt	222
▁(17	222
▁Block	222
▁Che	222
▁2010."	222
▁neglecting	222
▁ribs	222
▁hobbies	222
sha	222
32	222
ME	222
▁recipe	222
▁Hallyu	222
:40	222
▁BBC	222
▁horses	222
▁Oriental	222
▁elasticity	222
Al	222
burg	222
▁inserted	222
▁accountants	222
▁cousin	222
▁Florida	222
▁knees	222
Women	222
MP	222
▁Hot	222
▁Infant	222
▁Institutions	222
▁complement	222
▁Conservation	222
▁recommending	222
▁tightly	222
▁terrorism	222
ken	222
72	222
▁Secretariat	222
▁borrowers	222
▁Folk	222
▁standardized	222
▁flesh	221
▁Steven	221
▁vitalization	221
▁alleys	221
matic	221
▁2011."	221
▁runners	221
▁enact	221
▁motive	221
Food	221
▁wealthy	221
ducing	221
▁Share	221
▁reign	221
▁escaping	221
▁questionable	221
▁obliged	221
▁unattended	221
▁protectionism	221
-8	221
▁speculated	221
▁inaugura	221
▁improper	221
▁literally	221
▁Ball	221
▁exert	221
Hye	221
▁beloved	221
▁vividly	221
▁memo	221
▁Nu	221
ison	221
_	221
▁Samcheok	221
▁rainwater	221
▁Bit	221
▁2018""	221
▁horizontal	221
human	220
▁statistical	220
▁smiled	220
Contr	220
▁insist	220
▁burns	220
▁constitute	220
▁KAIST	220
▁teenage	220
▁editorial	220
play	220
Tak	220
▁shapes	220
▁forecasted	220
▁interference	220
▁Actual	220
▁Aren	220
▁motto	220
▁2022,	220
▁aroma	220
▁u	220
▁courtesy	220
▁embarrassing	220
▁publications	220
▁chatting	220
▁interrogation	220
▁96	220
Concern	219
▁mu	219
City	219
▁bulk	219
▁proposer	219
▁substituted	219
▁Hui	219
▁morale	219
▁moist	219
▁minorities	219
▁thereon	219
▁salon	219
▁emit	219
▁loading	219
▁ridiculous	219
▁storing	219
▁Poland	219
flu	219
▁stimulus	219
▁stakeholders	219
▁slogans	219
▁Materials	219
▁roughly	219
▁1:	219
▁lid	219
▁redemption	219
▁comic	219
▁tents	219
61	219
▁hell	219
▁Tomorrow	219
▁Hydro	218
Secondly	218
Youth	218
▁Dairy	218
▁genes	218
▁troubles	218
▁reader	218
▁permanently	218
▁Projects	218
▁seawater	218
▁preferences	218
53	218
91	218
▁discontent	218
▁incorrect	218
▁Box	218
corruption	218
▁Iksan	218
TF	218
press	218
▁interpreter	218
▁complications	218
bank	218
ates	218
▁Online	218
▁220	218
▁abstract	218
▁agrees	218
ius	218
▁artwork	217
▁deck	217
▁Portugal	217
▁subcontract	217
pr	217
▁waterproof	217
▁Hun	217
02	217
▁2021,	217
:15	217
▁literacy	217
▁bra	217
Mu	217
▁perm	217
▁torture	217
▁Impact	217
▁mega	217
▁Task	217
▁prepares	217
▁rated	217
▁2-1	217
Dream	217
▁tragic	217
▁minors	216
▁yacht	216
preparatory	216
▁smells	216
tis	216
▁Gyeongui	216
▁1994	216
▁specialization	216
▁Electro	216
▁directing	216
▁console	216
▁mud	216
maker	216
▁Petition	216
▁cemetery	216
▁98	216
▁compilation	216
▁para	216
▁si	216
▁northwest	216
world	215
▁sheets	215
▁stickers	215
▁bands	215
▁alleviate	215
ened	215
▁envy	215
▁expelled	215
▁assistants	215
▁compound	215
▁Send	215
▁2017.	215
▁invisible	215
▁recruits	215
▁accountant	215
▁awesome	215
▁Silla	215
▁Namhansanseong	215
▁MD	215
▁Chest	215
▁principals	215
▁Swiss	214
▁copper	214
Center	214
▁soybean	214
▁groundwater	214
ify	214
▁distributors	214
▁skip	214
▁HR	214
8%)	214
▁Tourist	214
▁Imjin	214
▁Swedish	214
▁encourages	214
lock	214
ome	214
▁masse	214
cro	214
▁Friends	214
final	214
▁Researcher	214
▁possessed	214
▁concurrently	214
▁differs	214
▁wishing	214
▁solely	214
▁deadly	214
▁swim	214
▁prosecuted	213
2.5	213
▁quote	213
▁faulty	213
▁credits	213
▁pads	213
▁orientation	213
▁laying	213
▁Pakistan	213
9%)	213
ground	213
▁preserving	213
SC	213
▁casual	213
5.5	213
09	213
▁prisoners	213
▁disclosing	213
big	213
▁glory	213
▁Bangkok	213
▁sauna	213
▁Vehicle	213
▁Cheongwadae	213
▁Ferry	213
▁fa	213
Sports	213
▁aluminum	213
phone	213
Alright	213
match	213
▁stakes	213
▁discontinued	213
▁picnic	213
▁Floor	212
▁(30	212
▁sciences	212
▁fertility	212
-0	212
80,000	212
state	212
▁shining	212
▁conspiracy	212
▁Celltrion	212
service	212
pung	212
▁wheelchair	212
▁mountainous	212
▁intern	212
▁Alibaba	212
▁auditing	212
▁submarine	212
▁7,000	212
▁firing	212
▁invalid	212
▁sink	212
▁Dragon	212
bot	212
▁x	212
▁unexpectedly	212
emp	212
▁Gae	211
▁AS	211
▁Martin	211
▁pioneer	211
▁disciples	211
▁bankrupt	211
▁Status	211
▁pencil	211
▁malfunction	211
▁Yemen	211
▁distinct	211
▁weighing	211
▁Countermeasure	211
▁hardest	211
▁countryside	211
▁brakes	211
▁vs	211
▁authors	211
▁tiger	211
▁Immigration	211
▁unconditionally	210
▁ultimate	210
▁Har	210
▁Architecture	210
▁patch	210
Initially	210
▁craze	210
▁Maintenance	210
▁allocate	210
▁Procurement	210
▁Sanders	210
▁Passenger	210
▁confirms	210
▁Classic	210
graph	210
Joo	210
▁gr	210
▁balloon	210
▁adventure	210
gong	210
▁frustrating	210
▁Mong	210
▁OK	210
ving	210
▁Micro	210
dia	210
▁signatures	210
Wi	210
▁pesticide	210
Ms	210
NT	210
▁Merit	210
▁2.8	210
.1%)	210
▁dentist	210
▁Bioepis	210
▁Occupation	209
▁vicinity	209
▁tires	209
Tech	209
▁2,500	209
76	209
▁blows	209
▁qualifying	209
KO	209
,900	209
▁stemm	209
▁renting	209
▁Wind	209
▁Doctor	209
▁Fu	209
▁discretion	209
▁bridges	209
▁stabilizing	209
▁fluent	209
nnovative	209
▁mentor	209
▁(13	209
▁sensibility	209
▁exaggerated	209
▁Musk	209
▁printer	209
▁Cat	209
Day	209
▁estimation	209
▁importing	209
▁senses	208
▁leasing	208
▁Know	208
▁Cancer	208
pin	208
pot	208
▁satisfying	208
▁heightened	208
▁weaker	208
▁incomplete	208
▁brightly	208
▁enjoyable	208
0.3	208
▁hi	208
▁Minh	208
▁denying	208
300	208
▁Kakaotalk	208
▁darkness	208
Yeon	208
▁Panmunjeom	208
▁torrent	208
▁chase	208
▁Savings	208
▁delinquency	208
▁accelerator	208
▁precipitation	208
▁coordinating	208
▁Daelim	208
▁escalating	208
▁lit	208
▁hourly	208
▁stretch	208
developed	207
▁spine	207
▁valued	207
▁2009."	207
▁fax	207
▁Israeli	207
main	207
▁compensated	207
▁narrative	207
▁250,000	207
lla	207
▁abandon	207
▁landlord	207
ill	207
▁ra	207
ao	207
▁bribe	207
▁absorption	207
▁Chiefs	207
▁arch	207
▁Marvel	207
▁Perform	207
▁Keep	207
▁musician	207
▁Twins	207
▁em	207
▁spinal	207
▁94	206
▁migrant	206
▁observatory	206
▁originated	206
evaluation	206
▁drum	206
▁105	206
▁badly	206
▁distant	206
LA	206
iding	206
September	206
berg	206
ery	206
▁accusations	206
▁citizenship	206
▁jewelry	206
▁hatred	206
▁Kelly	206
yl	206
▁kiss	206
▁Gaya	206
▁injuring	206
▁sofa	206
▁atopic	206
▁Suseong	206
four	206
▁wears	206
▁dissolution	206
vian	206
▁mobiliz	206
▁cha	205
▁occupants	205
East	205
▁reminded	205
▁Czech	205
▁preside	205
▁harassing	205
▁bombing	205
▁Itaewon	205
▁prayed	205
PP	205
▁competency	205
▁moisturizing	205
▁judgments	205
▁inroads	205
▁presiding	205
▁praying	205
▁corps	205
▁enemies	205
▁1,7	205
▁enjoys	205
▁booming	205
▁Chungmu	205
▁condolences	205
▁diving	205
▁Allowances	205
▁grill	205
▁ruined	205
ico	205
▁manners	205
▁1989	205
▁Netmarble	205
Ok	205
enter	205
▁lunchtime	205
▁streams	205
▁flour	205
▁Euljiro	204
▁se	204
▁radius	204
▁cushion	204
DA	204
▁Audi	204
▁setback	204
▁unsold	204
▁Manila	204
▁mouse	204
▁abnormalities	204
▁keywords	204
▁countered	204
▁eager	204
▁bitcoin	204
▁somehow	204
▁Daechi	204
Specifically	204
▁necklace	204
▁charming	204
▁afterward	204
▁backup	204
▁defenders	204
▁harmonize	204
▁acceptable	204
▁1987	204
▁melted	203
▁refined	203
▁facto	203
test	203
▁coup	203
Immediately	203
▁infrastructures	203
▁KCTU	203
Their	203
Strategic	203
▁Goldman	203
ita	203
▁privately	203
▁fossil	203
83	203
▁quasi	203
▁infections	203
▁greed	203
▁racing	203
▁barrels	203
user	203
AS	203
▁macro	203
▁whereas	203
Sa	203
▁persistent	203
▁holdings	203
raw	203
▁pushes	203
production	203
case	203
▁hectares	203
Bloomberg	203
▁jury	203
▁signaling	203
▁89	203
▁embrace	202
▁brake	202
atory	202
powered	202
ges	202
▁dig	202
▁tri	202
▁Dang	202
▁(14	202
▁emitted	202
▁Rewards	202
-23	202
▁wasted	202
▁flies	202
▁Installation	202
▁shortcomings	202
▁males	202
▁possibly	202
active	202
▁MS	202
▁globalization	202
▁thickness	202
▁organizers	202
▁Dutch	202
▁terror	202
▁Jungang	202
▁Munich	202
▁concentrations	202
▁50-	202
▁240	202
▁entrusts	202
▁fireworks	202
▁happier	202
▁List	201
geo	201
▁firefighter	201
▁monoxide	201
▁Key	201
▁metaboli	201
▁(25	201
page	201
▁Tang	201
▁Bundesliga	201
▁deteriorating	201
▁dislike	201
▁pains	201
disqualification	201
▁Fox	201
▁misunderstood	201
▁mindset	201
▁exceptions	201
▁premature	201
▁Bre	201
1)	201
▁phrases	201
▁landfill	201
▁cardio	201
▁Guangzhou	201
▁supervised	201
job	201
▁disagree	201
▁OS	200
▁garlic	200
▁spoken	200
▁Ke	200
▁immigrant	200
.25	200
03	200
▁assessments	200
▁Belt	200
▁bias	200
▁converting	200
▁postings	200
Against	200
▁propaganda	200
▁mixture	200
order	200
▁powerhouse	200
▁cardiac	200
▁crosswalk	200
▁Geon	200
ture	200
▁troubled	200
▁surviving	200
▁mess	200
▁forestry	200
▁Billboard	200
▁Regeneration	200
ending	200
▁banquet	200
-6	200
▁8:30	200
▁sewing	200
▁hardship	199
▁switched	199
▁departing	199
▁humid	199
▁Hungary	199
▁dairy	199
▁lenses	199
▁Point	199
Mon	199
▁Uplus	199
▁Academic	199
▁Anyone	199
▁agendas	199
▁neuro	199
▁netizen	199
▁drives	199
▁Yuri	199
former	199
▁outsiders	199
▁Shandong	199
▁backed	199
▁hotter	199
▁carpet	199
▁batters	199
▁Under	199
▁murdered	199
7.5	199
▁bow	199
▁Qualcomm	199
▁captures	199
▁salvation	199
Team	198
▁2.1	198
▁scan	198
▁profession	198
▁displaying	198
05	198
▁700,000	198
▁loneliness	198
▁layers	198
▁stadiums	198
▁generating	198
▁gravity	198
▁soybeans	198
his	198
▁hello	198
▁shine	198
▁fortunately	198
▁envoys	198
▁Yecheon	198
▁academies	198
check	198
0.4	198
-10	198
bolishing	198
▁Yeongjong	198
specialized	198
Gangwon	198
▁mobilization	198
▁Hwacheon	198
▁magnetic	198
dar	198
▁Sta	198
▁AP	198
vert	198
titu	198
WSJ	198
▁perceived	198
boy	197
▁demonstrating	197
▁honestly	197
▁plus	197
▁abdomin	197
electric	197
▁prevalent	197
trip	197
▁flock	197
▁borders	197
▁fu	197
▁ambassadors	197
▁Yul	197
▁stewardship	197
▁suppress	197
▁pillar	197
▁flocked	197
▁Jungbu	197
▁Modi	197
▁Sihwa	197
▁guiding	197
development	197
▁Syndrome	197
▁incubation	197
▁Hongdae	197
▁Philippine	197
▁sacrificed	197
▁recyclable	197
▁Ken	197
▁touches	197
▁inspired	197
cular	197
▁trainer	197
▁Banks	196
wind	196
▁disruptions	196
▁scar	196
Relate	196
52	196
▁assailant	196
ily	196
die	196
▁Kal	196
▁novelist	196
▁mill	196
▁announcements	196
▁Aid	196
▁postpa	196
rtum	196
▁basics	196
▁Return	196
▁Get	196
▁adjustments	196
ening	196
▁Hyeong	196
▁cathedral	196
▁breeze	196
Are	196
▁Bur	196
▁tidal	196
▁scalp	196
▁meticulous	196
wood	196
▁ob	196
lig	196
▁disk	196
▁fastball	196
▁precision	196
▁ideological	196
▁transmitted	196
▁whale	196
Take	196
▁humble	196
▁locker	196
▁striking	196
tar	196
▁memorize	196
▁females	196
▁tumor	196
▁observing	196
▁yes	196
▁badminton	196
complete	196
▁fights	196
▁reaffirmed	196
▁Solution	196
47	196
▁Namdong	196
▁Saturdays	195
▁qua	195
▁LTE	195
▁supplementation	195
▁coexistence	195
▁postseason	195
▁2000,	195
designated	195
▁indemnity	195
▁pond	195
▁sustainability	195
▁USB	195
▁scorer	195
▁occupant	195
▁morality	195
RP	195
▁summons	195
▁Missionary	195
▁jazz	195
tal	195
▁Morgan	195
▁Records	195
▁distinction	195
▁1995	195
▁cr	195
▁IB	195
School	195
rated	195
▁bedroom	195
▁sandwich	195
nate	195
▁burnt	195
▁urine	195
card	195
▁pornography	195
▁LS	195
load	194
Burning	194
▁react	194
Open	194
▁Controversy	194
August	194
▁checkup	194
medium	194
▁Lawyer	194
▁Wu	194
ying	194
referring	194
Chang	194
▁followers	194
ography	194
body	194
lam	194
nia	194
▁Prison	194
▁Cheongdam	194
teen	194
▁turmoil	194
▁shifting	194
▁inquire	194
▁kg	194
▁autonomously	194
▁kit	194
▁consequences	194
▁delegates	194
▁shifts	194
▁adequate	194
▁physics	194
▁Years	194
RC	194
▁casino	194
Manager	194
▁traveler	193
▁objections	193
▁obstruct	193
▁40-	193
▁Cases	193
▁Silver	193
▁charity	193
vers	193
Seong	193
▁View	193
▁merge	193
▁strokes	193
▁utmost	193
▁deaf	193
lay	193
▁parenting	193
▁consultants	193
▁tofu	193
▁Childhood	193
▁lunar	193
▁Region	193
▁Gal	193
▁Nan	193
ged	193
▁lo	193
audit	193
▁Edu	193
▁whi	193
07	193
▁canceling	193
▁neutrality	193
▁submits	193
cat	193
▁Hangeul	193
▁commercialize	193
▁2021."	193
▁diversification	193
▁attendant	193
leg	192
▁precisely	192
▁starred	192
▁seize	192
▁600,000	192
▁Past	192
ess	192
▁prohibits	192
Labor	192
▁Dispute	192
▁Progressive	192
▁Taek	192
▁Merkel	192
▁accomplice	192
▁Woong	192
hor	192
▁Naju	192
FT	192
▁Voice	192
/100	192
▁unfold	192
▁Ze	192
▁cessation	192
▁dragon	192
Ka	192
▁belonged	192
too	192
▁Jane	192
lli	192
▁irreversible	192
▁pronunciation	192
▁oven	191
cru	191
Bae	191
▁immersed	191
▁Cathedral	191
▁fielder	191
▁perspectives	191
▁foundations	191
▁theology	191
▁founders	191
▁Manpower	191
▁agreeing	191
▁Microdot	191
▁Jangchung	191
▁assignments	191
▁monster	191
SE	191
rie	191
▁flags	191
▁clips	191
▁chamber	191
Druking	191
years	191
▁Supervis	191
▁herbal	191
▁oath	191
▁homeowners	191
▁Kevin	190
▁Outdoor	190
▁definite	190
▁grapes	190
▁inclusion	190
ontemporary	190
capital	190
▁calligraphy	190
▁panic	190
▁judgement	190
▁keyboard	190
▁Masan	190
▁pa	190
3.5	190
▁assists	190
37	190
▁Career	190
▁deceived	190
dium	190
study	190
▁annex	190
United	190
▁nitrogen	190
▁sung	190
▁competitor	190
▁ants	190
phe	190
▁Maria	190
▁Col	190
rip	190
▁sandbox	190
▁highways	190
▁slower	190
▁cough	190
▁bidder	190
▁residual	190
▁internationally	190
▁confusing	190
Vi	190
ET	190
Daejeon	190
such	190
▁Okay	190
gul	190
turn	190
▁Families	190
▁sticking	190
▁Tri	190
▁sunrise	189
▁alienated	189
▁MICE	189
▁comp	189
▁Charter	189
Reuters	189
pressure	189
▁Teacher	189
Government	189
▁domain	189
▁compatible	189
▁Hotspur	189
▁bullying	189
▁wildfires	189
▁1993	189
Anyone	189
▁undergraduate	189
▁debates	189
▁cur	189
▁soar	189
▁Multicultural	189
▁specifying	189
▁fulfilled	188
▁Cap	188
pu	188
▁Match	188
▁Daejin	188
Blue	188
▁IMF	188
▁disadvantageous	188
▁dumplings	188
▁circulating	188
▁230	188
verse	188
▁brigade	188
▁thrilling	188
▁Thomas	188
▁altar	188
▁Secret	188
▁obsessed	188
0,000,000	188
▁Rain	188
▁staring	188
▁corrupt	188
ulation	188
Hana	188
▁Van	188
▁navy	188
came	188
▁mere	188
▁Steve	188
mission	188
pay	188
▁concentrating	188
▁Leaders	188
neung	188
Particularly	188
▁Reporter	188
▁Train	188
90,000	188
Work	188
▁chaired	188
▁contraction	188
▁adaptation	188
SP	188
▁dealer	188
▁Pleas	188
rat	188
▁exhibit	188
▁workshops	188
▁drain	188
▁cultivated	187
operation	187
▁Rich	187
credit	187
▁gifted	187
▁prevailing	187
▁differentiate	187
▁chefs	187
▁Denmark	187
rtheastern	187
ele	187
▁hesitation	187
▁Accelerator	187
wheel	187
ani	187
▁insulation	187
▁dubbed	187
▁unlawful	187
▁(27	187
ump	187
▁perfection	187
▁unidentified	187
band	187
▁Markets	187
▁banners	187
announcement	187
Come	187
▁severance	187
▁Dangjin	187
yup	187
42	187
▁mixing	187
▁Alley	187
▁widen	187
▁resist	187
▁catalog	187
regulation	187
▁shell	187
▁Vegas	187
▁Flag	187
▁Aviation	186
▁deepen	186
▁Contents	186
▁Loan	186
bound	186
Si	186
▁playoffs	186
-9	186
Health	186
▁multinational	186
▁Documentary	186
En	186
lane	186
▁combustion	186
▁personalities	186
▁Member	186
▁analyst	186
▁apparent	186
▁pe	186
ctor	186
▁IBK	186
▁Incident	186
▁Pop	186
▁excavated	186
▁singles	186
vy	186
▁gatherings	186
▁watches	186
▁workload	186
▁stern	186
▁Smith	186
▁greenbelt	186
▁hamburger	186
▁fe	186
▁dissatisfied	186
▁spirits	186
▁switching	186
dding	186
▁wheat	186
disabled	186
▁Activities	186
▁retirees	186
key	186
June	186
▁pollutant	186
Vietnam	186
▁ozone	186
▁consolidation	186
Ca	186
▁landscaping	185
▁Treaty	185
▁Val	185
▁handles	185
7%)	185
NYT	185
▁keyword	185
▁lithium	185
▁Nepal	185
▁Yangyang	185
▁seas	185
▁progressing	185
▁cracking	185
▁expulsion	185
▁plug	185
▁yields	185
▁EBS	185
▁elsewhere	185
▁Marketing	185
▁97	185
▁manipulate	185
▁ta	185
▁Pusan	185
▁stiff	185
▁hairstyle	185
Locate	185
▁nutritional	185
▁verse	185
▁Hyang	185
▁1950	185
▁Mid	185
▁reads	185
▁rewarded	185
2%	185
get	185
▁fancy	185
▁deduct	185
▁Toronto	185
▁sealed	185
▁swollen	185
,800	185
read	185
▁25,000	185
▁overwork	185
▁Crab	185
▁wanna	185
▁incorporate	185
▁prayers	185
▁disseminate	185
ologist	184
▁Chem	184
▁sc	184
named	184
▁insolvency	184
▁(24	184
▁socks	184
▁Regulator	184
▁entrepreneur	184
▁contamination	184
▁responds	184
▁Participants	184
▁everybody	184
▁performer	184
Human	184
▁boasted	184
IB	184
▁towel	184
▁chilly	184
▁1.0	184
▁tighten	184
▁planet	184
▁Climate	184
▁forgive	184
▁unfolded	184
▁Trans	184
▁Xiaomi	184
▁hypo	184
▁encountered	184
March	184
▁habitually	184
▁waterway	184
▁pressuring	184
▁restraint	184
Ban	184
▁Jindo	184
▁arising	184
▁Stone	184
center	184
▁Kum	184
▁idols	184
▁engraved	184
▁2014.	184
▁programming	184
▁Eugene	184
large	184
Tottenham	183
▁simulation	183
fully	183
▁1-2	183
▁testimonies	183
▁suppression	183
▁showdown	183
▁crafts	183
Ta	183
▁congratulate	183
▁deepened	183
▁Euro	183
gna	183
▁4.3	183
April	183
▁Chile	183
▁authentic	183
▁diameter	183
▁Opera	183
▁Type	183
▁rode	183
▁somebody	183
▁vendor	183
▁smallest	183
▁booklet	183
▁turnout	183
▁impairment	183
▁Eon	183
▁thread	183
▁announces	183
▁composite	183
▁disrupt	183
▁microphone	183
▁pillars	183
▁overheating	183
▁goodbye	183
60,000	183
▁illegality	183
▁phenomena	183
▁Clinic	183
▁bombs	183
▁duplicate	183
▁Kei	183
▁calories	182
▁hanbok	182
sex	182
Goyang	182
ola	182
▁travels	182
Basically	182
▁metals	182
tte	182
▁Angel	182
▁turtle	182
▁Accident	182
▁Brown	182
investigation	182
▁Volkswagen	182
▁Johnson	182
▁Pyeong	182
▁doubtful	182
NO	182
▁governmental	182
▁loyalty	182
▁extracted	182
wear	182
▁lamps	182
▁McDonald	182
▁cruel	182
▁hurriedly	182
▁flame	182
▁Healthy	182
▁dictionary	182
▁automated	182
▁indict	182
▁halt	182
▁Kyobo	182
▁eternal	181
▁seasoned	181
▁takeover	181
▁Guidelines	181
▁cooperated	181
gram	181
▁vending	181
▁straw	181
▁3.6	181
▁lipstick	181
POSCO	181
▁accomplished	181
▁(21	181
▁Dog	181
Nowon	181
will	181
▁cabin	181
tem	181
▁elaborate	181
▁examines	181
wn	181
▁financially	181
▁fragrance	181
▁chased	181
CE	181
▁Paper	181
▁builds	181
▁Net	181
▁initiatives	181
▁wipe	181
▁eats	181
▁excrement	181
Gyeongnam	181
▁deficits	181
▁dedication	181
▁identical	181
▁va	181
SCMP	181
▁yearly	181
MW	181
▁behave	181
▁energetic	181
▁arbitrary	180
Education	180
1.8	180
▁transporting	180
▁Defence	180
▁broaden	180
▁insured	180
▁cre	180
▁Gijang	180
▁Tra	180
▁portrayed	180
▁tokens	180
▁Rental	180
▁sir	180
▁landslide	180
ei	180
1.4	180
deuk	180
▁inject	180
▁cease	180
hereafter	180
▁undergone	180
▁premiere	180
BC	180
EP	180
▁princess	180
Twenty	179
▁strain	179
▁shortest	179
▁gradual	179
▁addressed	179
▁entries	179
▁Godeok	179
▁promulgation	179
Pre	179
▁5.18	179
▁Ulleung	179
▁specification	179
▁Value	179
▁straws	179
▁Consulting	179
▁reinstatement	179
harm	179
ric	179
ded	179
▁str	179
▁Asahi	179
▁gymnasium	179
1.5	179
▁(23	179
▁ecosystems	179
ters	179
▁tattoo	179
dict	179
▁assumption	179
▁Back	179
▁confidentiality	179
▁swallow	179
▁creator	179
▁Wouldn	179
▁Captain	179
▁garage	179
▁stably	179
▁boiling	179
▁supermarkets	179
inter	179
▁Republicans	179
▁expose	179
▁feeding	179
▁heroes	179
▁Magic	179
▁citation	179
▁strengthens	179
▁virtue	179
▁unfortunately	179
▁Gocheok	179
▁refunds	178
▁Universal	178
▁boldly	178
▁gloomy	178
▁struggles	178
Mom	178
▁Joseph	178
▁Gyeongbu	178
Roh	178
▁steamed	178
▁Halloween	178
▁brisk	178
▁vitamins	178
▁levied	178
▁objectively	178
▁hacked	178
rus	178
▁Um	178
▁hug	178
-15	178
▁Sp	178
▁railroads	178
▁binding	178
▁objectors	178
▁Yangsan	178
▁jaw	178
▁qualities	178
▁cement	178
▁Nation	178
▁Salman	178
▁lu	178
hit	178
▁battles	178
▁savory	178
▁cows	178
▁clarified	178
▁nowhere	178
▁miles	178
▁feud	178
▁im	178
▁hid	178
▁lists	178
▁123	178
▁ventures	178
▁beam	177
▁restricting	177
AC	177
▁theories	177
▁KOTRA	177
lum	177
Che	177
▁conditioning	177
▁hazardous	177
▁openings	177
▁migration	177
▁overwhelmed	177
DR	177
Art	177
▁risky	177
mal	177
ule	177
▁flexibly	177
▁Juan	177
▁arthritis	177
days	177
▁Mega	177
▁Shinil	177
▁indoors	177
▁retailer	177
▁Hongik	177
▁Pig	177
Business	177
▁purple	177
▁collapsing	177
▁Mor	177
▁Eric	177
▁Ara	177
▁blunt	177
▁methamphetamine	177
▁DAS	177
▁Sound	177
▁expectancy	177
▁solicitation	177
▁Arirang	177
▁specialties	177
▁radish	177
▁constructor	177
▁strap	177
▁Eung	176
▁teenager	176
▁Jewish	176
▁Ch	176
▁verbally	176
▁plummeted	176
▁Meal	176
▁6:30	176
▁mineral	176
ali	176
▁KDB	176
▁volatile	176
▁pretext	176
▁hosts	176
▁landslides	176
▁silk	176
▁Sentosa	176
▁sw	176
etween	176
▁arson	176
▁Powell	176
▁regrets	176
▁Jeff	176
▁possess	176
▁agonizing	176
▁Observatory	176
▁Alex	176
▁stretching	176
▁Gongju	176
Time	176
OM	176
▁hurting	176
▁dirt	176
Red	176
▁depicted	176
education	176
]	176
▁playgrounds	176
▁li	176
▁righteous	176
▁volcanic	176
▁illusion	175
ole	175
what	175
81	175
▁donor	175
▁Hand	175
▁poultry	175
FC	175
▁grains	175
raising	175
▁gaming	175
▁marijuana	175
coming	175
turned	175
▁Adviser	175
ancy	175
▁scars	175
▁Fo	175
fast	175
shirts	175
Large	175
▁bearing	175
▁homosexuality	175
itz	175
▁Goo	175
carbon	175
IF	175
▁helm	175
▁feast	175
▁Inje	175
▁orbit	175
indiscriminately	175
▁separating	175
Inter	175
▁diagnostic	175
Overall	175
ffe	175
▁insight	175
▁Sunshine	175
▁tasted	175
ched	175
▁controller	175
▁relieving	175
park	175
▁shield	175
▁algorithm	175
-7	174
▁handwritten	174
▁Trend	174
IoT	174
▁checkups	174
▁DC	174
▁CNBC	174
▁franchisees	174
▁neatly	174
▁ashamed	174
mmy	174
▁Tim	174
▁summarize	174
▁inferior	174
▁mistaken	174
0.7	174
▁thirty	174
solving	174
▁decorate	174
▁Integration	174
▁donating	174
▁discriminated	174
▁cables	174
PR	174
▁squid	174
▁contracting	174
July	174
▁Lion	174
▁butterfly	174
▁Guk	174
▁evolved	174
▁southwester	174
▁dealers	174
▁ERA	174
▁authenticity	174
▁porridge	174
▁integrating	174
▁Joy	174
▁multilateral	174
▁interaction	174
▁bull	174
▁persuaded	174
▁flavors	174
▁Advancement	173
▁cartilage	173
producing	173
▁envelope	173
▁holy	173
▁domestically	173
▁sooner	173
▁cactus	173
▁stabilized	173
▁rays	173
▁wished	173
▁executing	173
▁charts	173
lf	173
▁projectile	173
▁coincide	173
▁modules	173
▁Eye	173
▁groundwork	173
▁75%	173
▁Primera	173
▁wildfire	173
▁conc	173
▁3.8	173
▁attendants	173
▁shortening	173
▁sticks	173
Hu	173
▁bans	173
▁reimbursement	173
▁regained	173
▁membrane	173
▁launches	173
▁Guam	173
▁reviving	173
▁Merchant	173
▁budgeting	173
▁Smartphone	173
▁outsourcing	173
▁alcoholic	173
▁mortuary	173
▁Henry	173
▁tram	173
▁conditional	173
direct	172
▁dim	172
mination	172
▁calcium	172
EM	172
vol	172
▁Myoung	172
temperature	172
store	172
▁Hit	172
▁330	172
▁swine	172
▁afterwards	172
▁automakers	172
▁spill	172
▁Channel	172
▁breed	172
▁unify	172
▁swift	172
▁Sangam	172
▁Player	172
▁Ace	172
▁evolution	172
▁curling	172
▁melt	172
▁tenure	172
▁Schools	172
▁Rescue	172
Koo	172
▁Bed	172
▁bubbles	172
▁lag	172
▁pipeline	172
▁symbolizes	172
yueng	172
▁sesame	172
▁Mongolian	172
▁psychiatric	172
medical	172
▁comparable	172
▁Malaysian	172
Kakao	172
4.5	172
produced	172
▁mosquitoes	172
wed	172
cell	172
▁architects	172
▁rash	172
▁insignificant	172
very	172
NE	172
▁(26	172
▁constitutes	172
▁roadside	172
▁Chil	171
82	171
▁Making	171
▁Pat	171
▁Mathematics	171
▁barista	171
▁speeches	171
Hwa	171
▁shampoo	171
▁massacre	171
Job	171
▁digest	171
▁schizophrenia	171
▁motivated	171
▁differentiation	171
▁pastoral	171
▁consulate	171
▁secretion	171
▁charcoal	171
▁withstand	171
▁denial	171
▁Really	171
geon	171
2.4	171
▁harmonious	171
▁Reservoir	171
▁considerably	171
▁Joe	171
▁3.7	171
woman	171
▁dietary	171
Di	171
▁upside	171
minded	171
▁insiders	171
▁swelling	171
▁kidnapped	171
▁fetus	171
▁ruin	171
▁le	171
▁Homeplus	171
▁abide	171
▁digits	171
▁benefited	171
▁negotiated	171
▁collectively	171
▁folding	171
▁publisher	171
▁computing	171
sign	171
health	171
VR	171
▁vent	170
Dear	170
▁Keun	170
contract	170
Non	170
view	170
▁blend	170
▁affordable	170
▁exhibits	170
saeng	170
▁Muan	170
▁Bingbing	170
defense	170
▁trafficking	170
wer	170
▁convincing	170
▁Mnuchin	170
▁(22	170
▁Farmers	170
▁makgeolli	170
cor	170
▁protagonist	170
Hey	170
▁Muslim	170
▁forehead	170
aka	170
▁2002,	170
▁monitored	170
learning	170
▁rivals	170
▁3.4	170
▁inspiration	170
▁refining	170
▁gaze	170
01	170
▁Yangjae	170
▁Francis	170
▁charisma	170
pat	170
▁CS	170
▁Civic	170
3.2	170
oo	170
AL	170
▁Map	170
▁Large	170
▁capitalism	170
Personal	170
▁CC	170
▁confiscated	170
ala	170
Nine	170
50,000	170
live	170
Gyeongbuk	170
▁tr	170
square	170
▁sore	170
▁Orion	169
▁sacrifices	169
▁Wirye	169
▁musicals	169
▁emails	169
ryang	169
▁clues	169
▁chin	169
▁classmates	169
▁debit	169
▁enrollment	169
▁DHL	169
▁pictorial	169
▁TOEIC	169
labor	169
▁minerals	169
▁Roll	169
:45	169
som	169
▁organizer	169
▁EXO	169
▁succeeds	169
▁adopting	169
▁sashimi	169
▁Final	169
▁Direct	169
▁evident	169
▁Iron	169
▁deductions	169
▁curry	169
▁splendid	169
▁hormone	169
▁Venezuelan	169
News	169
▁Mang	169
▁cinema	169
▁Afghanistan	169
▁folded	169
CA	169
▁explode	169
▁Smartphones	169
▁Milan	169
▁personalized	169
▁stimulating	169
▁sleepy	169
▁Hangul	169
á	169
▁constituencies	169
Group	169
▁slander	169
▁Practice	169
▁eel	168
Russian	168
▁Relief	168
ml	168
▁Tan	168
▁bare	168
▁Arboretum	168
▁resides	168
▁tuna	168
▁Apgujeong	168
▁labeling	168
▁filters	168
▁Jeongok	168
▁worrisome	168
▁reunions	168
▁dances	168
▁gloves	168
▁coke	168
LE	168
Liberty	168
▁belongings	168
▁hormones	168
West	168
▁ro	168
▁270	168
▁pretending	168
700	168
▁considerate	168
▁subjective	168
▁unusually	168
▁rigid	168
hyeong	168
▁Neo	168
▁blessed	168
▁counterfeit	168
Maybe	168
▁Democratization	168
▁Set	168
▁reconsider	168
IM	168
▁infarction	168
bor	168
capacity	168
▁Kar	168
Exist	168
Ri	168
cate	168
▁(28	168
▁Clinton	168
▁280	168
▁narrowing	168
▁Specialized	168
▁mattresses	168
▁pitched	168
▁completes	168
rmo	168
▁warn	168
▁Rail	168
▁ceremonies	168
pit	168
▁hunt	167
▁abruptly	167
ongji	167
▁unpleasant	167
tec	167
ero	167
▁tissues	167
▁candy	167
▁seasoning	167
▁Track	167
▁Rookie	167
currently	167
py	167
▁circulated	167
▁Methodist	167
▁3.0	167
▁implant	167
▁notices	167
▁theoretical	167
Il	167
Judg	167
)"",	167
ago	167
▁turnaround	167
▁Soccer	167
6.5	167
▁decoration	167
▁sunshine	167
▁ministerial	167
▁heavier	167
▁humor	167
▁Cheonggyecheon	167
▁fed	167
▁Snow	167
▁mayoral	167
ula	167
▁onion	167
lie	167
▁Fishing	167
▁waterfall	167
pook	167
▁microwave	167
▁pile	167
▁Croatia	167
▁MVP	167
▁imagined	167
▁Yeonpyeong	167
▁Baekseok	166
▁discourse	166
▁crane	166
▁martyr	166
▁lip	166
▁mortality	166
▁devote	166
▁sufficiently	166
▁magazines	166
▁lied	166
▁edited	166
5.6	166
▁rewarding	166
got	166
hole	166
▁CES	166
▁lion	166
▁Associated	166
▁mediate	166
▁briefed	166
▁advances	166
▁Bad	166
▁Associations	166
▁Sinchon	166
OECD	166
▁subscriber	166
▁correlation	166
▁vegetarian	166
▁disinfectant	166
▁freshness	166
▁aboard	166
▁grandson	166
▁Juventus	166
ille	166
▁stipulate	166
▁sphere	166
chung	166
▁Gimje	166
▁manuscript	166
bil	166
superintendent	166
▁hu	166
▁Yeongdeok	166
▁alteration	166
▁Mugunghwa	166
▁Bob	166
▁resuscitation	166
▁stain	166
▁Safe	166
▁welding	166
▁Gan	166
▁Operating	166
▁ugly	165
▁cm	165
▁cho	165
▁researching	165
▁stupid	165
▁selective	165
▁lean	165
▁chorus	165
▁backpack	165
lib	165
▁tilted	165
▁sigh	165
▁homeland	165
OO	165
price	165
▁108	165
trial	165
▁vocalist	165
▁Halla	165
▁hepatitis	165
▁fathers	165
▁simplified	165
▁Dongbu	165
Germany	165
▁sweating	165
▁mounted	165
hard	165
▁Uruguay	165
▁Third	165
▁anticipate	165
▁Capell	165
▁extinction	165
▁barley	165
▁Whi	165
▁reinvestigation	165
▁collaborated	165
ear	165
▁colon	165
▁lungs	165
Economic	165
▁Nine	165
▁awarding	165
▁smuggling	165
RA	165
▁synthetic	165
bel	165
▁Dementia	165
ashi	165
▁1:30	165
▁Month	165
▁conform	165
▁leverage	165
▁stylish	165
▁warmer	165
▁Philharmonic	165
ites	165
▁Choong	165
▁scandals	165
love	164
Enforcement	164
▁1-0	164
▁Goheung	164
▁layout	164
iti	164
gum	164
yan	164
▁perhaps	164
▁legendary	164
Eight	164
▁selfie	164
▁2008."	164
▁Think	164
Already	164
▁officetel	164
▁detergent	164
▁abandonment	164
▁spec	164
0.0	164
▁visitor	164
sexual	164
Within	164
▁lukewarm	164
IMF	164
▁scorching	164
MR	164
▁assaults	164
▁Crimes	164
ise	164
cycle	164
▁robust	164
▁ru	164
▁amenities	164
▁provocations	164
▁commendations	164
▁Procedure	164
▁Alzheimer	164
▁mosquito	164
▁lazy	164
▁distress	164
▁basin	163
▁Supply	163
gress	163
▁celebrates	163
▁compelling	163
▁nap	163
▁Foster	163
▁margins	163
MBC	163
▁Fold	163
▁stamina	163
▁pounds	163
▁leaning	163
▁rec	163
▁Ed	163
▁props	163
▁roller	163
control	163
fect	163
▁illnesses	163
▁LPGA	163
▁superintendents	163
▁Turn	163
▁compile	163
Ar	163
Behind	163
▁augment	163
▁plaintiffs	163
1.7	163
▁badge	163
▁wary	163
▁scrapped	163
▁microorganisms	163
▁Short	163
▁watermelon	163
▁keys	163
ano	163
▁Dol	163
Win	163
▁segment	163
▁unmarried	163
▁categorized	163
▁beautifully	163
Who	163
▁dissolved	163
▁defeating	163
▁Genesis	163
▁breakup	163
sponsored	162
ire	162
▁injustice	162
Firstly	162
▁Anna	162
▁masterpiece	162
▁patriotic	162
▁exaggeration	162
▁Ever	162
Fed	162
▁Samseong	162
▁4:30	162
▁hegemony	162
▁UEFA	162
▁edit	162
▁Someone	162
▁interface	162
▁Buddha	162
▁Stop	162
▁Intel	162
rel	162
▁Nursing	162
▁revisions	162
▁Yaksu	162
3.3	162
rap	162
▁Sogang	162
7)	162
▁remainder	162
pulmon	162
4)	162
▁pollack	162
OR	162
▁Nancy	162
▁clashes	162
▁flocking	162
2.2	162
Parents	162
▁blast	162
▁Baby	162
▁Rhee	162
▁Toyota	162
executive	162
▁poison	161
▁Sarah	161
hara	161
▁insult	161
▁Dongchang	161
▁pharmacies	161
Bi	161
▁VI	161
White	161
▁UV	161
▁overly	161
▁obey	161
▁barrel	161
▁Yuseong	161
▁Airbnb	161
▁yards	161
▁Ari	161
▁fingerprints	161
▁throne	161
▁Unifi	161
▁armistice	161
Sang	161
Apart	161
▁hitters	161
▁cutlet	161
▁riot	161
▁sailing	161
▁subjected	161
ature	161
▁pumpkin	161
India	161
▁bundle	161
path	161
▁PGA	161
core	161
▁towels	161
▁Nae	161
▁twenties	161
▁111	161
▁arrow	161
bee	161
▁Recovery	161
Always	161
▁Rica	161
▁interpretations	161
▁subscriptions	161
▁span	161
ale	161
▁2:	160
▁chi	160
▁Pence	160
▁Cluster	160
▁escort	160
▁spacious	160
▁fundraising	160
▁incorporation	160
▁leftover	160
▁Hyosung	160
▁Bal	160
▁mobilize	160
▁grip	160
▁wildlife	160
▁repetitive	160
tail	160
▁Death	160
▁Recycling	160
▁commissions	160
▁cozy	160
San	160
▁wielded	160
▁overlapped	160
▁teens	160
▁Sul	160
▁scheme	160
▁teammates	160
▁102	160
▁disqualified	160
▁cocktail	160
▁Daesung	160
▁wallets	160
▁Thanksgiving	160
rai	160
▁intestin	160
Which	160
▁Ford	160
▁ladder	160
TO	160
stein	160
▁gauge	160
ax	160
▁invests	160
▁Alone	160
▁Demilitariz	160
▁Female	160
▁warranty	160
▁arena	160
▁Nambu	160
▁recycle	160
▁scolded	159
▁unhappy	159
▁unlisted	159
▁innovations	159
▁buffet	159
▁Premium	159
Spokesman	159
▁nails	159
Seok	159
8.9	159
▁retro	159
▁font	159
▁Rehabilitation	159
▁learners	159
▁CPR	159
rench	159
▁privileges	159
▁viral	159
▁stresses	159
▁sequence	159
▁factional	159
▁feminism	159
▁EV	159
▁choreography	159
▁roses	159
▁Sonata	159
Per	159
kov	159
▁bracelet	159
▁liter	159
▁grievances	159
▁depict	159
kang	159
▁142	159
ound	159
▁randomly	159
▁10:00	159
▁$3	159
▁ratify	159
▁NBA	159
Home	159
▁dough	159
▁hottest	159
▁Suseo	159
▁activat	159
▁spouses	159
▁Jean	159
Officials	159
▁pianist	158
▁Cal	158
▁Danyang	158
▁Norway	158
▁Word	158
▁Giheung	158
▁Pyo	158
▁hereinafter	158
kan	158
▁Hokkaido	158
ffer	158
▁rebounded	158
▁watchkeep	158
▁hedge	158
▁spin	158
ental	158
▁minimized	158
bon	158
▁6.5	158
▁2018)	158
▁occupations	158
▁tar	158
Being	158
▁Mediation	158
▁territorial	158
moto	158
gle	158
▁IR	158
lly	158
▁fleeing	158
ality	158
▁Servant	158
Great	158
▁paralyzed	158
▁cu	158
▁Diego	158
▁efficacy	158
▁settling	158
▁Mobility	158
▁Fin	158
anti	158
▁indexes	158
▁surgeon	158
▁notifying	158
▁Gangjin	158
▁congested	158
▁Cam	158
▁caregivers	158
▁twisted	158
▁guesthouse	158
tti	157
▁betting	157
▁Talent	157
▁leukemia	157
▁Taxes	157
▁Advertising	157
▁onions	157
Gi	157
▁capita	157
▁hockey	157
rm	157
▁Account	157
▁Beautiful	157
PO	157
▁Name	157
▁3.2	157
▁joyful	157
▁(29	157
▁rebellion	157
▁ga	157
listed	157
▁deserve	157
▁whiskey	157
Sejong	157
▁openness	157
▁tweet	157
▁attorneys	157
▁dormitories	157
▁Proposal	157
▁planners	157
OT	157
▁cleanliness	157
▁deeds	157
▁screw	157
bri	157
▁Choe	157
▁boil	157
▁weekday	157
Subsequently	157
kr	157
▁frames	157
▁discard	157
▁capturing	157
pie	157
▁strawberries	157
ural	157
▁supplements	157
▁cooler	157
▁Route	157
0.7%	157
bla	157
▁alter	157
▁desserts	157
▁fo	157
▁measurements	157
▁blankets	157
▁7.5	157
cla	157
▁Milk	156
▁undermined	156
corn	156
▁sneakers	156
Men	156
Long	156
▁2007."	156
umb	156
▁transparently	156
▁Strait	156
Naver	156
Gyeong	156
▁125	156
▁liters	156
▁guilt	156
rium	156
▁Robot	156
▁Trail	156
1.6	156
▁fluctuate	156
▁Players	156
aga	156
▁societies	156
disclosure	156
▁pessimistic	156
▁logical	156
Make	156
which	156
▁Patriot	156
deal	156
ced	156
▁Lanka	156
▁1988	156
Pi	156
▁instinct	156
Eleven	156
iling	156
▁compatibility	156
▁Cost	156
▁sunglasses	156
▁Congressman	156
▁sins	156
▁Medi	156
▁foam	156
▁Activity	156
block	155
proof	155
▁Cheorwon	155
▁underwent	155
▁rage	155
▁actresses	155
ichi	155
▁worthy	155
▁Harvard	155
▁graphics	155
nal	155
even	155
▁cl	155
▁communicated	155
▁pardon	155
▁asylum	155
▁Nigeria	155
▁affirmati	155
▁curved	155
▁garner	155
▁toured	155
▁thyroid	155
pine	155
going	155
▁Trends	155
▁eve	155
Choo	155
length	155
▁DSR	155
▁dump	155
have	155
▁retention	155
▁telecom	155
▁trim	155
▁primarily	155
rc	155
▁pursues	155
▁volunteered	155
▁spends	155
92	155
▁crowdfunding	155
▁audited	155
▁southeast	155
▁190	155
▁uneasy	155
▁ruins	155
▁outdoors	155
pack	155
▁advocacy	155
▁III	155
laws	155
▁Sydney	155
▁[	155
Develop	155
▁beaches	155
▁Gwangsan	155
▁Ste	155
▁Ser	155
▁punch	155
▁Ethereum	154
vation	154
1.8%	154
▁Healthcare	154
▁commentators	154
▁Tea	154
▁bouquet	154
▁uncovered	154
▁overlaps	154
▁shrine	154
▁Gian	154
▁ballet	154
▁offset	154
▁flurry	154
▁dwelling	154
▁Doesn	154
▁reinforc	154
Game	154
▁"3	154
lac	154
▁Bas	154
▁comprise	154
▁sodium	154
▁GP	154
▁bamboo	154
▁settings	154
▁patriotism	154
LL	154
▁NAND	154
▁testify	154
▁Scientific	154
▁cleansing	154
▁truce	154
▁discord	154
▁charger	154
▁Soulik	154
master	154
▁Chapter	154
▁RBIs	154
▁relaxing	154
ddy	154
mine	154
▁CA	154
violet	154
Seongnam	154
Pohang	154
Soo	154
▁conveyor	154
▁pole	154
▁blooming	154
▁buckwheat	154
loss	154
▁unused	153
▁resentment	153
▁inability	153
GR	153
▁Guide	153
▁vicarious	153
▁shipyard	153
▁analog	153
▁fitting	153
KBS	153
▁Boryeong	153
▁Autumn	153
▁Mueller	153
og	153
▁lemon	153
▁Fukushima	153
▁103	153
cco	153
▁Yak	153
▁Production	153
▁irritation	153
team	153
▁stroller	153
▁fences	153
affiliated	153
▁accus	153
▁diplomat	153
▁recipes	153
▁nearing	153
▁Partnership	153
▁receiver	153
flex	153
▁pal	153
▁Drama	153
ean	153
▁Indoor	153
▁Sundays	153
▁greets	153
vit	153
▁Soul	153
▁albums	153
white	153
▁Seongsu	153
mate	153
Normally	153
department	153
▁pairs	153
ude	153
▁gently	153
▁standardization	153
Super	153
▁Musical	153
ivity	153
▁Costa	153
▁blew	153
▁bunker	153
▁Ryan	152
ato	152
▁proudly	152
▁2.9	152
▁Craft	152
▁boarded	152
▁Cu	152
ea	152
▁Businesses	152
▁Woongjin	152
▁advisers	152
▁informant	152
9.5	152
▁Pittsburgh	152
▁Circulation	152
▁engagement	152
▁Jones	152
▁voter	152
▁brutal	152
▁trainee	152
▁lingering	152
▁hated	152
▁Commendation	152
6.7	152
lee	152
▁Eve	152
nar	152
ati	152
▁Princess	152
▁obviously	152
▁coordinator	152
▁clearing	152
▁dec	152
▁writes	152
weight	152
IR	152
Ecological	152
▁Uprising	152
▁cared	152
▁milestone	152
▁Swimming	152
rable	152
▁pitches	152
cum	152
▁instantly	152
shik	151
▁Application	151
▁presenter	151
▁communist	151
stra	151
▁vein	151
▁hadn	151
SH	151
last	151
▁7%	151
▁Customers	151
▁Utilization	151
▁pilots	151
▁hasty	151
▁bypass	151
▁jeonse	151
▁variation	151
▁Childcare	151
2),	151
▁tombs	151
Would	151
▁magnificent	151
rating	151
▁supporter	151
roo	151
▁oversupply	151
▁(30)	151
7.8	151
▁(31)	151
▁sulfur	151
▁freshman	151
▁Core	151
now	151
Pay	151
▁sequentially	151
▁Foods	151
Shinsegae	151
▁abnormality	151
▁helper	151
▁destiny	151
▁tolerance	151
▁Nihon	151
▁northeast	151
▁fuss	151
▁drag	151
▁cultivating	151
▁Ghosn	151
▁cage	151
Leader	151
▁232	151
▁Add	151
▁intervening	151
1.2	151
personal	151
▁acquittal	151
▁offerings	151
▁donors	151
▁104	151
▁backgrounds	151
▁interruption	150
▁skater	150
▁downloaded	150
▁jeans	150
▁chimney	150
▁souvenir	150
▁Homeland	150
▁0.4	150
▁closes	150
▁podium	150
▁shaped	150
▁106	150
▁duo	150
▁Vatican	150
▁Byeon	150
Pop	150
▁reservoirs	150
▁strife	150
rong	150
▁frost	150
▁Kyodo	150
▁cheating	150
▁graphic	150
▁showers	150
▁Six	150
▁5.5	150
EA	150
▁l	150
▁PS	150
GDP	150
▁euthanasia	150
▁baked	150
▁Restoration	150
▁Registration	150
▁Testament	150
▁1)	150
▁Pur	149
▁justified	149
shot	149
▁bucket	149
▁vacations	149
▁vest	149
▁longing	149
▁Mini	149
▁planner	149
▁venues	149
▁Tai	149
chain	149
iate	149
arian	149
▁Coupang	149
▁helmet	149
▁mainland	149
▁inhibit	149
nyeong	149
▁candles	149
5.4	149
▁sacred	149
▁Walk	149
▁colder	149
▁crushing	149
▁adapted	149
▁endured	149
▁uploading	149
space	149
▁patriots	149
▁escalated	149
late	149
phil	149
1.3	149
Have	149
fired	149
▁indefinitely	149
▁Gojong	149
3)	149
0.6	149
▁Dust	149
▁Damage	148
▁sneak	148
3.8	148
▁trunk	148
▁shines	148
▁storytelling	148
▁plum	148
▁expire	148
6.6	148
▁mediator	148
▁marginalized	148
▁Cy	148
▁Reduction	148
▁weigh	148
▁cheapest	148
▁localization	148
▁invented	148
▁Face	148
▁vaccines	148
▁graph	148
▁Ulleungdo	148
▁visibility	148
▁interval	148
▁rings	148
▁Chancellor	148
▁cheek	148
▁chapel	148
entrusted	148
」	148
▁ritual	148
▁Vol	148
▁4%	148
ink	148
plex	148
▁chargers	148
▁cured	148
growth	148
▁Neung	148
7.2	148
▁crush	148
3.9	148
▁arrangements	148
▁inmates	148
▁bee	148
▁Theme	148
▁collections	148
▁confront	148
▁clearer	148
Seung	148
▁Gon	148
bio	148
▁accessed	148
▁rained	148
▁normalized	148
▁cleanup	148
respect	148
▁overlooked	147
OL	147
▁instruct	147
▁surprisingly	147
ell	147
▁Mass	147
▁birthplace	147
▁disguised	147
Construction	147
▁Employers	147
▁fluctuation	147
relating	147
▁IU	147
▁Investors	147
▁NATO	147
▁shelf	147
▁Congratulations	147
▁races	147
▁Keizai	147
▁Wood	147
▁publishers	147
Call	147
▁portray	147
▁terrace	147
▁800,000	147
▁undertaken	147
▁shortstop	147
duty	147
▁swap	147
▁dull	147
Near	147
▁maneuver	147
▁impersonat	147
arily	147
natal	147
sensitive	147
0.8	147
▁meritorious	147
▁hostage	147
▁Aerospace	147
▁reasonably	147
▁stove	147
▁Leisure	147
Whatever	147
▁campaigning	147
▁Publishing	147
▁goodwill	147
▁120,000	147
▁digging	147
▁Bul	147
after	146
▁confess	146
▁demolished	146
▁Ven	146
Management	146
▁abuses	146
▁hereditary	146
▁gorgeous	146
▁statutory	146
▁ham	146
▁northward	146
▁inquired	146
▁Ce	146
▁Total	146
▁researched	146
▁Tencent	146
3.7	146
▁stricter	146
▁patented	146
▁astronomical	146
John	146
▁meanings	146
▁Osong	146
tong	146
▁extends	146
▁needle	146
▁unison	146
ama	146
▁1,300	146
▁epidemiological	146
Information	146
▁commence	146
▁vaccinated	146
5.8	146
▁bug	146
ika	146
▁144	146
6.3	146
▁scattering	146
▁solidify	146
▁petitioners	146
▁defendants	146
▁ribbon	146
▁doubles	146
0.2	146
TP	146
Ye	146
▁exploit	146
Qu	146
tta	146
▁PayPal	146
supporting	146
▁Guangdong	146
craft	146
▁mathematical	146
zar	145
▁Zi	145
oul	145
▁lettuce	145
▁Poor	145
▁Arizona	145
▁resuming	145
▁prototype	145
▁appraised	145
Design	145
zy	145
▁collaborative	145
▁sponsors	145
▁temples	145
▁villain	145
▁addictive	145
▁epi	145
▁dose	145
▁tutoring	145
▁lax	145
political	145
pect	145
▁waterfront	145
▁wield	145
2.6	145
▁antibiotics	145
date	145
best	145
▁renovated	145
ore	145
▁joins	145
cking	145
▁Bahrain	145
▁acne	145
igh	145
rn	145
▁sprayed	145
▁tournaments	145
▁tackle	145
▁Lot	145
▁Richard	145
▁debuted	145
▁fame	145
super	145
▁unrelated	145
▁grandparents	145
▁ratios	145
▁Baekdu	145
▁Sarang	145
▁diamond	145
▁Islam	144
▁Shipping	144
▁qualitative	144
Internet	144
3.6	144
seat	144
▁Masters	144
▁retrieve	144
Friendly	144
▁Colorado	144
▁rub	144
vant	144
mber	144
▁progresses	144
▁Justin	144
▁Farming	144
judicial	144
▁congratulations	144
break	144
▁cornea	144
▁Daedeok	144
polis	144
▁Fleet	144
▁260	144
Water	144
screen	144
▁walkway	144
▁sibling	144
▁taekwondo	144
▁Era	144
▁Woon	144
▁Cut	144
▁footsteps	144
▁stems	144
urn	144
▁enlistment	144
espiratory	144
▁creatures	144
▁mines	144
▁Individual	144
▁computerized	144
investment	144
fly	144
▁butter	144
▁Nike	144
▁miserable	144
▁Nano	144
▁Books	144
Consumers	144
bab	144
lihood	144
▁spraying	143
bl	143
▁Being	143
▁preparedness	143
▁skepticism	143
▁Systems	143
▁administered	143
▁perceptions	143
▁Acquisition	143
▁transplantation	143
▁harvesting	143
▁correcting	143
language	143
▁Libya	143
▁API	143
▁sank	143
▁jelly	143
call	143
▁accidental	143
▁loyal	143
▁Nippon	143
Asiana	143
heat	143
▁devotion	143
▁clusters	143
▁wearable	143
6.2	143
▁wheelchairs	143
▁fork	143
▁Wando	143
cherished	143
choon	143
▁stretched	143
▁indigenous	143
▁sermon	143
▁electromagnetic	143
▁happiest	143
▁Higher	143
▁Sign	143
▁outpatient	143
▁Transit	143
▁113	143
▁proliferation	143
5)	143
▁undervalued	143
▁addicted	143
▁scratch	143
▁mono	143
▁chili	143
▁Want	143
▁Medal	143
▁accessing	143
▁advertise	143
▁Disasters	143
▁harvested	143
▁1992	143
▁KO	143
▁Yeongcheon	143
▁Manufacturing	143
▁upgrading	143
num	143
Com	143
▁turnover	143
8.6	143
▁wires	143
▁oppression	143
▁unregistered	143
▁scenarios	143
7.3	143
▁scientist	142
worker	142
etting	142
▁floods	142
resistant	142
▁rooted	142
▁Detention	142
berry	142
▁fla	142
▁jealous	142
▁irrelevant	142
▁Andrew	142
▁diligence	142
▁negligent	142
Girl	142
tomic	142
Suspicion	142
▁Holiday	142
determination	142
due	142
ibility	142
▁Number	142
▁unfolds	142
LH	142
▁individuality	142
▁Ahyeon	142
BO	142
▁freshwater	142
▁Jose	142
▁1982	142
gel	142
▁unfairness	142
Self	142
▁meditation	142
▁pools	142
Put	142
▁proactive	142
▁escalate	142
▁clauses	142
▁odd	142
▁midfield	142
2.8	142
▁Pyeonghwa	142
▁4.6	142
▁Governance	142
▁Recreation	142
▁creditor	142
▁deserves	142
▁Finland	142
▁refrigerators	142
▁Gri	142
▁objectivity	142
▁procedural	142
TE	142
▁Dia	142
Chun	142
▁Mitsubishi	142
▁concurrent	142
▁accuse	142
limited	142
▁reacted	142
▁Tennis	142
▁William	142
▁comforting	142
▁headaches	142
▁brighter	142
6.4	142
▁Tournament	142
▁bri	142
▁treats	142
▁brink	141
democracy	141
▁Suspicion	141
▁traders	141
current	141
▁adhere	141
▁accumulating	141
Aside	141
▁crushed	141
▁adversely	141
trust	141
▁finishes	141
▁Single	141
▁Household	141
▁incredible	141
▁retaining	141
Plan	141
▁deliberative	141
▁annoying	141
▁suspending	141
linked	141
▁delisting	141
▁Stanford	141
▁Fall	141
▁partnerships	141
▁Mill	141
▁Orange	141
▁repaid	141
▁revamp	141
▁abduction	141
▁grid	141
nel	141
▁Nothing	141
▁bankbook	141
▁customary	141
▁assemblyman	141
caus	141
where	141
mayor	141
9.3	141
▁Customer	141
▁Level	141
▁Ob	141
▁Population	141
▁pneumonia	141
▁Issue	141
▁trendy	141
▁Sen	141
▁pioneering	141
▁provocative	141
Golden	141
▁Iceland	141
when	141
ssessing	141
30,000	141
▁evidentia	141
▁Sony	141
▁pier	141
▁algorithms	141
▁fool	140
▁subways	140
▁housework	140
Kwak	140
Outside	140
who	140
▁coordinated	140
avi	140
Tuesday	140
▁Donation	140
inspection	140
boyfriend	140
▁penetrate	140
▁Korail	140
▁revelations	140
▁Session	140
▁corridor	140
Could	140
▁Excellence	140
▁Rising	140
▁aesthetic	140
▁Sinmun	140
▁Yeoksam	140
▁digestive	140
▁Period	140
rick	140
▁inches	140
start	140
▁hook	140
Yesterday	140
▁polar	140
▁versions	140
▁skincare	140
▁detecting	140
▁Yuk	140
▁laptops	140
▁boosted	140
▁densely	140
confidence	140
nova	140
Gen	140
▁injunction	140
▁confronted	140
▁priorities	140
aba	140
▁fries	140
▁1,400	140
▁Cuba	140
▁hats	140
▁Merchants	140
▁Situation	139
▁``	139
▁1986	139
▁induced	139
▁Combined	139
▁spilled	139
▁resale	139
nc	139
boo	139
ada	139
Reporter	139
hua	139
▁2,3	139
▁complementary	139
▁gesture	139
▁swearing	139
construction	139
MB	139
▁YouTuber	139
2017	139
▁omission	139
▁subscribed	139
▁affectionate	139
▁agony	139
GS	139
jecting	139
▁quoting	139
▁sticky	139
▁fulfilling	139
▁twelve	139
▁Implementation	139
▁artillery	139
▁Daedong	139
▁2:30	139
▁exemptions	139
▁rainbow	139
▁Certificate	139
▁feminist	139
Paju	139
▁detour	139
▁AFP	139
▁debris	139
▁Hur	139
▁adequacy	139
▁showcased	139
Jun	139
▁vomiting	139
▁newborns	139
▁toast	139
▁sleeves	139
▁restart	139
▁bedding	139
▁restrooms	139
▁anecdote	139
▁brighten	139
▁simplify	139
▁Ukraine	139
▁ample	139
▁alongside	139
▁Ray	139
las	138
▁6/10	138
MOU	138
4.9	138
Yeo	138
Jae	138
▁WTO	138
unmirae	138
sales	138
▁decentralized	138
▁offenses	138
▁Mutual	138
▁strategically	138
▁sovereign	138
▁del	138
▁irresponsible	138
▁Mourinho	138
▁Mer	138
▁bachelor	138
Miss	138
▁dispatching	138
▁Vienna	138
▁certify	138
▁115	138
▁Lin	138
▁blaming	138
ked	138
▁extinguishers	138
▁preemptively	138
Top	138
▁crossroads	138
▁Sale	138
▁distortion	138
▁supportive	138
▁denies	138
vice	138
ogue	138
ES	138
▁brave	138
▁rupture	138
▁swear	138
▁ambitious	138
6%)	138
▁Victims	138
▁superiors	138
GM	138
*	138
▁SE	138
▁TWICE	138
▁vital	138
▁comparative	138
▁subordinates	138
▁updates	138
▁Youtube	138
▁Kono	138
voting	138
mmer	138
▁chores	138
0.9	138
▁bowls	138
▁violin	138
▁Spa	138
2016	138
stick	138
▁Discussion	138
▁groundless	138
▁therapist	138
▁ranges	138
▁fortress	138
Speaker	138
▁CP	138
▁selfish	138
▁Furniture	138
▁Sweet	138
▁Seattle	138
▁Contract	137
▁pie	137
▁syrup	137
▁reasoning	137
▁Namhan	137
,100	137
▁Artist	137
tercontinental	137
▁aftereffects	137
▁souls	137
▁wives	137
▁earphones	137
▁Against	137
▁sensational	137
▁rebuild	137
▁commemorating	137
▁Intersection	137
8.8	137
▁deprived	137
▁dean	137
ava	137
FTA	137
October	137
▁meta	137
▁optimism	137
host	137
▁remedy	137
▁excludes	137
▁mattress	137
Hee	137
Thursday	137
gwon	137
▁shocks	137
▁Cherry	137
▁fold	137
▁quantum	137
nbuk	137
lab	137
ifying	137
▁locally	137
print	137
Additionally	137
ky	137
nyang	137
▁Legend	137
uation	137
▁320	137
memory	137
Yeong	137
:55	137
ered	137
▁brewing	137
▁chopsticks	137
eur	137
▁reproduced	137
living	137
enos	137
▁formally	137
word	137
▁dryer	137
▁AIDS	137
▁Troupe	137
mura	136
Kumho	136
▁piety	136
amp	136
▁tomatoes	136
8.2	136
Bang	136
▁fundamentals	136
▁Stage	136
▁designates	136
▁periodically	136
▁inherent	136
▁Fact	136
▁scout	136
Fine	136
tering	136
Academic	136
uce	136
oi	136
Cheongju	136
▁Initiative	136
▁intertwined	136
▁elastic	136
▁precautions	136
▁enabled	136
district	136
▁unconventional	136
▁concealed	136
east	136
▁Hwi	136
▁smokers	136
▁Politics	136
omi	136
▁reemployment	136
workers	136
▁2019.	136
▁migrants	136
▁Fast	136
▁nuts	136
▁maximized	136
▁Ci	136
paid	136
▁Consultation	136
▁greedy	136
▁beta	136
media	136
▁admire	136
▁Cur	136
▁journalism	136
▁oxide	136
▁liquef	136
▁geopolitical	136
▁delinquents	136
▁mergers	136
▁privilege	136
▁Jeongseon	136
▁Cities	136
▁strikers	136
▁gardening	136
▁2025	136
▁Wal	136
▁3-2	136
▁peers	136
▁silicon	136
▁trot	136
▁Yonhap	136
▁boasting	136
▁「	136
▁indefinite	135
talk	135
▁outdated	135
▁tomato	135
▁Pet	135
▁insert	135
▁Juveniles	135
▁Bluetooth	135
▁Womad	135
▁Arctic	135
▁Myeongdong	135
▁standby	135
▁Workshop	135
▁Koryo	135
▁Cook	135
iya	135
Customers	135
report	135
▁arisen	135
enthusiastically	135
hyeok	135
▁batch	135
▁Valencia	135
▁bizarre	135
▁Stars	135
bing	135
▁Hankook	135
▁discriminatory	135
▁rat	135
▁Uljin	135
ryeol	135
▁registers	135
form	135
▁herald	135
▁Crisis	135
▁inconsistent	135
▁Rai	135
▁eradication	135
▁Taebaek	135
▁Sho	135
▁Banking	135
▁lotion	135
Project	135
Gang	135
▁Dalseong	135
▁Banpo	135
profile	135
▁suitability	135
fact	135
▁unforgettable	135
▁"5	135
France	135
▁imaging	135
▁Until	135
▁provocation	135
▁inventor	135
▁Imjingak	135
▁bullet	135
8.5	135
▁baking	135
▁Gaesong	135
▁2013.	135
9.4	135
▁penetration	134
Employees	134
7.7	134
liness	134
(3)	134
sia	134
▁Olive	134
gh	134
▁volcano	134
▁stack	134
▁slows	134
▁entertainers	134
▁dinosaur	134
▁centralized	134
▁persuasion	134
War	134
▁8%	134
▁amplified	134
▁popularization	134
bling	134
bie	134
▁prim	134
▁Specific	134
▁blogs	134
November	134
9.9	134
▁yogurt	134
4.8	134
hon	134
Peace	134
dor	134
▁harmonized	134
▁Conservative	134
▁Filipino	134
▁trails	134
▁crowds	134
▁pavilion	134
rrow	134
▁disturb	134
▁Wei	134
▁hazard	134
▁fostered	134
▁grader	134
▁bowel	134
▁prioritize	134
▁MO	134
tentative	134
▁Psy	134
▁coercion	134
▁Sanchez	134
Organiz	134
▁psychiatrist	134
Ah	134
▁Organizing	134
7.6	134
▁Retail	134
▁vaccinations	134
▁Roy	134
▁Tiger	134
▁evolve	134
▁Gwangan	134
piece	133
▁tanker	133
▁symbolism	133
4.2	133
▁Sangdo	133
▁exploitation	133
Seeing	133
4.6	133
▁Gangjeong	133
▁tolerate	133
▁overflowing	133
▁confidently	133
▁nets	133
▁gum	133
▁drawer	133
EO	133
▁resorts	133
▁Buddhism	133
▁Symphony	133
BTS	133
▁entertainer	133
▁compounds	133
▁Bra	133
▁overwhelmingly	133
members	133
▁ridge	133
▁understandable	133
▁Mungyeong	133
▁defines	133
▁Kenya	133
▁lawn	133
▁resisted	133
▁Investigations	133
▁crispy	133
angle	133
▁interrupted	133
▁melting	133
dog	133
▁(29)	133
▁snowfall	133
▁sheep	133
▁fairs	133
cia	133
▁slush	133
chen	133
▁describing	133
▁dare	133
▁socialist	133
▁diplomats	133
▁BI	133
▁wa	133
sti	133
▁punitive	133
▁Bithumb	133
▁Haenam	133
▁Strong	133
union	133
▁Mokdong	133
▁technicians	133
-12	132
pp	132
▁thrill	132
2.9	132
▁touring	132
▁reproduction	132
ID	132
▁barbecue	132
▁neo	132
▁diversifying	132
▁header	132
▁EGR	132
Gwang	132
▁horizon	132
▁paramedics	132
▁1,100	132
▁pope	132
▁biotechnology	132
▁tracked	132
▁Measure	132
coin	132
ew	132
▁Bonghwa	132
▁Gugak	132
▁Recommendation	132
bble	132
▁Carlos	132
seemingly	132
.12	132
▁tutor	132
▁ointment	132
▁transmit	132
▁swayed	132
▁stranger	132
▁battlefield	132
vie	132
▁uranium	132
▁examinees	132
–	132
▁Patent	132
4.7	132
▁clashed	132
expected	132
▁shout	132
▁blown	132
▁silently	132
▁Harris	132
div	132
▁debtor	132
▁Mon	132
▁alien	132
▁Bern	132
sae	132
▁Jenny	132
▁academics	132
KB	132
6.9	132
▁Kara	132
▁dispos	132
▁copied	132
▁acquisitions	132
▁reorganizing	132
▁Stay	132
▁skeptical	132
▁Institution	132
▁melts	132
ended	132
▁Kavanaugh	132
▁spell	132
nfantry	132
▁wig	132
Apple	132
▁Guest	132
▁Racing	132
▁installs	132
▁Enjoy	131
Sub	131
▁dont	131
nak	131
haeng	131
▁Muslims	131
▁chew	131
lid	131
▁SH	131
juk	131
▁desks	131
8.7	131
▁wartime	131
▁cab	131
▁Reverend	131
cient	131
▁economist	131
▁2024	131
▁Nonhyeon	131
position	131
WP	131
▁edible	131
Naturally	131
▁flaws	131
▁Kuwait	131
▁Gar	131
formerly	131
▁Mad	131
conditioning	131
▁Off	131
▁shark	131
▁Mag	131
organization	131
ologists	131
used	131
Wait	131
▁4.8	131
▁Exit	131
▁1,800	131
▁2012.	131
▁Phil	131
▁Step	131
▁thumb	131
ished	131
▁clay	131
ongsil	131
Ne	131
▁crises	131
ette	131
▁(200	131
▁Songjeong	131
▁mourning	131
▁Siberia	131
▁seismic	131
▁Expansion	131
▁anticancer	131
▁Charles	131
▁Physical	131
▁stubborn	131
▁grading	131
takers	131
▁safeguard	131
▁averaged	131
▁flee	131
▁ultrasound	131
egi	131
▁champions	131
▁Par	131
▁KEF	131
SBS	131
▁Peak	131
▁copying	131
▁Ak	131
▁pave	131
▁stationery	131
▁staging	130
▁occupying	130
▁Idea	130
▁photographed	130
Gong	130
▁decorations	130
▁Brothers	130
reung	130
40,000	130
▁concession	130
▁racism	130
▁Help	130
dul	130
lift	130
▁sterilization	130
▁grape	130
▁feasible	130
▁generational	130
changing	130
▁germs	130
uda	130
▁residue	130
▁dismantled	130
▁inflated	130
▁pores	130
▁waving	130
▁2017)	130
▁postal	130
▁Marina	130
▁approves	130
▁epidemic	130
▁jungle	130
▁reimbursed	130
▁beats	130
Culture	130
▁Arsenal	130
highest	130
focused	130
▁religions	130
▁underlying	130
▁Instructor	130
▁tougher	130
max	130
▁substitution	130
▁experiential	130
Music	130
▁qualify	130
▁Walking	130
▁implications	130
▁whistle	130
▁skiing	130
▁cookie	130
▁Shu	130
▁Record	130
nny	130
▁thriller	130
▁Mina	129
▁concludes	129
▁delighted	129
show	129
▁learns	129
▁Leadership	129
office	129
▁IPTV	129
▁roasted	129
▁Jerusalem	129
▁traditionally	129
▁polite	129
SM	129
▁hospitality	129
▁infringe	129
▁Resolution	129
Attorney	129
group	129
9.2	129
▁Dun	129
▁calculations	129
▁visuals	129
▁Cruise	129
Spring	129
demand	129
3%)	129
scape	129
▁acoustic	129
▁dumped	129
▁crews	129
▁Ve	129
▁Jongro	129
▁Chef	129
-35	129
▁herbs	129
▁rack	129
▁claimant	129
▁stronghold	129
▁factions	129
▁inexpensive	129
flow	129
▁Find	129
▁thigh	129
▁grandchildren	129
▁Half	129
▁Questions	129
▁aquarium	129
▁00	129
▁Ber	129
▁conclud	129
▁unlicensed	129
▁paddies	129
▁penetrated	129
zen	129
Increasing	129
▁Taegeuk	129
▁dangers	129
▁Noryangjin	129
▁pornographic	129
▁Rio	129
(5	129
count	129
rch	128
▁Valentine	128
▁USFK	128
▁4.2	128
▁lenders	128
▁brochure	128
▁surfing	128
fit	128
▁Inno	128
▁Patients	128
▁healthier	128
▁championships	128
!""	128
ustainable	128
▁therein	128
▁intervals	128
▁consul	128
▁Namwon	128
established	128
▁vouchers	128
▁stranded	128
▁comforted	128
▁discretionary	128
Law	128
CP	128
military	128
▁informs	128
▁devastated	128
▁Wild	128
▁inefficient	128
Political	128
▁flaw	128
▁hassle	128
▁Ddabok	128
▁slot	128
▁Banwol	128
▁prerequisite	128
▁packaged	128
▁Marathon	128
hold	128
▁subtitles	128
6.5%	128
▁equalizer	128
▁landscapes	128
▁suppressed	128
▁officetels	128
▁overhead	128
▁healed	128
nuclear	128
▁evidential	128
▁superiority	128
▁ineffective	128
▁norms	128
▁riverside	128
money	128
▁Frank	128
1.9	128
wave	128
▁bargain	128
Best	128
5.3	128
▁Double	128
eye	128
▁SDS	128
this	128
▁hills	128
▁Avenue	128
elections	128
seeking	128
jeo	128
▁southwest	128
▁Geumjeong	128
-16	128
▁Les	128
▁forecasting	128
▁Suga	128
▁Zoo	128
▁gestures	128
▁Pelosi	128
▁Pavilion	128
▁mal	128
▁(31	128
▁Humanities	128
▁landowners	127
Import	127
▁rolls	127
:35	127
▁peach	127
▁Simon	127
▁carpooling	127
▁Ginseng	127
Yun	127
▁outskirts	127
Stock	127
▁imperial	127
▁accountable	127
▁swiftly	127
▁Eup	127
Nexen	127
6)	127
▁Certifi	127
▁jams	127
▁Mask	127
Play	127
▁speculations	127
Amazon	127
▁chooses	127
▁nominees	127
▁Figure	127
▁financed	127
▁disciplined	127
2015	127
PD	127
pur	127
POP	127
▁7:00	127
▁twins	127
▁warfare	127
▁vacationers	127
▁3.9	127
▁robbery	127
▁Chong	127
ena	127
▁SDI	127
▁supplementing	127
▁jokes	127
▁Works	127
▁Trip	127
▁puzzle	127
▁raped	127
lov	127
stat	127
dent	127
▁highlights	127
Supreme	127
▁assisted	127
▁ladies	127
tone	127
▁dispositions	127
ec	127
▁dyeing	127
▁practicality	126
▁Labs	126
cci	126
▁screenings	126
▁residency	126
▁nationalism	126
▁Unjeong	126
▁beginners	126
ić	126
▁Computer	126
▁etiquette	126
4%)	126
▁acceleration	126
2.3	126
▁Coway	126
9.6	126
▁speeds	126
▁Cannes	126
▁guidebook	126
▁wrestling	126
▁geothermal	126
Preliminary	126
▁hallway	126
Actors	126
▁hammer	126
hal	126
▁continually	126
residential	126
▁90,000	126
▁BOK	126
▁Panama	126
▁Chair	126
▁unspecified	126
▁repercussions	126
▁interns	126
▁Protestant	126
▁Jinhae	126
▁belated	126
lies	126
restricted	126
▁puppet	126
▁info	126
▁MLB	126
▁distances	126
▁550	126
growing	126
▁summoning	126
▁Feel	126
▁Like	126
5.8%	126
▁hangover	126
▁motorcycles	126
▁temper	126
▁consuming	126
kap	126
Mobile	126
▁Suzuki	126
▁2020.	126
▁IV	126
mg	126
▁Nielsen	126
▁Naval	126
▁condemn	126
▁35%	126
▁Wonder	126
▁gymnastics	126
▁Jackson	126
uous	126
▁Gaeseong	126
▁dominating	125
▁accustomed	125
▁Were	125
.19	125
Du	125
:05	125
▁Person	125
▁5.4	125
hr	125
▁populated	125
Beyond	125
▁implies	125
▁0.9	125
▁pests	125
▁chaotic	125
▁sits	125
▁builders	125
▁Excellent	125
▁ba	125
▁Horse	125
▁Kook	125
▁Thi	125
▁functionality	125
▁compartment	125
▁Confucian	125
▁upright	125
▁Houston	125
▁Limit	125
▁NGO	125
▁ballad	125
has	125
▁downside	125
▁expedite	125
▁commercializing	125
▁fracture	125
▁pillow	125
Suddenly	125
9.8	125
pel	125
▁partition	125
ege	125
▁cram	125
▁sorts	125
safety	125
▁sail	125
▁Op	125
▁sausage	125
▁BEXCO	125
▁listens	125
▁4.4	125
picture	125
▁Jews	125
▁curtain	125
Hyegyeonggung	125
▁escalator	125
uge	125
▁reproduce	125
▁Jim	125
▁tunnels	125
▁(33	125
▁y	125
▁tangled	125
▁webtoons	125
continental	125
Christian	124
70,000	124
▁proficiency	124
▁decay	124
▁prosecut	124
script	124
▁faults	124
▁snail	124
vascular	124
chairpersons	124
▁unqualified	124
▁scissors	124
▁stimulated	124
▁incurable	124
▁Starfield	124
gling	124
▁derivatives	124
arch	124
Will	124
▁victories	124
▁5:30	124
▁barbed	124
▁gel	124
▁Auditorium	124
▁surgeries	124
▁aggravated	124
Representatives	124
fra	124
▁criterion	124
▁stalemate	124
▁Adam	124
▁caffeine	124
mails	124
▁correspond	124
▁""100	124
seul	124
▁Range	124
μ	124
▁phased	124
▁Mnet	124
▁Contribution	124
▁11:30	124
counter	124
▁closet	124
▁Search	124
▁Jungnang	124
▁Treasure	124
▁Chiang	124
▁sketch	124
▁1995,	124
▁economical	124
▁confiscation	124
▁ally	124
▁arresting	124
▁communicates	124
▁Rest	124
▁Singaporean	124
▁520	124
▁landlords	124
zhou	124
▁fifteen	124
▁(32	124
▁coincidence	124
▁manuals	124
▁Nara	124
▁hierarchy	124
▁vow	124
▁Connect	124
zel	124
▁Eom	124
▁legacy	124
▁fullest	124
▁dizziness	124
▁resistant	124
▁ancestr	123
2019	123
mee	123
Historical	123
▁grocery	123
ryeon	123
▁Cla	123
▁viruses	123
▁projected	123
▁commuter	123
teo	123
▁135	123
▁aquatic	123
▁snap	123
▁Atlantic	123
▁Em	123
▁sprout	123
Congressman	123
▁Peru	123
▁spark	123
mba	123
▁dinosaurs	123
▁exposing	123
▁Chen	123
▁essays	123
nyeon	123
▁Empress	123
DT	123
▁OST	123
deul	123
actor	123
▁stomachache	123
▁curator	123
▁REITs	123
▁enthusiasts	123
▁spaghetti	123
▁surfaced	123
▁knot	123
▁foolish	123
Friday	123
▁pill	123
▁Kyoto	123
▁fabricated	123
▁generates	123
▁pit	123
▁reformation	123
▁empathize	123
▁Kye	123
▁kills	123
▁(0	123
▁dial	123
▁sue	123
▁dialect	123
▁arboretum	123
▁ST	123
▁corners	123
▁Shooting	123
IX	123
took	123
▁Wiz	123
▁Moses	123
▁restrain	123
▁Contracts	123
▁conveys	123
▁uprising	123
erie	123
▁bur	123
▁reimburse	123
4.4	123
▁veterinary	123
yne	123
normal	123
zone	123
▁Seul	122
▁°	122
▁Bear	122
▁handball	122
▁Sehwa	122
▁Debate	122
wait	122
EST	122
▁Nang	122
▁Budapest	122
▁toxin	122
reliant	122
▁Fuji	122
▁eBay	122
7.9	122
tap	122
▁Venice	122
Lu	122
urge	122
Facebook	122
▁conservatism	122
▁embarked	122
▁fiction	122
▁symbols	122
▁ES	122
▁occupies	122
▁tripled	122
▁Lang	122
▁degenerative	122
▁divers	122
commissioned	122
▁biosimilar	122
3.4	122
▁subsidiz	122
▁bids	122
▁subtitle	122
▁Chris	122
▁$5	122
▁Restriction	122
▁Detective	122
▁deviate	122
▁oyster	122
▁Relat	122
▁confronting	122
▁3-0	122
▁scenic	122
▁Tony	122
ntangible	122
▁medalist	122
▁ledgers	122
▁nut	122
▁Arabian	122
▁Buy	122
creating	122
▁unrest	122
▁Myeon	122
▁stalls	122
hyu	122
▁warehouses	122
▁wired	122
▁jets	122
▁1-1	122
▁durable	122
▁Ground	122
cid	122
▁ramp	122
▁stagnation	122
temporary	122
▁Stanley	122
wife	122
▁distributes	122
▁Abu	122
strong	122
▁Sosa	122
▁procession	122
▁impressions	122
▁intra	122
▁embedded	121
▁maximiz	121
▁prints	121
▁deferred	121
▁chill	121
▁Greenland	121
▁maternal	121
industrial	121
▁dug	121
▁Taxation	121
-13	121
aught	121
MD	121
▁labels	121
▁Glass	121
▁outlined	121
5.7%	121
liners	121
▁Textile	121
▁Organic	121
Bar	121
▁overturn	121
lusion	121
▁cent	121
▁celebrat	121
▁Conflict	121
tourism	121
▁spectrum	121
▁exhaustion	121
▁richer	121
▁plague	121
▁Delivery	121
▁Effect	121
▁Ren	121
source	121
▁needy	121
▁mice	121
wall	121
▁3:30	121
▁intellectuals	121
ONE	121
▁Dar	121
▁CB	121
▁strained	121
▁Artists	121
7.7%	121
▁Antonio	121
▁professionally	121
▁ligament	121
yama	121
▁Uni	121
▁pots	121
▁bathing	121
-18	121
▁Sharp	121
▁styling	121
▁elbow	121
EF	121
▁unanimously	121
aki	121
▁hampered	121
▁militant	121
Jeonbuk	121
▁sustained	121
▁twist	121
▁128	121
▁evade	121
▁Reporting	121
▁Seobu	121
▁photovoltaic	121
5.2	121
▁evolving	121
▁Desert	121
▁Designation	121
▁grandmothers	121
▁Shinmun	120
▁buzz	120
▁accomplishment	120
▁circulate	120
▁oily	120
▁eruption	120
▁sickness	120
▁Cheonggye	120
TM	120
▁Invossa	120
House	120
▁Gaepo	120
certified	120
uel	120
1%)	120
▁northwestern	120
▁relate	120
makers	120
▁interviewing	120
▁2019""	120
▁Petroleum	120
▁condemned	120
▁tales	120
▁acknowledg	120
▁shakes	120
▁reprimand	120
▁Palestinian	120
▁3-1	120
▁Never	120
▁gastro	120
▁anybody	120
▁kits	120
pal	120
▁Pochettino	120
▁faded	120
▁deprivation	120
▁strangers	120
7.4	120
LC	120
▁misuse	120
▁externally	120
▁Cristiano	120
▁Landscape	120
▁picket	120
▁Yeonggwang	120
▁ensemble	120
3.9%	120
▁commanders	120
gger	120
▁possesses	120
▁addressing	120
spot	120
▁strikeouts	120
▁Mai	120
front	120
▁50/100	120
▁'2018	120
▁Sala	120
Early	120
▁Virginia	120
heum	120
Research	120
▁taller	120
▁cashier	120
▁Blood	120
change	120
Employment	120
▁continuity	119
▁prey	119
▁recur	119
▁collaborating	119
▁playoff	119
▁Worker	119
▁Wonsan	119
▁availability	119
▁slaughter	119
ggi	119
▁sustain	119
▁loudly	119
cept	119
plant	119
▁Tomb	119
▁satellites	119
▁tug	119
▁intercourse	119
▁heater	119
eco	119
▁suppressing	119
cious	119
▁trustees	119
▁vulnerability	119
▁searches	119
works	119
▁thinner	119
▁Subsidy	119
DB	119
▁Transaction	119
▁giants	119
▁(28)	119
▁cannon	119
just	119
bag	119
▁inflammatory	119
▁Rapid	119
▁starters	119
▁Refugee	119
▁bowed	119
3.8%	119
uz	119
▁Lock	119
bap	119
▁enjoyment	119
▁Friendship	119
Civil	119
▁Williams	119
▁Hy	119
▁stabbing	119
Suncheon	119
▁studios	119
▁mukbang	119
▁deer	119
▁tendencies	119
▁deceiving	119
▁frying	119
▁furious	119
▁Fresh	119
bats	119
▁soda	119
▁therewith	119
▁lotus	119
▁130,000	119
▁Pentagon	119
▁Prix	119
▁golfers	118
▁visions	118
▁excel	118
▁rehearsal	118
▁Jr	118
▁defam	118
▁indiscriminate	118
▁sluggishness	118
▁worsens	118
wen	118
trustee	118
▁Welcome	118
girlfriend	118
▁remodeled	118
▁summarized	118
(2	118
Honestly	118
▁Chungmuro	118
▁excuses	118
enti	118
▁VAT	118
watch	118
Stop	118
▁cartoons	118
▁brew	118
▁advertised	118
▁(7)	118
▁Mel	118
▁mackerel	118
regional	118
▁Consumers	118
▁prisoner	118
▁hometowns	118
gging	118
▁CI	118
▁ripe	118
▁nominal	118
virus	118
▁mudflats	118
▁throws	118
brand	118
▁coughing	118
▁pediatric	118
▁builder	118
▁destroys	118
▁trivial	118
5.5%	118
9.7	118
▁promulgated	118
una	118
▁0.7	118
pproving	118
.13	118
7.5%	118
▁Earthquake	118
▁depreciation	118
▁injections	118
circuit	118
tical	118
▁stirred	118
▁Pla	118
▁loopholes	118
fed	118
timer	118
▁feces	118
▁gossip	118
▁2-2	118
lier	118
El	118
▁Meet	118
Consumer	118
abi	118
gas	118
▁dear	118
▁erosion	118
▁fulfillment	118
▁shameful	118
▁racial	118
▁shipbuilders	117
ching	117
▁surrender	117
▁Seminar	117
▁Write	117
DP	117
Te	117
▁scream	117
▁bikini	117
▁relocating	117
▁Bak	117
▁fluctuating	117
▁107	117
trade	117
▁mango	117
▁seating	117
9.9%	117
▁declines	117
▁Kant	117
ssel	117
▁policymaker	117
▁fond	117
▁roaming	117
▁conspired	117
▁assert	117
.24	117
▁Neighborhood	117
▁heartbreaking	117
▁Prayer	117
▁terrain	117
(3	117
▁reformed	117
▁Goods	117
4.3	117
▁snowy	117
20,000	117
▁midday	117
Light	117
Fees	117
▁entertaining	117
▁slopes	117
▁Carolina	117
▁asthma	117
▁restricts	117
1.6%	117
▁springs	117
▁assemble	117
standard	117
▁Harbor	117
▁dragging	117
Pan	117
▁Kimpo	117
culture	117
▁rabbits	117
▁persists	117
▁ignition	117
▁enacting	117
▁sidewalks	117
▁faint	117
▁bunch	117
▁heels	117
▁blade	117
Live	117
▁raindrops	117
▁prevail	117
▁continuation	117
▁witch	117
▁loosen	117
▁fuels	117
▁9:00	117
▁Poong	117
▁Tam	117
▁detects	117
▁sympathetic	117
Book	117
▁Opening	117
▁Kyonggi	117
9)	116
▁roster	116
holder	116
existence	116
▁85%	116
▁listeners	116
▁Hard	116
tie	116
▁acids	116
▁Elliott	116
▁forgetting	116
dream	116
▁pat	116
▁Abuse	116
▁junk	116
▁Ecology	116
CJ	116
▁lymph	116
▁1/2	116
Mechanics	116
udi	116
▁NEC	116
▁tiny	116
▁Nazi	116
mann	116
▁tumors	116
▁ENM	116
▁takeoff	116
▁synergies	116
▁bibimbap	116
▁trough	116
▁diligent	116
▁banana	116
ankook	116
▁candle	116
▁devised	116
▁dumpling	116
▁Save	116
▁custodian	116
▁bulb	116
▁disturbed	116
are	116
Individual	116
▁electro	116
▁informal	116
▁Bird	116
▁deletion	116
▁Au	116
▁anthem	116
kind	116
▁notion	116
▁feminine	116
▁intimidation	116
▁Painting	116
Exports	116
▁Wanzhou	116
▁uncover	116
▁recalls	116
.95	116
February	116
Part	116
▁inaugurated	116
▁extensively	116
▁Deep	116
▁Speed	116
Talk	116
Otherwise	116
▁PB	116
▁advising	116
▁sprouts	116
▁forgery	116
▁avoidance	116
▁pedal	116
shop	116
▁Taehwa	116
▁BC	116
cher	116
▁handwriting	116
uni	116
▁Ask	116
▁homemade	116
▁carcinogens	116
eating	116
▁realistically	116
▁homer	116
▁Jet	115
▁assembled	115
[...]
