.	1095239
을	635402
의	493236
,	475359
를	411583
가	386399
이	360226
▁"	357089
."	354843
는	336437
에	334659
은	277227
▁	218908
▁수	196764
과	167811
도	157215
▁있다	152896
고	150873
로	146903
일	130518
)	122457
와	121382
한	119464
에서	119321
▁‘	118527
으로	115753
▁“	113710
·	112375
’	112116
(	110152
”	106338
▁이	97262
다	96499
인	95423
▁있는	89563
▁등	88772
▁1	71767
▁한다	71626
?	70021
년	66476
할	65467
▁한	64989
하는	64538
▁제	63442
▁및	60452
하고	59749
▁것으로	59514
지	59500
해	57398
▁2	57177
만	55047
▁그	53521
월	52162
▁3	51897
▁대한	49805
▁전	47165
▁위해	43045
기	41021
▁더	37112
▁경우	36813
▁것	36676
▁5	36610
시	36516
▁따라	36375
▁할	36167
▁4	35870
▁중	34972
나	34509
했다	33276
대	32536
며	32233
▁나는	32109
들이	32061
하게	31744
▁지난	31698
▁밝혔다	31531
▁통해	31258
서	30892
자	30558
▁10	30363
에는	30142
개	30127
까지	29794
된	29743
▁함께	28757
게	28575
▁있습니다	28103
▁하는	27698
▁내	26991
면	26635
▁때	26617
▁등을	26301
에게	26218
▁위한	26075
▁안	26069
1	25573
2	25460
▁것이	25358
▁김	25333
라	25324
▁6	25218
▁말했다	24637
입니다	24577
▁저는	24409
제	23540
이라고	23153
▁했다	23068
▁가장	22966
리	22909
▁이번	22901
주	22812
▁다른	22796
명	22658
하지	22429
적	22424
▁대해	22412
▁7	22150
수	22101
▁두	22014
▁한국	21752
▁각	21733
▁게	21566
▁것은	21500
어	21396
▁것을	21347
▁많은	21256
▁후	21248
▁잘	21243
▁또는	21058
▁것이다	21047
사	20910
차	20890
히	20887
성	20715
▁다음	20443
▁필요한	20425
미	20336
▁미국	20119
▁서울	20110
하기	20086
▁같은	19942
진	19740
▁8	19735
▁가운데	19563
이나	19306
야	19261
▁우리	19212
▁큰	19098
이다	18777
▁하고	18643
적인	18615
스	18412
▁있도록	18406
▁있어	18383
▁9	18314
▁관련	18182
동	18149
▁시	18120
한다	18112
▁따른	18094
▁때문에	17957
조	17566
▁등이	17560
하며	17235
상	17037
던	16951
장	16677
▁중국	16468
▁많이	16404
▁뒤	16380
▁최근	16335
원	16117
▁다	16092
선	16057
▁지난해	16045
▁있다는	16026
비	16002
세	16001
해야	15859
화	15848
▁다시	15817
보다	15775
▁그는	15769
▁이후	15768
▁20	15750
▁이상	15603
▁될	15597
▁내가	15532
▁없는	15524
요	15495
하여	15466
▁경기도	15408
▁제가	15324
▁해	15211
3	15197
에서는	15091
▁올해	14832
▁지역	14787
▁국내	14781
▁위하여	14669
회	14665
▁12	14594
분	14593
전	14579
아	14576
""	14523
▁모두	14469
▁주	14322
호	14304
▁다양한	14235
▁직접	14182
부	14145
▁이날	14085
▁11	14074
이하	14052
부터	13995
될	13993
▁등의	13985
하여야	13938
▁오늘	13833
▁30	13815
소	13752
되는	13672
구	13630
형	13475
▁모든	13427
산	13403
니	13403
▁A	13396
▁결과	13363
▁보고	13358
정	13315
▁현재	13282
하면서	13257
▁따르면	13200
▁미	13168
-	13161
▁지	13091
▁이를	13017
면서	12977
▁지원	12912
명이	12904
용	12902
습니다	12896
라고	12850
▁좋은	12710
▁특히	12647
하면	12639
▁경우에는	12523
라는	12509
중	12474
▁해당	12442
」	12403
▁우리는	12367
억	12356
▁없다	12257
▁총	12254
?"	12241
신	12223
▁있을	12192
합니다	12144
▁사업	12132
돼	12111
▁데	12069
▁관한	12046
▁일	12043
▁오후	12039
법	12038
▁고	12035
됐다	12019
여	12013
▁시장	11951
▁등에	11905
당	11872
▁있다고	11839
트	11825
이라는	11823
▁약	11795
적으로	11793
▁너무	11705
▁「	11669
▁추가	11650
▁합니다	11622
▁지금	11611
우	11545
식	11537
▁말	11531
▁구청장은	11518
▁관리	11439
▁된다	11376
▁때문이다	11319
▁원	11306
▁세계	11293
▁아니라	11175
▁어떤	11172
▁당신은	11147
▁동안	11084
드	11048
치	11045
에도	11011
▁않은	10981
지만	10971
▁만큼	10961
▁건	10900
4	10868
▁경기	10835
네	10830
이라	10810
▁시간	10795
▁높은	10759
▁관계자는	10655
▁운영	10637
▁당시	10632
▁있어요	10627
▁새로운	10623
▁다만	10616
▁당신이	10606
▁오	10601
▁문	10581
보	10536
▁박	10517
했던	10453
▁비	10422
▁나	10411
▁간	10403
▁이어	10384
'	10369
경	10337
위	10279
▁트럼프	10271
관	10196
▁첫	10174
항에	10166
▁어떻게	10149
▁15	10132
▁정	10067
▁않고	9931
▁조사	9914
들의	9892
▁이런	9889
▁대통령이	9870
들은	9821
▁오는	9795
▁조	9782
▁사용	9746
▁또	9720
마	9715
엔	9714
되고	9700
▁난	9666
천	9646
하	9630
실	9627
▁경찰	9604
▁19	9587
▁사	9564
군	9554
▁오전	9551
석	9543
유	9542
처럼	9508
영	9485
▁열린	9470
▁없이	9469
했습니다	9454
강	9444
오	9421
▁된	9369
▁보인다	9361
▁대	9346
▁받은	9319
▁교육	9309
▁못	9309
문	9308
▁좀	9281
▁설명했다	9196
▁신	9179
▁북한	9160
▁설치	9157
러	9148
▁도	9092
▁일본	9089
▁정보	9069
▁예정이다	9068
▁줄	9067
▁일부	9039
▁기업	8992
▁서	8989
하거나	8957
5	8916
▁볼	8915
▁사람이	8912
그	8901
내	8860
▁장	8855
▁달	8831
▁주요	8803
▁가능성이	8792
▁아	8775
재	8763
▁구	8760
▁있고	8749
해서	8720
국	8719
▁경제	8715
란	8712
▁호의	8710
단	8709
▁계획	8705
질	8699
무	8686
▁거	8684
▁어느	8674
모	8633
연	8619
m	8575
▁부	8549
▁바	8537
▁같이	8482
들을	8454
▁100	8445
▁투자	8433
권	8385
김	8384
▁날	8359
▁것입니다	8348
조제	8328
▁세	8312
▁기존	8294
▁강	8280
▁문제가	8245
안	8243
건	8201
▁대상으로	8174
배	8169
▁정부가	8151
▁사람	8146
계	8144
▁말한다	8109
▁때에는	8090
시간	8085
▁있으며	8051
▁최대	8022
급	8016
▁유	7982
▁정부	7981
▁여러	7977
물	7971
민	7970
억원	7959
데	7938
▁번	7934
▁바로	7906
▁당신의	7903
▁진행	7902
▁필요	7897
▁있지만	7889
▁정도	7878
방	7876
포	7829
▁있었다	7820
▁영화	7812
하도록	7800
▁자	7781
박	7763
▁차	7731
▁전국	7711
▁않는	7675
▁정말	7675
간	7669
금	7659
▁기	7657
▁받고	7643
▁학교	7623
▁저	7620
조에	7614
▁회사	7596
공	7586
▁18	7578
관리	7572
양	7504
▁됐다	7498
들	7492
▁추진	7490
했고	7483
▁손	7476
위원회	7456
일까지	7442
▁확인	7429
르	7425
6	7410
▁그리고	7409
▁대표	7391
▁사항을	7380
▁기술	7378
▁있나요	7373
▁14	7360
▁우리가	7342
▁16	7337
▁청와대	7327
▁재	7316
▁시간이	7292
▁등으로	7291
▁알	7291
▁13	7282
▁하나	7271
▁양	7269
▁국가	7266
일부터	7237
▁법	7223
▁매우	7218
▁여성	7202
▁조례	7174
되지	7164
▁초	7124
▁되는	7108
▁자신의	7105
▁계속	7094
▁이미	7067
▁북	7018
타	7010
▁몇	7003
7	7002
▁올	6980
개월	6978
▁더욱	6975
▁크게	6968
운	6968
▁선	6956
교	6943
현	6910
거나	6909
▁이용	6894
파	6880
▁연	6876
▁새	6854
▁전했다	6852
▁판매	6848
▁서울특별시	6848
티	6841
▁동	6828
해요	6822
▁그것	6812
▁일이	6797
▁해요	6795
별	6769
길	6749
▁먼저	6748
만원	6732
태	6704
되어	6703
종	6699
▁수사	6697
▁제품	6693
항	6682
병	6681
▁아직	6671
G	6642
이에요	6637
지역	6630
▁국회	6617
했지만	6604
▁도지사	6594
▁불	6589
▁차량	6588
점	6567
청	6548
▁글로벌	6539
▁시설	6520
▁17	6499
▁온	6498
▁국제	6496
▁25	6486
▁중인	6484
▁나온다	6467
▁갈	6466
▁들어	6465
▁부산	6460
두	6458
온	6457
디	6454
▁보면	6442
▁이에	6440
▁하며	6435
▁수도	6421
▁반	6418
▁검찰	6402
크	6391
레	6380
▁일자리	6376
▁노	6368
노	6367
는데	6352
▁처음	6340
하다	6320
▁한다는	6319
▁해야	6301
▁나타났다	6300
▁해외	6293
▁친구	6292
▁관심이	6288
▁환경	6287
▁이들	6281
▁과정에서	6267
▁전에	6259
▁"‘	6251
▁보	6249
교육	6240
▁아닌	6237
▁명	6236
바	6236
▁하지	6234
카	6220
▁24	6216
▁성	6188
▁걸	6185
▁50	6164
▁관심	6159
사업	6158
▁모	6140
발	6125
▁무	6122
▁참여	6121
▁서비스	6110
▁집	6102
▁사건	6088
▁발생	6087
이번	6086
▁역시	6080
▁받을	6032
반	6024
▁본	6005
▁지난달	6005
심	6000
▁피	5998
▁것도	5992
▁만에	5987
▁공동	5973
이란	5968
프	5965
산업	5961
▁배우	5953
승	5943
▁가격	5942
▁그의	5941
▁그런	5932
▁정책	5924
▁하	5918
▁가지	5918
학	5917
▁마	5916
▁각각	5913
이었다	5907
▁각종	5904
▁계획이다	5893
▁연구	5884
▁당	5877
▁처리	5866
직	5866
▁최	5862
▁감사	5859
▁기간	5849
▁물	5849
했어요	5847
▁문제	5844
▁산업	5838
▁개	5824
▁하지만	5817
▁수출	5816
▁개발	5809
명의	5805
▁도시	5802
터	5800
▁앞서	5791
▁예산	5781
▁상품	5781
지원	5764
▁해당하는	5757
D	5733
▁목적으로	5731
▁상	5722
▁강조했다	5722
▁받아	5716
▁경기도가	5715
▁그가	5708
▁왜	5702
▁영향을	5697
▁어	5694
씨가	5691
남	5685
약	5684
▁알고	5683
▁생활	5681
▁규모	5680
명을	5663
코	5660
▁이제	5655
임	5653
철	5633
▁생산	5621
▁물론	5617
▁가능한	5612
▁자동차	5601
▁남	5596
역	5594
▁신청	5594
려	5585
로부터	5582
),	5580
▁만	5579
▁게임	5577
초	5576
린	5573
▁안전	5562
▁산	5554
▁대비	5554
▁전체	5541
▁채	5540
▁나왔다	5531
▁소속	5527
▁가지고	5523
▁B	5519
▁있게	5513
▁대학	5509
토	5496
▁활성화	5482
▁교수	5477
▁그동안	5476
▁않을	5468
▁타	5458
▁공	5458
▁두고	5451
▁결정	5448
▁않았다	5446
▁개인	5446
▁않아	5439
▁도내	5436
▁사고	5435
준	5433
즈	5431
거	5417
8	5406
▁있는데	5405
9	5400
▁속	5399
▁문화	5397
▁23	5395
▁실제	5394
▁앞으로	5393
생	5391
▁너	5389
▁또한	5387
▁21	5381
피	5380
▁열	5377
▁우선	5377
▁확대	5376
▁있기	5356
▁것이라는	5355
▁활동	5349
▁사업을	5340
▁알려졌다	5338
)’	5331
▁배	5327
▁되고	5321
인데	5316
불	5303
▁평가	5301
문화	5276
▁별지	5266
▁계약	5263
증	5254
희	5253
▁만들어	5247
▁위원	5238
▁자리	5236
▁하루	5235
▁인해	5231
도록	5229
▁대하여	5225
층	5201
▁분	5200
▁업무	5200
년간	5193
▁대부분	5187
된다	5176
▁27	5173
▁문재인	5171
저	5164
▁최종	5160
▁단	5159
번	5145
▁어려운	5133
랑	5129
▁사회	5129
▁군	5124
▁22	5105
▁소	5100
▁회의	5100
▁없어	5100
▁시작	5098
▁남북	5075
▁피해	5070
▁현장	5069
▁지급	5065
살	5056
더	5056
▁네가	5051
▁같다	5042
▁조금	5040
▁발표	5037
▁중심으로	5035
▁40	5032
▁됩니다	5027
▁제대로	5023
▁28	5014
▁(	5013
루	5013
▁이렇게	5012
였다	5012
▁스	5011
▁점을	4999
▁살	4999
▁기록	4993
▁방문	4993
에서도	4993
▁전문	4991
▁집중	4976
▁거예요	4973
▁내일	4971
에선	4971
▁일을	4959
난	4959
▁버스	4955
행	4951
▁일반	4947
▁역할을	4947
자가	4945
▁고용	4943
▁외	4930
체	4925
▁음식	4912
근	4909
되면	4908
▁업체	4902
▁26	4902
▁받는	4901
▁바랍니다	4899
▁사람들이	4898
하던	4894
림	4891
▁호	4886
▁인천	4886
어요	4878
▁노력	4872
센터	4851
시설	4851
▁여행	4837
▁보내	4832
▁있어서	4822
▁핵심	4817
▁임	4812
▁상황에서	4807
▁서로	4802
▁대통령	4800
▁최고	4788
▁인사	4774
▁문제를	4771
▁사진	4770
감	4768
▁비핵화	4765
▁중요한	4764
▁거쳐	4752
▁같아	4751
▁평균	4749
기를	4745
했다고	4739
▁지정	4738
▁대통령은	4730
▁거야	4722
▁작업	4714
기업	4707
▁2016	4707
▁리	4702
▁가는	4701
▁주문	4700
▁준비	4679
류	4677
지는	4675
외	4673
▁규제	4672
력	4672
▁목소리	4669
▁방	4666
▁얼마나	4653
창	4651
▁중에서	4650
▁일정	4645
▁기준	4640
▁위	4631
▁관련해	4621
되면서	4618
▁갖고	4615
단체	4603
▁주택	4603
▁같아요	4600
▁신고	4599
▁성과	4591
하기로	4584
▁개선	4582
▁운동	4576
▁저희	4575
▁혹시	4557
래	4550
▁구매	4548
▁의견을	4548
▁네	4544
설	4542
장은	4541
▁불법	4540
▁협력	4536
A	4535
▁강화	4532
▁공개	4531
▁내년	4529
▁아파트	4528
▁규정에	4521
▁공무원	4512
▁발	4511
매	4490
▁매	4484
구청장은	4476
▁송	4464
▁이는	4460
▁학생	4458
▁없습니다	4455
각	4445
조의	4444
▁부담	4440
마다	4435
▁경영	4435
씨는	4432
▁점이	4432
경제	4430
▁영어	4430
▁주민	4426
▁전망이다	4417
▁의혹	4414
▁번째	4414
▁중구	4409
▁대화	4406
▁것이라고	4403
▁주세요	4398
▁심사	4395
▁부동산	4395
▁필요하다고	4394
▁제공	4393
▁영	4384
▁지원을	4383
▁얘기	4368
▁책임	4367
▁거래	4362
▁국민	4362
▁대해서는	4361
▁이상의	4359
백	4358
▁2018	4354
열	4353
▁적극	4349
▁중소기업	4343
▁결과를	4342
▁관계	4339
▁보호	4329
씨	4329
▁정부의	4328
▁우	4327
▁매년	4325
구청장	4325
▁점	4319
▁변경	4315
▁사실을	4312
▁행정	4309
으며	4302
▁하면	4300
▁단체	4296
▁내용을	4293
▁모습을	4288
▁가족	4287
환	4285
여명이	4282
▁외국인	4274
▁논의	4272
▁이번에	4265
년부터	4262
학교	4260
▁29	4259
▁변화	4258
▁파	4257
▁팀	4254
▁과거	4242
▁제도	4239
▁특별	4235
▁달리	4235
경기	4233
▁한다고	4231
▁시행	4230
▁장애인	4219
항의	4218
▁있던	4218
▁시즌	4216
었다	4205
▁자신이	4204
▁브랜드	4202
하는데	4202
▁시스템	4196
▁도입	4181
▁못한	4180
▁발생한	4180
▁러시아	4180
▁전문가	4180
▁31	4177
▁혐의로	4176
▁정도로	4174
▁그럼	4169
▁미세먼지	4169
▁선정	4167
광	4166
▁가진	4158
▁사회적	4148
▁대통령의	4143
▁만나	4140
▁비롯해	4138
복	4130
▁자체	4129
▁수립	4117
현지시간	4115
▁법률	4114
▁공급	4111
규	4108
▁온라인	4105
그는	4105
▁앞두고	4099
시장	4097
10	4097
처	4095
▁자유한국당	4094
▁대형	4091
▁제품을	4088
월부터	4088
▁검토	4087
▁도움이	4086
▁광주	4086
▁보도했다	4080
입	4075
▁여	4075
▁시험	4071
C	4070
▁안에	4065
▁독일	4062
▁에너지	4062
▁남자	4061
▁주변	4058
▁우리나라	4053
순	4046
색	4045
▁경험	4045
▁비해	4043
▁대신	4038
▁심	4036
▁선택	4033
통	4031
한다는	4028
▁하는데	4024
▁대회	4023
▁여자	4022
▁인터넷	4020
▁생각	4017
▁향후	4014
▁돼	4012
▁것에	4011
▁논란이	4004
▁꼭	4004
▁신규	4002
▁구청장이	4001
▁많다	3994
▁이유로	3988
▁눈	3988
▁지방	3986
▁등록	3981
▁방법	3980
▁이야기	3976
▁기관	3975
▁의원이	3971
▁요청	3970
▁아무	3968
▁사이	3967
으면	3965
▁나섰다	3963
▁선수	3961
▁이동	3959
대로	3955
▁스스로	3950
▁홍보	3950
▁공공	3949
▁2017	3946
▁기대	3945
▁받았다	3940
▁직원	3939
▁성공	3937
▁서비스를	3934
▁있는지	3932
브	3931
▁취업	3926
▁황	3925
▁유지	3920
▁당신	3920
▁자기	3916
▁분석	3914
▁결제	3914
▁해서	3905
▁나의	3904
경기도	3902
▁경	3900
▁현지	3895
▁가능하다	3885
▁심의	3884
변	3879
▁취소	3878
▁모습이	3877
업	3875
▁검사	3872
▁건설	3866
▁인기	3865
▁적이	3864
▁의원은	3860
▁민간	3858
▁내용	3854
▁수입	3854
▁예산의	3852
▁항상	3851
▁음악	3846
이고	3846
▁그룹	3845
목	3843
집	3840
▁기본	3836
등	3834
▁싶습니다	3827
▁제작	3827
▁필요하다	3826
▁승인	3821
본	3820
B	3815
▁성장	3810
▁지원할	3809
▁수업	3808
워	3807
환경	3806
▁체험	3806
▁설명	3804
▁쉽게	3803
키	3802
▁건물	3798
▁공식	3797
▁2015	3795
▁행사	3793
▁위반	3789
▁대한민국	3787
기술	3785
▁금융	3785
▁통한	3784
추	3777
▁인상	3777
하자	3774
▁어제	3771
▁건강	3763
▁통합	3761
▁기업이	3755
▁조정	3754
▁미국의	3754
했다는	3753
▁혁신	3753
져	3751
▁진	3750
▁방송	3748
▁인한	3745
▁윤	3741
▁위해서는	3740
▁부분	3739
평	3737
▁마지막	3736
▁규정	3735
절	3734
▁청년	3733
km	3730
한국	3730
▁여기	3729
▁찾아	3727
예	3727
▁화재	3724
▁사람은	3720
성이	3718
음	3717
주의	3705
▁의한	3701
▁구성	3694
후	3692
▁백	3690
▁만든	3687
기도	3686
▁지적했다	3683
▁구조	3680
들에게	3677
범	3673
▁실	3673
▁말을	3673
으로부터	3672
▁적	3670
▁그녀는	3669
▁정치	3668
S	3663
이라며	3663
▁C	3649
▁여전히	3649
▁보다	3648
개발	3646
▁해결	3644
▁피해자	3641
▁범위에서	3641
▁원하는	3640
▁제재	3640
▁프로그램	3637
▁되어	3635
▁현	3634
▁발전	3633
▁대상	3632
▁교통	3629
▁이러한	3629
▁채용	3615
▁연기	3608
하지만	3606
▁청소년	3603
▁삼	3602
로서	3597
▁집에	3595
▁작은	3590
판	3586
▁그래서	3586
▁활동을	3585
▁결국	3584
▁참석한	3583
▁않다	3576
탄	3571
▁콘텐츠	3568
▁인근	3567
버	3565
▁회장	3563
송	3561
▁타고	3558
▁없다는	3557
▁위원장이	3557
▁아이	3555
▁가치	3548
론	3544
▁베트남	3544
▁창업	3541
▁합의	3539
▁동시에	3536
서를	3532
▁우려가	3531
▁점검	3529
다고	3528
네요	3528
▁조례는	3527
▁공사	3525
▁스마트폰	3512
▁협의	3512
너	3510
▁조성	3507
개의	3507
▁감소	3503
▁미래	3502
▁특정	3501
▁의원	3500
▁중에	3498
▁주장했다	3498
▁고객	3498
▁한번	3495
▁반대	3490
▁60	3489
▁명이	3486
▁빨리	3486
▁이전	3483
▁입장을	3482
속	3482
▁김정은	3480
덕	3478
▁내용이	3477
채	3475
▁하기	3473
▁전환	3473
▁이하	3471
▁주는	3470
▁전화	3466
▁작성	3460
▁상황이	3460
▁곳이	3458
기관	3456
▁맞아	3455
병원	3455
▁같습니다	3454
▁지적이	3454
지도	3448
▁그렇게	3448
표	3448
정보	3446
▁사진을	3444
▁전시	3442
달	3440
긴	3440
▁특별한	3439
울	3438
▁수밖에	3436
▁공연	3431
북	3430
▁하나에	3430
▁영국	3428
▁도널드	3427
▁밤	3420
▁S	3419
▁보는	3418
▁관광	3416
▁협상	3414
▁대구	3412
▁제주	3408
▁이유는	3405
▁디자인	3403
▁때는	3403
도시	3401
▁선발	3400
망	3395
▁카드	3394
▁의지	3390
조사	3384
’(	3384
▁돈을	3383
▁이유	3372
▁인	3372
▁좋아	3371
▁의미	3370
기가	3364
▁따로	3363
▁한반도	3362
▁가수	3358
▁크다	3358
▁소재	3356
▁대출	3353
▁우려	3353
▁사실	3353
이며	3350
▁경쟁	3349
▁삼성전자	3346
말	3345
▁공간	3343
▁상태	3343
▁요즘	3338
▁원인	3336
▁설립	3327
별로	3325
▁않습니다	3324
출	3322
e	3320
▁달러	3319
▁않도록	3315
특히	3313
인지	3312
▁너는	3311
▁영업	3311
했으며	3310
▁사례	3310
▁사전	3309
▁분야	3302
▁방안을	3298
▁적용	3297
▁화	3297
▁해도	3296
봉	3294
▁절차	3293
▁앞	3288
됩니다	3286
나요	3285
▁거의	3284
▁변	3282
생활	3282
곡	3282
▁유럽	3282
▁나라	3281
▁광고	3280
들과	3278
▁애	3274
▁부과	3273
▁역사	3272
립	3270
▁열리는	3269
▁자주	3268
락	3266
▁월	3266
▁학습	3264
업체	3263
▁근무	3262
▁사실이	3262
▁공장	3260
안전	3255
▁공유	3254
▁도움	3251
▁넘는	3241
지를	3241
▁조직	3240
▁아주	3239
20	3238
▁속도	3237
▁육성	3231
▁승리	3230
▁효과가	3229
▁대표가	3228
▁비롯한	3228
▁실제로	3219
대표	3217
▁상승	3217
▁활용	3217
▁재정	3214
▁예상된다	3213
▁이것은	3212
▁최저임금	3212
▁민	3211
▁메시지	3210
▁경찰이	3207
▁것과	3206
▁없을	3204
했을	3203
▁주장	3203
▁차례	3202
▁미리	3201
▁우리의	3200
장이	3196
▁마련	3196
▁프로젝트	3192
▁보수	3191
▁밖에	3185
▁실시	3183
▁중앙	3182
▁평화	3179
장을	3179
∼	3178
▁우수	3177
날	3177
▁의사	3177
▁200	3177
▁관련된	3176
▁전망	3175
▁나온	3175
▁상대로	3174
▁인구	3169
▁요구	3169
줄	3168
▁제출	3164
▁있으면	3164
▁포	3156
▁제한	3154
찬	3152
했는데	3145
▁저녁	3143
t	3141
▁예	3140
▁금	3134
▁자연	3127
▁예방	3121
스트	3121
암	3119
▁예상	3115
▁내부	3112
▁들	3112
▁추천	3110
▁지도	3110
▁복지	3108
되며	3107
▁어려움	3104
▁싶어요	3104
▁머리	3101
▁위원장은	3097
▁서울시	3096
▁더불어민주당	3095
▁인도	3095
▁상황을	3093
성을	3092
왔	3091
▁포함한	3089
▁편	3086
▁중이다	3086
▁못하고	3085
▁도로	3082
▁자신	3082
▁나와	3079
애	3078
▁시민	3078
▁덧붙였다	3075
▁목표	3075
▁대표는	3074
▁되면	3071
▁교체	3070
작	3069
▁치	3067
▁업무를	3067
▁발표한	3066
품	3066
▁증가	3064
든	3061
▁수행	3059
▁연장	3058
▁등은	3057
▁결혼	3055
▁중심	3055
▁것이에요	3054
▁싶은	3052
▁사항은	3051
이날	3047
▁훈련	3047
▁언제	3046
▁점에서	3045
▁역	3045
▁감독	3044
▁씨	3043
편	3043
▁조치를	3042
▁아래	3041
▁병원	3039
▁개최	3038
자는	3037
▁2019	3035
투	3035
▁당신에게	3034
▁처음으로	3034
▁허	3034
▁운영에	3032
▁출신	3031
▁질	3029
사회	3027
령	3025
▁카	3022
▁피부	3022
결	3021
▁아니다	3020
▁사는	3019
▁반도체	3013
▁않는다	3011
▁싶어	3010
7%	3010
▁자금	3007
막	3007
팀	3006
하기도	2999
▁완화	2999
경찰	2998
올	2993
▁놓고	2993
협의회	2993
운동	2991
볼	2989
대상	2987
▁출시	2982
▁기회를	2978
▁자유	2978
▁삼성	2977
▁시절	2976
▁맞는	2975
이자	2975
▁단지	2974
▁프랑스	2974
s	2971
▁나서	2970
▁코	2969
▁높다	2968
▁사실상	2962
▁한국의	2962
▁플랫폼	2959
▁나에게	2956
T	2955
료	2954
▁장관	2953
▁비용	2951
서비스	2950
제가	2947
▁은행	2946
▁강원도	2944
▁했습니다	2942
릴	2942
량	2941
▁이들이	2941
이지만	2939
▁사장	2936
▁임기	2936
▁감독이	2935
▁새로	2935
▁하여야	2934
평가	2924
여명	2923
▁촬영	2920
숙	2919
▁넘	2918
▁선거	2916
▁자료	2915
▁소리	2914
▁입	2914
▁비판	2911
▁현대	2909
▁만드는	2909
졌다	2909
▁방침이다	2907
▁사용할	2905
▁설계	2905
분기	2903
▁접수	2903
▁최선	2897
▁순	2896
공사	2894
▁주로	2892
▁직무	2891
▁진출	2889
▁구축	2889
▁2014	2887
▁아니	2886
▁고민	2885
▁정확한	2885
▁되지	2884
▁낮은	2882
▁수도권	2882
▁할인	2881
▁사람을	2878
▁동의	2873
▁확산	2871
▁운영하는	2869
지구	2865
▁건가요	2863
▁어린이	2863
위를	2861
라도	2861
F	2860
▁호텔	2860
▁그대로	2860
▁K	2857
▁전부	2857
▁힘을	2856
▁연속	2854
▁개정	2854
▁대체	2853
▁만들	2850
링	2847
▁"“	2845
함을	2843
▁축구	2842
▁가격이	2841
▁도는	2839
▁불구하고	2837
▁안내	2837
▁그들은	2837
▁라	2836
▁준	2836
▁감	2834
▁유통	2833
▁예약	2833
M	2833
정책	2832
까	2832
▁잘못	2832
▁받지	2830
윤	2829
런	2823
▁드라마	2823
하고자	2821
▁없었다	2820
▁여부를	2819
▁별	2819
▁긴급	2818
한다고	2814
▁이해	2812
오히려	2809
▁권	2809
▁배송	2808
▁학생들이	2808
&	2808
▁경찰에	2807
의회	2806
▁담당	2806
▁중단	2804
▁대규모	2803
▁아동	2802
▁피해를	2802
▁사람들	2801
▁연결	2801
▁겁니다	2801
조원	2800
▁업계	2799
충	2799
▁종합	2799
▁본격적	2798
▁인식	2798
▁홍	2795
P	2792
기간	2790
나는	2787
냈	2786
▁분석이	2786
하려는	2785
▁택시	2785
▁시도	2785
▁대통령과	2784
▁정하는	2784
▁있을까요	2782
▁그들	2780
션	2779
▁이야기를	2778
▁했어요	2777
▁경기도는	2773
▁정상	2773
퍼	2771
▁사무	2769
▁강한	2768
곳	2767
서울	2762
총	2761
언	2759
▁치료	2756
▁창출	2755
▁영상	2755
원이	2754
▁마을	2753
▁전기	2752
30	2752
▁사랑	2751
▁방식으로	2745
▁직	2745
▁상대	2742
▁한국에서	2742
▁의해	2742
▁후보	2741
▁참여하는	2741
▁뿐	2739
▁보니	2738
▁참	2737
▁팔	2736
▁아시아	2735
▁병	2735
▁가입	2735
▁셈이	2734
▁없다고	2730
▁하락	2729
▁법인	2727
▁여기에	2726
권을	2722
대가	2716
▁좋아하는	2714
▁북한이	2713
축	2711
▁인간	2710
테	2710
▁허가	2709
▁후에	2708
▁변호사	2708
▁보이는	2704
▁책	2704
투자	2704
▁범죄	2703
▁소비	2700
▁지자체	2695
▁외부	2692
▁문제는	2690
▁축제	2689
▁규모의	2687
▁공부	2685
풍	2684
▁최초로	2684
▁노동	2682
▁앞에서	2681
▁설	2681
운영	2680
▁블록체인	2679
▁반드시	2679
▁공격	2675
K	2673
▁관계자	2673
▁열심히	2672
▁자료를	2670
공원	2666
▁사용하는	2664
▁상담	2661
▁사용자	2659
▁범위	2658
▁포함	2657
▁정부는	2656
▁500	2655
▁귀	2653
▁제출하여야	2652
극	2647
▁위험	2646
사가	2645
하겠습니다	2645
▁보여	2644
▁담긴	2642
도로	2641
▁가구	2640
액	2639
▁안에서	2635
▁소비자	2635
스타	2634
년까지	2634
▁위탁	2634
▁인력	2633
▁나오는	2629
▁금리	2629
알	2627
▁요리	2627
▁의료	2625
o	2625
금융	2625
▁남성	2624
▁나도	2618
▁측은	2618
하세요	2616
▁나를	2616
▁제일	2615
4%	2615
주년	2614
▁당신을	2614
▁걱정	2611
▁장비	2610
▁위해서	2609
▁갈등	2607
▁요	2606
▁판단	2605
▁곧	2604
회의	2604
우리	2600
▁이행	2598
▁폭행	2597
▁보안	2596
▁소득	2595
▁한국에	2595
▁전혀	2595
▁대응	2593
▁경험이	2593
▁교회	2593
▁술	2591
계획	2590
▁무슨	2590
▁시장이	2588
그룹	2588
농	2585
▁스포츠	2581
▁연락	2580
책	2577
▁가서	2575
▁없어요	2574
▁매일	2574
▁위원은	2570
▁못하는	2570
▁민주당	2570
▁쉽지	2568
▁확보	2567
국가	2567
교회	2566
▁G	2563
▁왔다	2563
▁마음을	2563
손	2562
대학	2561
▁식사	2560
▁연간	2559
▁것처럼	2559
가지	2558
▁국	2558
▁기획	2557
▁70	2555
▁때까지	2555
▁빠르게	2554
대학교	2553
뿐	2552
▁이상이	2551
▁가정	2551
▁데이터	2550
업무	2548
▁제안	2548
탈	2546
▁미국이	2546
▁노인	2545
▁경쟁력	2545
▁잠	2543
▁도전	2542
▁전달	2541
서울특별시	2540
▁통신	2539
씩	2539
▁유명	2539
년이	2536
▁딸	2535
▁않으면	2535
갈	2534
세대	2532
▁300	2532
은행	2531
▁설명이	2531
▁성적	2530
▁지속적으로	2529
▁물건	2525
▁지금까지	2524
시스템	2524
▁낸	2524
돌	2523
▁눈길	2523
▁이내에	2521
▁전통	2520
▁길	2520
마을	2520
▁협조	2519
▁되	2518
▁정상회담	2517
▁밝힌	2517
▁바탕으로	2517
메	2516
▁북한의	2516
▁바란다	2516
주는	2515
커	2514
협	2512
▁암	2510
▁위치한	2510
▁생각이	2509
▁상황	2508
▁롯데	2505
▁SK	2504
▁모델	2504
만명	2504
▁지역의	2502
▁있었던	2502
▁지원하는	2501
▁임금	2501
▁주제로	2498
▁실적	2498
자의	2498
분의	2496
▁기업의	2496
▁장소	2495
L	2494
발전	2493
▁원내대표	2492
▁찾는	2490
▁전날	2487
였던	2487
지방	2487
▁적극적으로	2486
▁오래	2485
보다는	2484
츠	2483
▁경북	2482
▁만약	2482
▁기억	2481
▁사고가	2478
체계	2478
년에	2477
▁기준으로	2477
지난	2476
하겠다는	2474
죠	2474
회사	2473
▁레	2472
시는	2471
▁2013	2469
▁보였다	2468
으로서	2467
▁있지	2467
왕	2466
▁맞춰	2465
▁청	2462
▁넘어	2461
▁프로그램을	2460
▁부족	2460
▁회복	2458
▁대전	2458
주택	2457
▁회장이	2456
함에	2456
▁아침	2455
기에	2455
▁앞에	2452
▁시대	2450
▁커피	2449
▁혐의를	2444
▁제공하는	2443
향	2443
/	2440
▁보장	2440
▁추	2439
▁둘	2438
▁그냥	2437
▁지속	2437
▁예술	2436
골	2435
▁있다면	2433
▁순간	2431
▁아버지	2430
▁경남	2430
▁전문가들	2429
▁유치원	2429
담	2429
▁전해졌다	2428
▁수정	2424
되기	2423
▁임명	2423
▁교육을	2422
독	2422
▁명의	2420
▁맞	2419
행정	2418
▁노조	2417
▁자녀	2413
연구	2411
▁작품	2406
학년	2406
▁언론	2404
했으나	2403
명으로	2398
▁사태	2398
났	2398
▁최대한	2397
슨	2397
▁수요	2395
▁의하여	2395
50	2387
플	2386
▁지지	2384
▁참가	2383
시에	2383
▁사이에	2380
▁겸	2380
▁표	2380
▁비가	2379
▁확정	2379
복지	2377
▁없고	2376
월에	2374
▁본다	2372
▁통과	2369
▁빠른	2368
▁북미	2367
거리	2367
렸	2366
▁운전	2365
▁최고의	2365
▁학생들	2362
▁분위기	2360
▁못했다	2360
▁발견	2358
▁차이가	2357
억원을	2353
▁모바일	2353
현재	2353
자를	2352
▁얼마	2352
▁교사	2351
▁위원회	2350
▁등에서	2349
▁열고	2349
▁보도	2349
▁좋다	2346
▁먹고	2345
필	2345
▁관세	2344
홍	2344
▁말고	2343
▁장기	2341
하려고	2341
훈	2340
▁돈	2340
다면	2337
▁길이	2337
▁장관이	2336
활동	2333
▁직업	2333
15	2333
렌	2332
▁D	2331
▁지역에	2330
겠다	2330
▁의견	2330
▁기술을	2330
글	2329
▁LG	2329
▁방문해	2329
N	2328
▁물품	2327
버스	2327
▁모여	2326
▁컴퓨터	2326
▁눈에	2324
함	2321
▁징계	2321
▁총리	2320
세요	2319
▁시장에서	2315
새	2314
▁핵	2314
▁배출	2305
▁혼자	2304
▁유치	2304
▁사업에	2303
▁전자	2303
▁형태	2298
▁충분히	2297
▁개혁	2296
▁예정	2294
▁기초	2291
▁의장	2291
12	2289
▁얼굴	2289
▁기회가	2289
▁위기	2289
▁위원회의	2288
▁광	2287
▁정비	2286
▁무역	2285
▁토	2285
▁했지만	2285
처리	2284
▁조치	2284
▁선물	2282
▁규정함을	2282
▁천	2282
▁장은	2282
협회	2277
▁곳	2276
▁운행	2273
▁체결	2273
악	2273
▁논란	2272
▁많아	2270
▁정책을	2268
▁이용할	2268
▁시행령	2267
▁원활	2266
겠습니다	2265
▁간사	2264
구역	2260
호에	2257
▁부서	2255
▁종	2253
▁통	2253
▁한국당	2253
▁답변	2253
▁참석했다	2250
▁나선	2250
▁계산	2249
었습니다	2247
제를	2246
같이	2246
▁디지털	2244
▁가야	2243
▁목	2242
▁있습니까	2241
보험	2241
▁이것	2239
▁주가	2238
▁신경	2237
▁미국과	2236
▁때문입니다	2236
니까	2235
▁친	2235
▁있었습니다	2234
▁주민들	2234
인가요	2233
▁하다	2230
▁참여한	2229
▁구청장에게	2227
▁몸	2227
있는	2227
▁통일	2226
▁아니냐	2226
▁위치	2225
13	2225
국제	2223
▁위촉	2223
▁수원	2222
▁존재	2222
율	2221
▁소개	2221
▁전용	2220
▁사망	2218
▁열어	2218
▁이용해	2218
▁평가를	2217
▁과정을	2217
기금	2217
▁키	2216
▁검찰이	2216
▁사건이	2216
▁나올	2215
▁꽃	2215
격	2215
▁부위원장	2214
▁훨씬	2214
▁듯	2212
▁이내	2208
▁사업이	2207
▁별표	2206
▁기금	2205
염	2204
▁즉시	2204
▁대해서	2202
8%	2202
▁생각합니다	2200
익	2200
▁신뢰	2199
▁세대	2199
▁화제	2199
▁대기	2198
▁상황이다	2197
▁만들기	2196
하겠다	2195
▁전력	2195
▁참석해	2195
▁국방부	2194
▁입주	2192
▁지적	2190
▁주장이	2189
▁구속	2189
▁완료	2187
▁건축	2187
▁이달	2187
▁SNS	2186
▁이곳	2185
▁말이	2184
▁입장	2183
▁일부를	2183
▁사건을	2183
▁크기	2182
▁등과	2182
시키는	2180
▁엄마	2180
▁하겠습니다	2179
▁보상	2179
▁마음이	2178
▁의견이	2177
▁조기	2175
▁보이고	2174
▁즐길	2174
▁매장	2173
▁정리	2172
▁나오고	2171
▁이용자	2170
▁여야	2170
▁폐지	2167
▁속에서	2167
H	2167
삼	2166
▁따른다	2165
▁마무리	2165
▁발굴	2163
▁늘	2162
수가	2160
▁들어가	2160
▁기대하고	2156
▁전남	2152
▁여름	2152
▁교류	2151
▁내에	2151
▁토지	2150
▁제조	2150
▁M	2149
▁소통	2149
▁처벌	2149
▁판	2147
월까지	2146
▁속에	2145
주세요	2145
▁징수	2145
▁가능성	2144
▁맛	2144
▁매출	2142
▁있	2140
▁환자	2140
▁강남구	2139
▁TV	2137
협력	2137
시부터	2137
▁금지	2137
y	2136
효	2136
▁근거	2136
▁효과를	2135
렸다	2133
▁관하여	2132
▁표현	2132
씨의	2131
▁기대된다	2131
▁감정	2131
해온	2131
싱	2131
▁나머지	2130
다만	2130
가구	2129
▁이와	2126
사진	2123
▁부탁드립니다	2122
▁집행	2122
려고	2120
▁수사를	2120
▁인증	2119
▁거리	2119
11	2117
▁수수료	2115
▁책을	2114
▁날씨	2114
▁행복	2114
▁이름을	2112
▁내에서	2112
▁가고	2112
같은	2112
▁극	2109
▁다소	2109
▁질문	2109
▁청구	2108
라며	2107
▁발생하는	2107
중국	2107
▁하여	2104
▁본인	2104
촌	2103
▁기자	2103
이어	2103
이었던	2103
▁대법원	2102
▁망	2102
건설	2101
▁시작했다	2101
움	2101
왔다	2099
▁석	2099
▁바른미래당	2098
▁처음이다	2098
▁2012	2097
▁때마다	2097
▁많	2096
▁전략	2094
▁들고	2094
▁먹는	2094
▁젊은	2092
▁했던	2089
▁대로	2087
▁수요가	2086
았다	2083
▁많았다	2083
▁회담	2083
이라도	2082
빈	2080
취	2080
▁스마트	2080
▁드러났다	2079
▁위원장	2077
▁진술	2077
▁피해가	2076
▁혐의	2076
지가	2076
▁강남	2075
▁확장	2075
단지	2075
▁평양	2075
아이	2074
친	2074
▁달라	2074
황	2073
▁않아요	2073
에게는	2072
▁발생했다	2072
됐고	2070
▁자전거	2069
균	2067
▁벌	2067
시켜	2066
▁주고	2066
▁부인	2066
▁인수	2066
▁고려	2065
▁근로자	2062
▁가까운	2062
▁여기서	2061
▁현장에서	2060
▁의심	2060
상을	2060
겼	2060
▁진입	2059
▁집단	2059
▁조선	2056
감독	2055
▁재난	2055
▁마케팅	2054
▁방안	2054
▁식	2054
▁꾸준히	2052
▁커지고	2051
▁대책	2050
▁암호화폐	2050
▁열린다	2049
▁디	2049
▁싱가포르	2048
▁사과	2048
▁말씀	2047
점을	2047
▁하나요	2046
▁사람들은	2045
▁통화	2045
▁공공기관	2044
▁갑자기	2044
자금	2044
팅	2043
▁끝난	2042
V	2039
▁기반	2039
으나	2039
시킬	2039
▁집에서	2038
▁주목	2038
▁있어야	2037
▁따	2036
▁표시	2036
▁종료	2035
▁주의	2035
▁실현	2034
함으로써	2033
▁시장에	2033
▁보관	2032
▁이벤트	2032
▁보험	2031
임을	2030
착	2030
▁밀	2030
만큼	2030
▁악화	2029
▁찾	2029
▁도착	2026
▁비행기	2025
▁기능	2025
▁위에	2023
▁삶의	2023
W	2023
▁의미가	2023
▁버	2022
▁저에게	2022
▁가능	2022
▁비용을	2021
▁확인됐다	2021
신청	2020
▁메일	2020
▁시작한	2020
▁부문	2019
▁참석	2019
▁자산	2019
▁정한	2019
▁계기	2019
▁남은	2018
▁지금은	2017
▁사항	2017
▁막	2016
▁비슷한	2016
니다	2016
▁자체가	2016
▁민원	2016
▁참여해	2015
보호	2014
▁길을	2014
▁직후	2013
▁<	2011
▁허용	2010
▁이사	2010
▁상대적으로	2009
p	2009
19	2008
▁했는데	2007
g	2007
▁보기	2006
만원을	2006
여성	2005
▁출장	2005
R	2005
▁수집	2004
▁공모	2003
▁뭐	2003
▁교	2002
분쯤	2002
자원	2001
▁일상	2001
▁발급	2001
▁재산	2000
▁진행된다	2000
▁기록했다	2000
▁확인할	1998
▁지급할	1998
▁되나요	1997
▁진행된	1995
▁일단	1994
름	1992
14	1990
▁동물	1989
▁행동	1989
▁알려	1989
▁패	1988
대를	1987
▁받아야	1985
▁센터	1985
▁자문	1984
▁부족한	1983
▁수용	1982
▁무료	1981
▁중국이	1981
완	1980
▁이어질	1979
▁아이들	1979
년대	1978
▁포장	1977
▁프로	1977
▁부분이	1976
사를	1976
기준	1975
관련	1975
▁낮	1975
▁품질	1975
▁소송	1975
최근	1974
▁제주도	1974
▁검증	1973
제도	1973
걸	1971
▁김씨	1971
▁인권	1970
대회	1969
합	1969
▁추진하는	1968
▁형성	1964
개국	1964
▁작가	1963
▁행사에	1961
기구	1961
▁파일	1961
▁아름다운	1960
▁주말	1960
▁그녀	1960
▁기능을	1959
▁생	1959
갑	1959
▁있을지	1958
▁기업들	1958
올해	1958
구조	1957
▁인정	1955
6%	1954
▁그러나	1953
거래	1953
▁반면	1952
▁구성된	1951
▁농업	1951
률	1949
▁씨가	1948
▁촉진	1948
▁발행	1948
됐던	1948
정부	1948
▁현실	1947
▁어린이집	1946
▁전면	1945
▁죽	1945
▁목사	1944
▁구체적인	1944
▁밥	1943
▁기계	1943
▁부품	1943
▁우승	1942
▁뜻을	1942
이기	1940
▁빈	1939
▁상당	1939
▁개편	1938
▁운용	1937
▁반복	1937
다른	1937
▁적은	1936
▁대변인	1935
▁필요하다는	1935
▁분양	1934
▁홈페이지	1934
▁원장	1934
▁갖춘	1934
없이	1933
▁카페	1933
▁의혹이	1931
▁생각한다	1927
자로	1926
▁하면서	1926
▁나무	1924
해주세요	1922
▁시군	1922
▁T	1922
▁절반	1921
낸	1920
▁아들	1918
감사	1917
▁좋지	1917
▁남아	1917
▁예측	1916
▁노력하여야	1916
▁완전히	1916
▁대표팀	1915
▁야	1914
▁보낸	1914
▁운영을	1914
▁관련한	1914
비를	1912
▁부담이	1912
▁향해	1911
▁기부	1910
뿐만	1908
▁장관은	1908
9%	1907
▁나선다	1907
돈	1906
력을	1906
공단	1906
▁동영상	1906
▁듣고	1905
▁철도	1904
▁보통	1903
▁지하철	1903
▁대기업	1901
▁불러	1900
▁외국	1900
겠다는	1900
케	1898
▁납부	1898
▁먹을	1898
학과	1898
세계	1897
>	1896
▁희망	1895
분야	1895
▁답	1895
▁될까요	1894
▁정한다	1894
했기	1891
▁후보자	1889
▁지구	1889
▁수준	1889
련	1887
2%	1886
▁해제	1886
제품	1886
▁선언	1886
▁사상	1885
체험	1885
▁이번이	1883
하되	1883
▁어렵다	1883
▁운전자	1882
▁비상	1882
페	1882
▁곳에	1882
▁기대한다	1881
미국	1879
스러운	1879
▁아내	1879
성과	1877
▁그때	1877
▁담은	1876
▁모집	1876
혜	1876
▁투표	1876
▁인천광역시	1875
▁이유가	1875
▁담	1874
E	1873
▁발생할	1873
▁제품이	1872
▁중요하다	1871
지고	1871
▁특수	1870
▁돌	1869
▁양국	1869
▁P	1868
기는	1868
술	1868
▁탈	1868
▁알게	1868
▁우수한	1868
▁압박	1866
3%	1866
▁참여할	1866
▁왕	1865
▁신설	1862
▁생각을	1862
▁삶을	1861
조차	1861
▁둔	1859
▁독립	1858
달러	1856
▁발표했다	1855
▁모두가	1855
▁급	1854
▁설정	1854
▁교환	1853
▁심의를	1853
5%	1853
▁전까지	1853
▁80	1853
:	1853
▁힘든	1852
검사	1851
▁인프라	1850
▁친환경	1849
력이	1848
▁기타	1847
한다면	1847
▁중요	1846
▁둘러	1846
▁잔	1846
▁용	1846
▁연출	1844
▁대북	1844
▁선수들이	1844
▁보유한	1844
▁전북	1843
▁환	1843
기로	1843
▁협약	1842
▁식품	1842
▁노동자	1841
▁후반	1840
▁노래	1839
▁복	1839
▁유명한	1839
▁가을	1839
▁커	1838
X	1837
적이고	1836
▁수술	1836
옥	1835
동안	1833
▁제시	1832
▁풍	1832
밀	1831
압	1831
▁판결	1830
블	1830
▁샘플	1828
하겠다고	1828
서는	1828
▁가능성을	1827
▁강원	1826
칠	1825
▁골	1825
▁회	1825
16	1825
택	1825
▁주차	1824
▁겪고	1824
▁상황에	1823
▁취지	1822
▁과학	1821
▁측정	1821
른	1821
U	1820
▁저희가	1820
O	1820
▁누가	1819
▁재판	1818
원은	1818
▁조건	1818
▁법안	1817
사고	1816
1%	1816
▁제외한	1815
▁지방자치단체	1815
쳐	1814
▁하게	1813
▁새롭게	1813
▁회원	1812
▁불이	1810
▁당장	1810
▁베	1809
▁최소	1809
▁의결	1808
▁직장	1808
▁청소	1808
▁캐릭터	1808
▁배치	1806
해도	1806
▁연구원	1805
▁여행을	1805
▁도서관	1805
▁기사	1804
▁F	1804
▁제품은	1804
▁증거	1803
▁가까이	1802
족	1802
▁관	1801
a	1801
▁쓸	1800
▁사전에	1799
공무원	1798
▁주민들이	1797
▁비중이	1797
하였습니다	1797
▁걸쳐	1797
▁풀	1796
▁살고	1795
쿠	1795
▁입고	1794
▁드	1794
하신	1794
▁합	1794
▁내려	1793
▁시장의	1792
▁‘2018	1791
▁누구나	1791
되었습니다	1790
▁그를	1789
▁국회의원	1789
▁일찍	1788
▁초기	1788
▁공개된	1788
▁포함해	1788
납	1787
▁응원	1787
▁메	1786
▁주식	1785
▁뉴스	1784
▁반환	1784
시험	1782
▁자는	1782
존	1781
▁보완	1781
▁사업자	1781
▁만난	1781
개를	1780
▁출석	1780
리그	1780
▁되었습니다	1780
▁겨울	1778
▁기도	1777
▁국립	1774
▁자원	1774
▁글	1774
패	1773
▁끝에	1773
경기도는	1772
▁선수들	1771
▁회계	1771
판매	1771
베	1769
▁높이	1769
▁국내외	1767
스가	1767
받은	1767
머	1767
▁강력한	1766
위원장	1766
▁지시	1766
▁E	1765
벌	1765
0%	1765
본부	1764
▁유엔	1764
▁변화가	1763
▁특징이다	1763
▁수리	1761
이어서	1761
▁포함된	1761
▁절대	1760
▁인정하는	1758
한테	1757
▁폼페이오	1756
▁태풍	1756
예요	1755
▁선고	1755
▁상반기	1754
▁연계	1754
싼	1753
▁이들의	1753
▁기자회견	1752
▁그래도	1751
▁부정적	1751
▁활용해	1750
소득	1749
▁현금	1749
▁태	1747
▁역량	1746
행위	1745
i	1745
▁힘	1745
▁못해	1745
▁0	1744
▁누구	1744
▁만날	1743
▁만한	1742
▁종목	1742
냐	1742
▁것인지	1741
▁구간	1741
개소	1741
▁당부했다	1740
▁투	1739
▁맞춤형	1739
▁충격	1739
님	1738
▁가동	1738
▁건립	1738
▁상호	1737
▁시간에	1737
▁평	1737
▁법원	1736
됐지만	1735
조정	1735
▁네트워크	1734
▁고려해	1734
▁나갈	1734
록	1733
방송	1733
▁오랜	1733
▁무엇보다	1732
▁안건	1732
▁외에	1731
조례	1731
▁좋을	1731
▁한편	1730
▁수상	1730
▁지역에서	1729
▁주소	1729
▁이건	1728
딩	1728
▁그러면	1727
▁울	1727
er	1725
▁정신	1725
▁교육감	1724
▁없	1724
▁구분	1723
수사	1723
지에	1723
▁접	1722
▁수탁자	1721
▁먹	1721
▁쓴	1720
▁오픈	1720
▁행사를	1720
척	1719
되었다	1719
▁심각한	1719
▁난민	1717
리는	1717
▁폐	1714
▁범행	1711
▁글을	1711
▁지역사회	1708
▁AI	1707
명과	1707
▁면접	1707
▁만들고	1706
항제	1706
▁선임	1705
▁창	1705
mm	1703
▁문의	1703
▁일은	1703
▁정치적	1702
단계	1702
라면	1702
▁보조	1702
청소년	1701
▁R	1701
▁발송	1700
▁분석했다	1699
▁면	1699
▁기념	1698
전자	1698
▁대해서도	1698
▁주거	1698
▁문제로	1697
▁공정	1695
식을	1695
▁문건	1695
▁통제	1694
▁보급	1692
▁경기를	1692
▁확인하고	1691
▁출발	1691
▁임대	1691
▁통보	1690
▁분야에서	1687
▁효율적인	1687
▁실무	1687
▁재개	1687
▁식당	1687
▁성인	1686
재단	1685
▁스타트업	1685
가족	1684
▁시작된	1684
하려면	1684
▁루	1683
여개	1683
▁단속	1683
▁지원에	1683
▁양성	1682
▁김문수	1682
▁그들이	1681
▁울산	1680
▁방지	1680
▁월드컵	1679
「	1678
▁무엇을	1678
▁항공	1678
▁여부	1677
▁미만	1677
▁현상	1677
▁실험	1677
▁서류	1676
만이	1676
▁재판부	1675
▁적극적인	1675
▁공항	1675
▁실천	1675
▁사례가	1675
40	1675
▁상장	1674
▁주목된다	1672
▁아이들이	1672
경영	1672
▁시기	1672
▁통계	1670
견	1670
누	1670
되	1669
▁저의	1668
▁매각	1668
▁사유	1668
▁대상이	1667
▁차이	1666
▁2011	1666
▁섬	1666
▁터	1664
들에	1664
당시	1664
▁단계	1662
▁올라	1662
▁우리에게	1661
▁점점	1660
▁감독은	1658
▁세부	1657
▁경제적	1656
▁도심	1656
▁이사장	1656
▁시각	1656
▁안정	1656
▁초과	1656
▁알려진	1656
▁처분	1656
슬	1655
▁고등학교	1655
▁내고	1654
▁포인트	1653
▁방법으로	1653
전문	1653
▁지출	1652
상담	1652
▁클럽	1652
▁토론	1651
▁지하	1651
▁긴	1651
▁요금	1651
▁아이디어	1650
▁개별	1650
▁여의도	1649
▁그것이	1649
▁유출	1649
▁번호	1649
▁단축	1649
▁진짜	1648
▁후원	1648
축제	1648
자들이	1647
▁고객이	1647
섭	1647
▁못할	1646
▁입학	1646
▁현황	1646
▁약속	1645
▁위로	1645
하다는	1644
▁가능합니다	1643
카드	1643
▁2020	1643
▁진단	1642
▁제거	1642
때	1642
일간	1640
지난해	1640
▁기업들이	1639
▁활약	1639
▁출산	1639
▁스타	1638
▁과정	1638
▁꿈	1638
▁앱	1638
밖에	1638
▁혜택을	1637
▁반발	1637
▁다수	1637
▁비밀	1637
▁개입	1637
국장	1636
코리아	1636
▁치료를	1636
연구소	1636
▁선수가	1636
▁가방	1635
▁2010	1635
하였다	1635
▁대폭	1634
자에게	1634
d	1634
사업을	1634
헌	1633
위원회는	1633
▁나이	1633
▁와서	1633
통신	1633
▁멤버	1632
▁탄	1632
▁차원에서	1631
▁종류	1630
▁가면	1629
▁주제	1629
17	1628
들도	1628
업계	1627
▁출연	1626
▁테스트	1626
▁뇌	1626
▁실시한	1624
▁향상	1624
▁금액	1624
▁쓰	1624
식품	1623
▁어디	1621
▁땅	1621
▁학교에	1620
▁늘고	1619
▁오른	1619
국민	1618
법인	1618
▁공개했다	1618
▁부상	1617
▁공원	1617
▁수능	1616
▁질문에	1616
▁둔화	1616
습니까	1615
▁그린	1615
▁실행	1614
▁실패	1614
▁2000	1612
명은	1612
▁옷	1611
▁장면	1610
▁문서	1610
▁점도	1610
▁완전	1609
▁메뉴	1609
▁페이스북	1608
▁같은데	1608
▁새벽	1607
▁경기도와	1606
노동	1606
혈	1606
▁영상을	1606
▁증시	1602
▁일대	1602
위에	1602
▁알아	1601
▁전년	1601
▁시민들이	1601
▁편성	1600
▁카메라	1600
연구원	1600
▁시작으로	1598
▁제기	1598
호서식의	1598
▁35	1598
공장	1597
▁한국인	1597
▁감사합니다	1597
▁찬성	1597
▁사유가	1595
호서식에	1594
▁차별	1594
▁부부	1594
▁H	1593
▁어머니	1591
▁개방	1590
▁수당	1590
례	1589
▁조작	1589
▁경기가	1588
▁당신과	1587
▁쓰는	1587
▁악	1587
위원회의	1586
관계	1585
▁부모	1585
사의	1584
▁평소	1584
▁남편	1584
곤	1583
▁위협	1583
▁반영	1582
▁예정입니다	1582
▁가게	1582
▁봐	1582
심사	1581
▁클	1580
▁환불	1580
▁연습	1579
▁비즈니스	1579
▁지식	1579
자동차	1579
▁할머니	1579
비가	1579
▁결론	1577
쇼	1576
▁개의	1576
▁곳은	1576
▁목적	1575
▁마치	1575
▁국내에서	1575
사건	1574
가격	1574
시까지	1573
▁요구하는	1573
▁분리	1573
▁해석	1572
됨에	1571
▁미치는	1569
▁인기가	1569
▁싶다	1568
▁싶은데	1568
▁위원장의	1568
(1	1567
▁취임	1567
▁복귀	1567
▁이어지고	1567
▁응	1565
▁간의	1565
▁소방	1564
으	1564
▁정착	1564
▁전망된다	1563
▁하되	1563
시민	1563
저는	1562
국내	1561
▁대선	1561
쯤	1561
▁잇따	1560
▁형	1559
▁인터뷰	1559
▁투입	1558
▁전망이	1557
객	1557
▁있으니	1557
▁그간	1557
▁제출한	1555
전략	1555
게임	1554
위원	1554
호의	1553
▁활용한	1553
▁예비	1552
몰	1550
춘	1550
최	1550
장애인	1549
▁혹은	1549
▁주차장	1549
▁사용료	1548
▁축하	1548
생산	1548
▁사기	1547
▁격	1544
▁아니면	1544
회장	1543
▁그런데	1543
되도록	1542
▁굉장히	1542
▁의원의	1542
응	1541
▁이란	1541
▁알려져	1541
▁붙	1541
▁기회	1540
▁자격	1540
▁후보가	1540
▁로봇	1539
▁깊은	1539
▁진료	1538
▁국토교통부	1537
▁역대	1537
호선	1537
▁계기로	1537
▁쪽	1537
돼야	1537
▁장애	1537
▁언어	1536
▁국회에서	1536
▁눈이	1536
개혁	1535
▁요소	1535
▁보고서	1534
▁숨진	1534
▁생각해	1533
▁없어서	1533
▁신문	1532
▁곳에서	1532
▁이유를	1531
▁외교	1531
이면	1530
▁구속영장	1530
▁교육부	1529
대의	1529
▁트	1529
▁설치된	1529
▁임원	1529
검	1529
▁문제에	1528
▁앞둔	1527
진다	1527
▁효과	1527
▁힘이	1527
▁받	1527
▁사업의	1527
▁미디어	1527
지원센터	1526
선수	1525
▁떠나	1525
▁토대로	1524
고용	1524
엘	1524
▁향	1524
▁추석	1524
▁비중	1524
▁꿈을	1524
▁서류를	1523
▁이메일	1522
금을	1522
혁신	1521
▁의회	1521
▁계	1521
욱	1520
년도	1520
▁끝	1520
24	1519
▁축소	1519
u	1519
▁팀이	1519
▁사업장	1518
▁10%	1518
▁누	1517
량이	1517
▁백악관	1517
▁소상공인	1517
▁본사	1517
가요	1517
▁차단	1516
▁입을	1515
▁풀이된다	1515
수를	1515
▁지나	1515
▁전쟁	1515
▁수비	1514
▁절	1514
▁뉴욕	1514
▁이끄는	1513
▁정원	1513
▁완성	1512
하려	1512
▁코스	1511
▁법적	1511
▁보유	1510
대책	1510
▁지연	1510
▁대만	1509
▁마음	1509
▁직원들	1508
▁나가	1508
▁성폭력	1507
▁봄	1506
▁건축물	1506
▁행	1506
▁스타일	1505
▁들었다	1505
▁1000	1504
겨	1504
▁도민	1503
오늘	1502
진흥	1502
▁당일	1502
▁철	1501
▁규칙	1501
▁안전한	1501
18	1501
▁부회장	1500
자료	1499
▁시선	1499
계약	1498
▁전공	1498
감을	1498
▁실시한다	1497
훈련	1497
▁독	1497
▁밖의	1497
▁보이지	1497
앤	1497
차례	1496
폐	1496
▁여성이	1496
일에는	1496
▁했다고	1495
▁직원이	1495
른바	1495
▁뜻	1495
▁생각하는	1495
▁경우에	1495
점이	1495
▁집회	1494
▁정부와	1494
▁권한	1493
예산	1493
▁하늘	1492
▁결정을	1492
▁자리에	1492
▁대상자	1492
▁매체	1491
▁보존	1490
▁노사	1490
나무	1490
▁올랐다	1489
▁생각해요	1489
▁티	1488
▁펀드	1488
▁임시	1488
▁파악	1487
▁사람에게	1487
▁경기도의	1487
▁달성	1487
▁노원구	1487
세를	1487
▁경기에서	1486
▁구입	1486
▁인도네시아	1486
▁품목	1486
l	1486
▁휘	1485
▁방법이	1485
▁과제	1484
▁살아	1484
폭	1484
▁노선	1483
▁내린	1482
▁접근	1482
치료	1482
슈	1482
▁당초	1481
▁졸업	1481
▁어린	1481
▁투자자	1481
건강	1481
▁정권	1480
▁원을	1479
▁배달	1479
▁생태계	1479
▁관내	1479
상품	1478
▁법령	1477
▁잡	1477
사는	1477
신문	1476
▁폭염	1476
풀	1476
▁IT	1474
▁형사	1473
▁군사	1473
▁시책	1472
낼	1472
▁되었다	1472
▁제외	1471
▁출전	1470
▁비용이	1470
▁초청	1469
차량	1467
사항	1466
▁입은	1466
행사	1465
▁올린	1465
▁알려주세요	1464
조직	1464
▁특성	1464
▁지원한다	1463
▁높아	1462
▁20%	1462
▁결과에	1462
시행	1462
▁이용하는	1461
▁바에	1461
해주는	1461
▁나중에	1461
▁부정	1460
▁느낄	1459
▁승	1459
▁도와	1459
▁상처	1459
주가	1459
▁150	1457
▁있음을	1456
▁늘어난	1455
▁심리	1455
▁호주	1455
▁업종	1455
▁수많은	1455
▁관련하여	1454
▁브	1454
▁마약	1453
▁이뤄질	1453
▁향한	1453
▁수학	1453
▁남성이	1453
▁받기	1453
▁자세	1452
▁이탈리아	1452
▁인하	1452
랜드	1452
궁	1451
사랑	1450
▁'	1450
▁바람	1450
▁산하	1450
60	1449
▁화장품	1449
▁회장은	1449
▁증가한	1448
▁처	1448
▁개설	1447
수록	1447
▁발언	1447
▁이전에	1446
▁수준의	1446
시킨	1445
▁숙	1444
도지사는	1444
▁거듭	1444
▁개발한	1444
해왔다	1444
▁써	1443
▁잡고	1443
▁곡	1442
▁낙	1442
▁추진하고	1442
▁목표로	1442
▁이미지	1442
혁	1442
k	1441
▁충북	1441
▁체계	1441
젠	1441
▁최초	1440
▁합동	1440
틀	1439
▁경고	1439
▁않게	1439
▁쇼핑	1439
으니	1438
▁돌아가	1437
500	1437
▁날짜	1436
▁2009	1436
톤	1436
▁차관	1436
하다고	1435
위가	1435
▁사이즈	1435
▁대하여는	1435
▁채택	1435
▁좋겠다	1435
▁행복한	1434
▁교수가	1434
▁이용한	1434
▁편지	1433
▁파견	1433
▁충남	1432
▁범	1432
▁폭력	1432
▁둔다	1432
떨	1431
▁방북	1431
▁캐나다	1430
▁번역	1430
▁취	1429
내가	1429
▁어려워	1428
▁부진	1428
▁필요합니다	1428
잡	1427
었던	1427
▁바이오	1427
▁학부모	1427
도지사	1426
개사	1426
▁폐기	1426
▁참고	1426
▁홍콩	1426
▁학생이	1425
▁낼	1425
예술	1425
비용	1424
▁비율이	1424
▁진행되는	1424
25	1423
▁경비	1422
▁있으나	1422
▁대표적인	1421
▁곳으로	1421
▁표준	1421
▁봤다	1420
더라도	1420
▁징역	1420
▁떠	1419
▁원래	1419
▁차원	1419
▁강하게	1419
▁때도	1419
▁실내	1419
하시면	1419
▁확인해	1419
혼	1419
▁떨어진	1418
▁자리에서	1418
▁지속적인	1418
▁가득	1417
▁돈이	1417
▁정기	1416
▁떨어져	1416
▁받게	1416
▁언급	1415
▁진행됐다	1415
마저	1415
건의	1415
혔	1414
▁혼	1414
80	1414
힌	1414
▁정당	1412
▁50%	1412
개선	1411
al	1411
▁달하는	1411
▁콘서트	1410
귀	1410
▁초등학교	1410
▁올려	1409
혀	1409
▁검찰에	1409
▁페	1408
▁운영할	1408
▁한화	1408
▁측이	1408
▁인공지능	1408
일본	1407
시면	1407
▁구현	1406
▁추진할	1406
▁제조업	1405
겠다고	1405
▁체제	1405
화를	1404
▁채널	1404
▁해양	1404
▁별로	1403
단이	1403
관광	1403
공항	1402
평화	1402
▁높아지고	1402
측	1402
▁골프	1401
등급	1401
▁폐기물	1400
▁작년	1399
▁훼손	1398
▁서명	1398
▁강사	1398
율이	1398
▁멕시코	1398
▁쌀	1398
었어요	1397
맨	1395
▁부지	1395
개가	1395
▁권력	1394
장치	1394
에만	1394
▁거주	1393
▁찾고	1392
or	1392
▁검색	1392
▁일자리를	1391
▁여러분	1391
▁수석	1390
▁않았습니다	1390
▁효율적으로	1390
▁잠시	1390
듯	1389
습	1389
▁질병	1389
▁마음에	1388
▁영향으로	1388
▁KT	1388
▁총장	1387
▁이름	1387
▁자동	1387
방법	1387
률이	1386
▁진로	1386
씨를	1386
▁벗어나	1386
▁농가	1386
됐으며	1385
▁의도	1385
▁진실	1385
시키고	1385
랐	1385
▁면제	1384
▁기술이	1383
셔	1382
▁아시안게임	1382
▁관할	1382
원을	1382
▁안보	1381
공간	1380
▁적지	1380
홀	1380
하실	1379
군요	1378
▁통하여	1377
▁지원이	1377
▁전망했다	1376
▁노후	1375
▁찾을	1375
▁옷을	1375
▁사랑을	1375
▁바꿔	1374
까요	1374
▁사이에서	1373
▁풍부한	1372
▁덜	1371
」(	1371
▁모임	1371
▁질환	1371
TV	1370
▁담당자	1370
▁함	1370
▁모아	1370
▁그만큼	1369
▁부탁	1368
▁“(	1368
함이	1368
▁가스	1368
▁지불	1368
▁가치가	1368
▁장치	1367
▁이어졌다	1367
▁선박	1367
▁뜨거운	1366
▁침해	1366
▁구글	1366
▁고발	1366
문제	1366
▁외교부	1365
▁가량	1365
▁따뜻한	1365
▁대거	1364
▁데다	1364
▁넣어	1364
침	1363
▁관계를	1363
▁여론	1363
▁그림	1363
n	1363
▁것이란	1362
▁권리	1362
▁생일	1361
과학	1361
▁비리	1361
전을	1361
또한	1359
▁무료로	1358
▁1,000	1357
▁명예	1357
▁찾기	1357
▁근	1357
▁끌고	1356
▁법무부	1355
▁일제	1355
▁벌써	1354
지로	1354
등록	1353
▁평가했다	1352
안을	1352
웅	1352
▁실시할	1350
▁조사됐다	1350
▁틀	1350
▁유튜브	1350
▁마치고	1350
▁활용할	1350
원의	1350
보고	1350
인력	1349
▁그게	1348
▁계정	1348
▁마리	1347
▁팬들	1347
▁신청서	1346
▁입법	1346
▁거에요	1346
▁스페인	1345
▁제정	1345
▁준수	1345
▁경계	1345
▁저장	1345
▁상태다	1345
하라고	1345
▁영어를	1344
▁봉	1344
▁연휴	1344
▁하나로	1344
▁CCTV	1344
대는	1343
▁이것이	1343
진이	1343
▁경우는	1343
▁특허	1343
▁공동으로	1342
▁숨	1342
▁필	1342
▁여성의	1341
▁대책을	1341
▁그녀가	1341
▁관측이	1341
▁패션	1340
상태	1340
▁중간	1339
▁의무	1339
ᆞ	1339
▁투어	1338
▁90	1338
▁앨범	1338
▁다음달	1338
▁하반기	1338
그동안	1337
▁농	1337
▁올해는	1336
년으로	1336
▁선정됐다	1336
▁지사	1336
▁뒤에	1335
시켰다	1334
베이	1334
▁빼	1332
▁하자	1332
▁균형	1331
▁개정안	1331
턴	1330
▁총괄	1330
했는지	1330
▁대학생	1329
▁다리	1328
▁피의자	1328
▁아마	1328
▁이목	1328
▁모습	1328
▁공무원이	1328
려면	1328
▁사항이	1327
▁유해	1327
▁기소	1326
▁없지만	1326
▁접촉	1326
▁팬	1326
▁가족이	1326
▁판단했다	1326
육	1326
▁발전을	1325
▁관람	1324
칭	1324
되자	1324
읍	1323
▁당국	1323
▁산정	1322
▁수사에	1322
▁기준을	1322
▁옆에	1322
▁홈	1322
▁각자	1322
▁주기	1321
▁없도록	1321
▁화웨이	1321
▁불안	1320
폰	1320
스포츠	1319
▁재판에	1319
▁야구	1319
려는	1318
▁만족	1317
▁죽음	1316
▁있었지만	1316
이상	1315
활동을	1315
▁2008	1315
컬	1315
▁조례에	1315
▁동기	1315
▁보낼	1314
▁휴식	1314
스는	1313
작업	1313
▁입원	1313
▁불리는	1313
▁시민들	1312
▁온도	1311
▁충돌	1311
▁열차	1311
▁입지	1311
▁제공한다	1310
▁의미를	1310
▁종이	1310
▁기획재정부	1310
▁선정된	1310
▁모양	1310
▁옮겨	1309
▁것보다	1309
▁느낌	1309
▁기분이	1308
▁특	1307
▁행사는	1307
교통	1307
군이	1307
호가	1306
▁마친	1306
▁화장실	1306
▁비난	1305
▁비교	1305
▁돼요	1304
의료	1304
휴	1304
▁뉴	1304
▁추진한다	1304
▁배터리	1304
공연	1304
▁이름이	1304
▁공개한	1302
물을	1301
▁30%	1300
▁별도의	1300
▁진행하고	1300
▁기간이	1300
킹	1300
장에서	1300
▁과목	1299
▁인생	1299
▁현대차	1299
▁아는	1299
▁쓰고	1299
▁감시	1299
▁전기차	1299
▁받는다	1298
▁회사가	1297
선거	1297
▁구단	1296
▁거부	1296
▁분위기를	1296
▁그에	1295
화가	1295
▁점심	1295
▁편의	1295
21	1295
▁판사	1294
▁제공하고	1294
▁개최한다	1293
▁내렸다	1293
kg	1291
▁현상이	1291
▁의사를	1290
▁뿐만	1290
▁바다	1289
▁흐름	1289
▁저도	1289
▁긍정적인	1288
▁측	1288
중앙	1288
▁행사가	1288
▁외에도	1287
▁마감	1287
층에	1287
셀	1287
▁절감	1287
빙	1287
이라면	1287
▁정의	1286
억달러	1286
▁부여	1286
▁분야의	1286
▁담겨	1285
▁적절한	1285
부문	1285
▁비전	1285
▁물을	1285
▁올렸다	1284
▁첨부	1284
케이	1284
▁현장에	1283
▁인재	1283
▁비판했다	1282
▁나설	1282
▁분야에	1282
▁프리미엄	1282
▁제품에	1281
▁하는지	1281
규모	1281
▁의원들	1281
규제	1281
100	1280
미가	1280
선을	1280
▁경위	1279
▁탓에	1279
힐	1279
▁무리	1278
▁결	1278
▁않아도	1278
▁국민의	1278
▁구민	1278
▁금감원	1277
▁전부터	1277
▁고양이	1277
▁시위	1277
▁존	1277
▁말하는	1276
▁부실	1276
▁빛	1276
▁점은	1276
▁진행할	1275
▁강제	1275
▁행위	1275
허가	1275
▁근로	1274
▁주력	1274
▁신체	1274
▁사업비	1273
상의	1273
▁경기도지사가	1273
하면서도	1273
▁어디에	1273
▁증가했다	1272
▁시점	1272
▁지사는	1272
▁늘었다	1271
▁부처	1271
▁지역을	1271
▁계좌	1271
▁컨설팅	1270
▁상태에서	1268
▁삭제	1268
▁합격	1268
▁여유	1268
▁아기	1268
클	1266
▁힘들	1266
▁수익	1265
▁이웃	1264
▁능력	1264
학생	1264
▁통해서	1263
▁협업	1263
▁형태로	1263
먼	1263
▁빠진	1262
람	1262
▁않았지만	1262
70	1262
갈수록	1261
리가	1261
▁공정위	1261
▁아직도	1260
▁진행될	1260
께	1260
여행	1259
▁신고를	1258
▁실수	1258
▁융자	1258
▁수준으로	1257
▁쓰레기	1257
시가	1257
전에	1257
▁소화	1256
▁아이가	1256
정신	1256
▁않기	1256
▁의식	1256
▁정상회담을	1256
▁맡은	1255
▁했다는	1255
레이	1255
▁지역은	1254
▁대법원장	1254
▁일하는	1253
▁만들었다	1252
▁방향으로	1252
조건	1252
▁진행하는	1252
▁막기	1252
지수	1250
▁복구	1250
▁산업혁명	1250
▁내년에	1249
▁항	1249
죄	1249
▁독서	1249
▁통상	1248
▁정확히	1248
▁한국은	1248
밥	1247
▁어려울	1247
▁돌아	1247
▁출근	1246
▁용역	1246
▁이재명	1246
▁해소	1246
룸	1246
되거나	1246
▁마이크	1245
관이	1244
▁매입	1244
▁고려하여	1243
▁요청할	1242
▁일본의	1242
▁제공할	1242
▁나아가	1242
탕	1242
▁기상청	1242
▁지역경제	1241
▁열렸다	1241
▁기반으로	1240
▁선적	1240
▁충분한	1239
종합	1239
0	1239
오는	1238
연맹	1238
▁관측	1238
▁초대	1238
▁점차	1238
▁건의	1238
경찰서	1238
▁국토부	1237
▁수치	1237
집니다	1237
▁미술	1236
금리	1236
▁된다는	1236
▁많고	1236
r	1236
▁불편	1236
시간이	1235
▁현재까지	1235
라인	1235
▁정의당	1235
▁색	1235
▁국민연금	1235
▁매출이	1234
▁필수	1233
본부장	1233
▁필리핀	1233
▁출범	1232
▁운영하고	1232
▁대표이사	1232
증을	1232
▁무역전쟁	1231
▁관계가	1231
▁건강한	1231
께서	1230
▁관광객	1230
▁나눠	1230
같	1230
▁비율	1230
▁배경	1229
▁아닙니다	1229
▁종로구	1229
cm	1229
▁전반	1228
b	1228
▁뿌리	1228
▁폭발	1228
▁크	1228
▁개인정보	1228
계획을	1228
▁출입	1228
▁시청	1228
▁거래소	1228
▁공동체	1227
▁재료	1227
▁북측	1227
▁주에	1227
능	1227
▁U	1226
▁휴대전화	1226
▁착용	1226
▁서비스가	1226
▁자본	1225
▁이중	1225
장애	1225
쪽	1225
▁장점이	1225
해진	1225
까지는	1224
주민	1224
▁분류	1224
하길	1224
▁전개	1224
참	1224
장비	1223
포럼	1223
▁신호	1222
▁입증	1222
창업	1221
▁기능이	1220
분석	1220
▁칼	1220
겠지만	1220
▁복합	1219
▁조사하고	1218
시티	1218
▁주변에	1217
▁고소	1217
▁보조금	1217
▁분위기가	1217
▁담배	1217
▁티켓	1216
▁리그	1216
호서식	1216
시로	1215
▁만남	1214
전에서	1214
▁법정	1214
▁가졌다	1214
▁미국에서	1213
장관	1212
▁갈등이	1212
▁회사에	1212
과정	1212
장의	1211
로운	1211
위원장은	1211
▁사고로	1211
▁직원들이	1210
-1	1210
▁조절	1210
▁이상을	1209
▁시정	1209
▁불과	1209
자와	1209
지지	1207
▁시설물	1207
▁코치	1207
▁자신들	1206
▁인원	1206
장과	1206
▁전시회	1206
▁주인공	1206
였습니다	1206
교육감	1206
▁찬	1206
증권	1205
▁기록한	1205
세기	1204
▁본격	1204
▁불만	1204
▁라인	1204
▁소식이	1203
▁위원으로	1203
▁보여주는	1203
▁증명	1203
자산	1203
▁환경부	1201
철도	1201
둘	1201
▁핸드폰	1201
▁기대감	1200
▁보입니다	1200
▁산불	1200
렉	1200
▁여권	1200
▁명절	1200
질환	1200
▁이틀	1199
▁강조	1199
▁별도로	1199
▁터키	1199
드리	1199
▁유일	1198
액이	1198
▁친구들과	1198
▁유리	1198
▁더불어	1198
▁날이	1197
▁뛰어난	1197
값	1197
▁고급	1196
▁내다봤다	1196
▁자가	1196
▁과장	1195
▁능력이	1195
결과	1195
▁퍼	1195
심의위원회	1194
▁비판이	1194
▁""	1194
▁전화를	1193
시설을	1193
물질	1193
▁강연	1193
▁분들이	1192
▁좋습니다	1192
▁너에게	1192
▁덕분에	1192
▁예상되는	1191
▁지명	1191
▁이어지는	1191
▁반응	1190
▁위험이	1190
▁냈다	1190
▁공동주택	1190
▁연주	1189
▁미군	1189
▁제고	1189
▁말한	1188
▁옆	1188
▁능력을	1187
▁맥주	1186
▁숲	1186
▁인물	1186
▁강력	1186
하니	1186
▁담겼다	1185
▁분석한	1185
▁구상	1185
▁태국	1185
▁감염	1185
▁바람이	1184
▁철거	1183
▁작동	1183
▁강의	1183
▁세트	1183
▁했고	1183
▁높이고	1182
위는	1182
▁거대	1182
▁의뢰	1182
명에	1182
▁올림픽	1180
▁명령	1180
▁기업에	1180
▁사진이	1180
의원	1179
주기	1178
▁거주하는	1178
법을	1178
▁걸어	1178
▁자율	1177
▁마련됐다	1177
▁V	1177
▁단순	1177
▁첨단	1177
시대	1176
▁동네	1176
사실	1176
▁제기됐다	1176
▁33	1176
▁영향이	1176
▁겪는	1175
▁선생님	1175
▁숙소	1175
▁차지했다	1174
에너지	1174
천만	1174
꽃	1174
▁때부터	1174
▁평가가	1174
▁고양시	1173
▁너희	1173
▁함께하는	1173
▁차지하는	1173
부가	1172
▁운송	1172
▁출마	1172
했어	1172
▁당사자	1172
▁시청자들	1172
▁채권	1171
▁순위	1170
▁학교에서	1170
▁경기도지사	1170
일로	1169
▁사용한	1169
▁않다는	1168
▁손해	1168
▁열었다	1168
▁작성하여	1168
▁테	1168
▁목숨	1168
감이	1167
▁중소	1167
▁진행한다	1167
▁공간이	1167
▁너를	1167
▁확인했다	1167
▁미래를	1167
▁판단이	1166
도서관	1166
▁없으면	1165
▁화려	1165
▁음	1165
▁폭	1165
▁비행	1165
▁한국이	1165
▁문화예술	1164
▁고교	1164
▁할지	1164
▁사항에	1164
▁일주일	1163
▁호에	1163
▁지분	1162
▁뒷	1162
▁내는	1162
▁때문이에요	1162
▁공포	1162
▁시범	1162
▁45	1161
▁따라서	1161
느	1161
연합	1160
▁소장	1160
▁자극	1160
세가	1160
▁중국과	1160
▁광주시	1160
▁등장	1158
능력	1158
▁계열사	1158
억원이	1158
▁지점	1157
▁세금	1156
▁줄어들	1156
이기도	1156
학습	1156
벽	1155
▁말해	1155
▁하거나	1155
▁답했다	1154
▁김영	1154
▁소식을	1154
▁봉사	1153
▁국무위원장이	1153
▁들여	1153
으면서	1153
대에	1152
▁나타나	1152
▁청원	1152
▁총리가	1152
▁잡아	1152
▁400	1151
푸	1151
▁심장	1151
▁전담	1151
▁대처	1151
▁확충	1151
조치	1150
▁현장을	1150
제한	1150
▁손흥민	1150
▁캐	1150
▁체	1150
▁하이	1149
번째	1149
징	1149
흥	1148
▁이내로	1148
▁쪽으로	1148
▁환자가	1147
I	1147
▁자유롭게	1147
▁나오지	1147
▁프로그램이	1146
▁공약	1146
▁종교	1146
▁관해	1145
▁하겠다	1145
▁부총리	1145
J	1145
▁데뷔	1144
신고	1144
▁공부를	1144
▁65	1144
▁재단	1144
▁적응	1143
기관의	1143
▁직전	1143
▁과정이	1142
▁N	1141
표를	1141
빛	1141
▁아이를	1141
▁회의에	1141
녀	1141
▁태도	1140
▁조사한	1140
해졌다	1140
▁주도	1140
▁서울대	1140
▁32	1140
▁정책이	1139
▁방문한	1139
늦	1138
해지고	1138
▁무엇인지	1138
▁일정이	1138
▁상당한	1138
▁시행규칙	1137
▁완벽	1137
▁행위를	1137
▁박물관	1137
▁지원사업	1137
콘	1136
▁정식	1136
(3	1136
▁한층	1136
▁축	1136
▁청약	1136
▁여건	1136
팀이	1135
▁긴장	1135
▁완	1135
▁기다리고	1135
▁준용한다	1135
▁우주	1135
▁동료	1134
▁마련했다	1134
▁폐쇄	1134
▁맞게	1134
됐다고	1134
▁상가	1133
▁왜냐하면	1133
▁영장	1132
대출	1132
▁지원하기	1132
▁박근혜	1131
▁세계적인	1131
▁고정	1131
▁성폭행	1130
우리는	1129
▁잘못된	1129
▁개최했다	1127
북한	1127
▁기업을	1127
▁되기	1126
▁설비	1126
▁방침	1126
▁성실	1126
것	1126
섬	1126
▁미중	1125
디자인	1125
▁때가	1125
▁추세	1124
▁입금	1124
▁대중	1124
▁아이템	1124
▁호응	1124
▁단위	1123
!	1123
▁들어간	1123
▁기준에	1122
▁모르는	1122
▁걸릴	1122
▁주말에	1122
▁신임	1122
기존	1122
▁정지	1122
▁한국과	1122
▁데이터를	1122
▁조명	1122
있다	1121
사무	1121
데이	1121
무역	1120
▁지수	1120
▁동일한	1120
▁위촉한다	1120
▁상태로	1120
기획	1120
▁번째로	1119
이용	1119
▁농촌	1119
▁권고	1119
▁들어서	1119
뜨	1117
얼	1117
▁방향을	1117
▁테니	1117
▁맛이	1116
▁취득	1116
▁유도	1116
▁기온이	1116
27	1116
▁측면에서	1116
▁옥	1116
▁풀어	1116
▁증가하고	1115
▁세상을	1115
▁가끔	1115
교사	1114
▁52	1114
▁엄	1114
▁세상	1113
▁음료	1113
▁항목	1113
니아	1113
▁발달	1112
200	1112
부산	1112
잔	1111
▁활동에	1111
▁L	1110
학원	1110
▁공연을	1110
문을	1110
▁안전관리	1109
년에는	1109
▁판정	1109
▁얻을	1108
▁34	1108
▁검사를	1108
▁허위	1108
▁그리	1108
▁대여	1108
해질	1108
▁학원	1108
▁포항	1107
▁작품을	1107
되어야	1107
▁문제점	1107
▁영양	1107
▁좋아요	1106
▁애플	1106
▁인사를	1106
▁주관하는	1106
트리	1106
리스	1105
하라	1105
▁심화	1105
(5	1104
펀드	1104
▁증상	1104
▁좋겠어요	1103
사항을	1103
▁J	1103
▁감면	1103
▁맡아	1102
쉬	1102
▁네이버	1102
▁입장이다	1101
▁가능할	1101
▁해상	1101
큐	1101
▁제시한	1101
▁한계	1101
동의	1100
스터	1100
▁침체	1100
▁출	1100
▁늘어날	1100
교육을	1100
▁교통사고	1100
▁경우도	1100
▁구청장의	1100
▁급격	1100
몬	1100
▁서초구	1099
▁서구	1099
▁100%	1099
▁과태료	1098
면서도	1098
▁배제	1098
▁주민의	1098
▁노력이	1098
▁보육	1098
▁발생해	1098
▁짧은	1097
▁몸을	1097
▁개선을	1096
▁어려움이	1096
▁대행	1096
h	1096
▁최창식	1096
▁공고	1095
▁과정에	1095
▁기독교	1095
허	1095
▁배려	1095
▁없기	1094
▁감독의	1093
▁유형	1093
▁이르는	1092
▁소관	1092
▁성격	1092
▁진행되고	1091
▁바라	1091
▁않지만	1091
▁소유	1091
▁광역	1090
회를	1090
문재인	1090
▁인터뷰에서	1089
▁만나는	1089
▁준다	1089
민이	1089
▁옛	1089
항공	1088
▁실적이	1088
섰	1088
▁얻어	1088
▁일에	1088
▁빠져	1088
▁이끌어	1088
▁휴	1088
▁북부	1088
▁꽤	1087
▁새해	1087
▁마세요	1087
장에	1087
▁내용은	1086
▁요청했다	1086
▁방안이	1086
컨	1086
▁경력	1085
26	1085
▁진화	1085
먹	1084
▁중학교	1084
▁유입	1084
▁증상이	1084
▁안정적인	1084
▁않는다는	1084
▁기기	1084
▁관리에	1084
(2	1083
▁발언을	1083
뽑	1083
팔	1083
Y	1083
▁진행한	1083
▁확인한	1083
▁원칙으로	1082
▁지휘	1082
▁가기	1082
▁생긴	1081
▁사고를	1081
▁연말	1081
상당히	1081
▁그렇지	1080
사와	1080
▁필요할	1080
▁발주	1079
부서	1079
▁농도	1079
노조	1079
▁성공적	1078
▁맛있는	1078
▁강도	1078
▁되며	1078
▁입력	1078
그러	1078
▁조처	1078
▁하나님	1078
▁학	1078
▁구체적으로	1078
▁승용차	1078
▁간담회	1078
▁압수수색	1077
원으로	1077
▁주체	1077
▁역사적	1076
됐다는	1076
곳이	1076
쌓	1076
▁상생	1076
▁체육	1075
▁차량이	1075
▁꺾	1075
▁눈물	1075
체제	1075
사업자	1075
▁참여했다	1074
졌습니다	1074
솔	1074
▁그에게	1074
▁여당	1074
더니	1073
▁두산	1073
▁주인	1073
▁미사일	1073
경기도가	1073
▁등급	1073
예방	1073
위로	1072
▁금액을	1072
▁정보가	1072
▁발사	1071
엄	1071
▁상위	1071
센	1071
▁충전	1071
요금	1070
▁얼	1070
▁투수	1070
▁있다며	1069
▁부장판사	1069
▁커뮤니티	1069
▁맞지	1069
▁KBS	1069
이야	1068
▁치매	1068
▁씨는	1068
▁앞으로도	1068
▁반응이	1067
▁만족도	1066
▁신발	1066
▁음주운전	1066
었고	1066
▁류	1066
▁준비를	1066
▁협상이	1065
▁한미	1065
접	1065
치는	1064
장으로	1064
▁정체	1064
▁시내	1064
▁깊이	1063
▁강서구	1063
▁배상	1063
▁방식	1063
▁미칠	1063
▁상상	1063
▁이야기가	1062
▁항공기	1062
▁들어갔다	1062
▁한강	1062
▁녹색	1061
▁교부	1061
▁추정	1061
▁드론	1061
▁반응을	1060
▁플레이	1059
그래	1059
드립니다	1058
억원으로	1058
▁프	1058
▁동장	1058
뉴	1058
텍	1057
▁모으고	1057
▁이상으로	1057
드는	1057
▁캠프	1057
째	1057
▁곳이다	1057
▁찍은	1057
절차	1057
▁밝혀	1057
환자	1056
▁제도를	1056
▁실시하고	1056
▁분노	1056
▁이뤄진	1056
실적	1056
▁고위	1056
▁늦게	1055
받아	1055
▁연락을	1055
90	1055
특별	1054
▁위원이	1054
▁장이	1054
▁사이트	1054
프로	1053
▁아침에	1053
▁개통	1053
유통	1053
가정	1053
▁기재	1053
범죄	1053
▁드리겠습니다	1053
▁내리	1053
▁화면	1053
국회	1052
▁편의점	1052
▁사유로	1051
만한	1051
어서	1050
▁얻고	1050
▁품	1050
▁자국	1049
▁쉬	1049
▁현행	1049
▁이뤄졌다	1048
▁양측	1048
▁사람들을	1048
▁없는데	1048
▁내놓은	1048
받는	1048
용품	1048
▁통보하여야	1048
▁주관	1048
▁물류	1047
▁즉	1047
분이	1047
▁홀	1046
토록	1046
랜	1046
▁환영	1046
▁남부	1046
▁나눔	1046
▁산림	1046
▁기조	1045
▁조례에서	1045
▁요청한	1045
▁넣	1044
▁기존에	1044
▁죄	1044
▁실시간	1044
박물관	1043
▁정책에	1043
공급	1042
조선	1042
▁기관의	1042
▁경쟁이	1042
구나	1042
▁상환	1042
하시는	1041
▁경제가	1041
▁방해	1041
▁영역	1041
득	1041
▁열릴	1041
에요	1040
▁엔진	1040
제로	1040
▁단독	1040
▁연구개발	1039
▁지체	1039
월에는	1039
권이	1038
▁동아리	1038
둥	1038
▁휴대폰	1038
▁포함하여	1038
닫	1038
▁비교적	1038
▁떨어지는	1037
부는	1037
▁송금	1037
▁이익	1037
▁손상	1037
인증	1036
결정	1036
닝	1036
릭	1035
내용	1035
▁매주	1035
▁성장을	1035
지금	1035
씨와	1035
an	1034
▁아베	1033
▁꼽	1033
▁묵	1033
▁곳을	1033
▁농산물	1032
▁멋진	1032
▁38	1032
▁분명히	1032
공동	1032
▁특화	1032
▁전세	1032
▁부분에	1032
▁야당	1032
▁수급	1031
▁이사회	1031
▁입시	1031
▁지진	1031
f	1030
▁남녀	1030
▁임신	1030
고등학교	1030
▁부당	1030
▁빅데이터	1030
v	1029
▁고기	1029
특별히	1029
▁희생	1029
▁육	1029
틴	1029
점검	1028
▁귀사	1027
▁물질	1027
▁수십	1027
▁급여	1026
원에	1026
리아	1026
▁도민들	1026
▁2007	1025
▁혼란	1025
28	1025
▁선호	1024
▁운영한다	1024
▁즐거운	1024
선이	1024
▁높이는	1024
▁당해	1023
▁촉구했다	1023
▁요인	1023
▁아빠	1023
▁거기	1022
엽	1022
탑	1022
▁지위	1022
▁전통시장	1021
in	1021
넓	1021
▁보유하고	1021
▁과연	1021
심의	1021
▁발견됐다	1020
▁냄새	1020
▁타격	1020
▁불가능	1020
▁이기	1019
▁대통령을	1019
▁높게	1019
▁W	1019
▁자연스럽게	1019
▁시리즈	1019
re	1019
▁소집	1018
현대	1018
컵	1018
▁인정되는	1018
▁수주	1017
▁약간	1017
▁매월	1017
▁격차	1017
▁컸다	1017
죽	1017
▁개막	1017
한국시간	1017
▁수행할	1017
▁누적	1016
차전	1016
▁영향	1016
▁재배	1016
▁내지	1016
참여	1016
▁대외	1015
▁들을	1015
▁세월호	1015
▁PC	1015
▁부산시	1015
▁캠페인	1015
38	1014
▁식물	1014
▁하나님의	1014
▁위임	1013
▁되도록	1013
▁체포	1013
▁슬	1012
분께	1012
가량	1012
▁않아서	1012
▁배정	1012
영화	1011
▁찍어	1011
▁뮤지컬	1011
▁진보	1011
실질적인	1011
▁가능해	1011
▁연수	1011
▁휴가	1010
▁왼쪽	1010
단순히	1010
▁인공	1010
▁무대	1009
▁딱	1009
▁시간은	1009
라운드	1009
▁원인이	1009
▁예능	1009
▁된다고	1009
▁파리	1009
▁회사에서	1009
아동	1009
▁모니터링	1008
▁생태	1008
보수	1007
▁드러나	1007
▁국민이	1006
▁오른쪽	1006
▁대중교통	1006
▁스웨덴	1006
▁다녀	1005
▁등도	1005
릿	1005
▁병원에	1005
▁미국에	1005
▁아마존	1005
▁논문	1005
▁지방선거	1004
▁소송을	1004
천만원	1004
타운	1004
과장	1004
▁사용해	1004
▁며칠	1004
▁사건에	1004
▁달라고	1003
앉	1003
붙	1003
인구	1003
글로벌	1003
어야	1003
▁입찰	1003
▁신용카드	1003
▁맥	1003
할게요	1003
▁상승세	1002
중인	1002
▁영수증	1002
군의	1001
▁파티	1001
▁생명	1001
▁고향	1001
▁주민이	1001
하나	1001
▁분쟁	1001
▁수준이	1000
▁다음과	1000
▁요건	1000
▁선출	1000
렀	999
▁계획이	999
▁소속사	999
▁오랫	999
▁진전	998
콜	998
▁호흡	998
▁택배	998
▁지정된	998
▁감성	997
▁총선	997
소리	997
▁쏠리고	997
▁도중	997
가스	997
▁원전	996
▁하던	996
▁한계가	996
▁각국	995
경비	995
39	995
정치	995
▁인정할	994
▁백화점	994
▁부분은	994
37	994
▁장점	994
개로	993
바이	993
▁진행했다	993
▁마련된	993
▁종합적	993
▁공인	992
웨이	992
시쯤	992
▁전원	992
▁교육과정	992
▁예산이	991
▁받았습니다	991
음을	991
▁과학기술	991
▁조언	991
▁대피	991
▁많아서	990
체육	990
on	989
▁당한	989
▁투자가	989
▁업데이트	989
쓰	989
▁담아	989
▁함은	989
▁에어	989
▁승부	989
▁코리아	988
▁개성	988
▁일이다	988
▁성별	988
w	988
스의	988
▁시작됐다	988
쳤다	987
모델	987
▁화가	987
▁지사가	987
▁무기	986
전이	986
게요	986
홀에서	986
▁몰	986
▁내내	986
여서	985
▁담당하는	985
▁차가	985
▁구역	985
▁정황	985
▁집으로	985
기지	984
▁물이	984
▁끼	984
▁최저	984
▁결정했다	984
▁접속	984
물이	984
▁점수	984
▁추적	983
▁작성한	983
▁돌봄	983
▁이게	983
▁자료에	983
▁사업이다	983
x	983
▁단기	982
▁끝내	982
▁협의회	982
▁탑승	982
재정	982
▁동일	981
만으로	981
▁역할	981
▁것들	981
▁달에	981
▁동생	980
▁서식	980
▁수렴	980
▁있었고	980
▁근처에	980
▁물량	980
▁행정부	980
었	980
▁높이기	980
▁논리	979
▁복원	979
▁원내대표가	978
▁이슈	978
▁강아지	978
▁벌이고	978
경찰청	978
▁이주	977
▁자회사	977
▁박람회	977
▁어렵다는	977
▁지역주민	977
▁사람들에게	977
▁손해배상	977
인권	976
▁임직원	976
건이	976
▁놀이	976
▁금메달	976
근무	976
▁대한항공	976
▁찾아가	976
▁요구했다	976
▁화성	976
▁아프리카	975
▁고양	975
연대	975
c	975
▁회수	975
▁적정	975
▁구청장	975
▁진학	975
관은	975
▁저렴한	974
▁기업과	974
▁유일한	974
▁당분간	974
▁원칙	974
실에서	973
▁몸이	973
▁작	973
▁높았다	973
▁손실	972
▁적자	972
▁특징	972
▁솔루션	972
▁긍정적	972
▁적발	972
▁서울의	972
▁이자	971
▁음주	971
▁사업으로	971
▁생각하고	971
▁이뤄지지	971
▁대부분이	970
▁증	970
▁소지	970
청년	970
▁단원	970
▁포럼	970
▁맞은	970
▁무죄	970
▁죄송하지만	970
▁죄송합니다	970
▁보전	969
▁36	969
▁퇴근	969
▁공시	969
▁비치	969
▁예산안	969
▁MBC	969
▁곧바로	969
▁실시하는	969
식이	968
▁초반	968
관을	968
▁크고	967
▁문구	967
▁비교해	966
현장	966
▁브라질	966
▁자리가	966
▁설득	966
▁대표의	965
▁이래	965
▁오면	965
▁말까지	965
▁최신	965
▁발령	964
▁누군가	964
▁게재	964
▁발생하지	964
▁점포	964
▁전문성	963
▁적어	963
▁왔습니다	963
▁소년	963
▁갤럭시	963
▁붕괴	963
▁수준을	963
▁위탁할	962
기기	962
▁행보	962
▁지켜	962
▁한해	962
▁정규직	962
▁위원회는	962
▁청주	961
▁무엇이	961
▁오염	961
▁시에	961
▁시민단체	961
▁북미정상회담	961
재산	960
▁종전선언	960
▁슈퍼	960
규정	960
사업에	960
인들이	960
▁최악	960
▁박스	960
칙	959
▁내게	959
▁신제품	959
▁드립니다	959
▁급등	958
렸습니다	958
▁리더	958
치고	958
원장	958
▁통행	957
▁싸	957
▁생길	957
▁보내는	957
▁대량	957
▁낳	957
겠어요	957
삼성	957
▁제목	956
▁사랑하는	956
▁방식을	956
▁전직	956
▁재활용	956
▁친구들	956
특	955
▁국민들	955
▁연금	955
▁대법관	955
▁매달	955
여건	955
이랑	954
리에	954
▁세미나	954
업자	954
▁문화를	954
▁클라우드	954
▁단장	953
▁지원하고	953
▁쇼	953
▁2022	953
▁색상	952
▁헤	952
▁O	952
▁다음에	952
▁기다려	952
▁어떠한	951
▁가입자	951
교류	951
▁중입니다	951
300	951
성장	951
욕	951
킨	951
▁위촉직	950
▁미소	950
▁재직	950
마리	950
▁되길	950
▁도쿄	950
남북	949
▁생각에	949
일자리	949
▁언제나	949
▁주주	949
▁텐데	949
▁자살	949
▁동반	948
▁주지	948
▁맡고	948
▁워싱턴	948
▁살인	948
▁창원	948
▁성경	948
▁수면	947
▁항의	947
▁보인	947
▁시공	947
▁크리스마스	946
▁본인이	946
▁대표하는	946
▁사퇴	946
▁없었던	946
▁제기한	946
▁방향	946
▁몰려	945
▁가해자	945
▁금융기관	945
데다	945
▁극복	945
▁인형	944
▁전형	944
▁작업이	944
▁금요일	944
안이	944
▁재원	944
▁나오	943
▁포상	943
사용	943
소송	943
▁방법은	943
22	943
le	943
▁지도자	943
▁안전성	943
수당	943
웠다	942
▁기관이	942
▁단어	942
이런	942
▁중국에서	942
보증	942
▁정도가	941
▁과일	941
▁근로시간	941
▁수거	941
▁기간에	941
▁요구할	941
과거	941
▁지닌	941
▁가맹점	941
▁아예	941
▁설명회	940
▁보내고	940
▁지내	940
보건	940
하다가	939
▁선도	939
▁방치	939
룩	938
▁연극	938
호텔	938
▁발휘	938
▁폭로	938
▁정치권	938
▁앉아	937
▁특검	937
▁부채	937
▁토요일	937
▁발견된	937
▁추모	936
▁늦어	936
▁운	936
실장	936
천명	936
회에	936
▁굴	935
릇	935
건으로	935
▁바닥	935
▁EU	935
▁저소득층	935
시키기	935
중소기업	935
트럼프	935
▁어깨	934
▁후속	934
법에	934
35	934
▁성능	934
▁보고서를	934
키로	934
▁밤에	934
▁돌파	933
▁덕	933
▁명칭	933
▁규모로	933
▁듯한	933
▁객실	933
▁높여	933
하더라도	932
▁소방당국	932
▁적합한	932
▁동참	932
▁조치가	932
▁그렇다면	932
▁정상이	932
▁표창	932
▁연임	931
룡	931
▁침대	931
▁그럴	931
▁느끼는	931
▁빚	930
▁당선	930
▁김치	930
촉진	930
찰	930
▁끈다	930
▁하나가	930
▁아니고	929
주고	929
닥	929
▁한국어	929
심에서	929
▁노하우	929
해줄	928
시간을	928
▁불편을	927
▁어디서	927
비는	927
▁힘들어	926
없는	926
▁감축	926
▁국가가	926
당한	926
▁인천시	925
▁변동	925
▁119	925
▁치열한	925
▁배당	925
▁홈런	925
보는	925
대응	925
▁‘2019	924
벨	924
▁전략을	924
▁대리	924
▁부대	924
▁제약	924
수입	924
통합	924
별지	924
▁생존	924
▁규칙은	923
AI	923
▁분명	923
핑	923
▁있었어요	923
▁본회의	923
▁간편	922
▁인지	922
▁펼쳐	922
▁소요	922
▁제외하고는	922
▁헌법	922
▁넘치는	921
▁좌석	921
▁서버	921
▁쾌적	921
퇴	920
▁건조	920
▁여지	920
▁이상인	920
▁논	920
▁값	920
켰	920
▁소규모	919
▁공익	919
십	919
▁움직임	919
하자는	919
▁맨	919
▁나한테	919
▁이곳에	919
(20	919
▁은퇴	919
▁하노이	919
▁탄핵	918
▁노래를	918
▁기각	918
▁물가	918
▁이익을	918
공공	917
▁요구가	917
▁융합	917
교육청	917
48	917
군수	917
갔다	916
시즌	916
▁파주	916
▁브렉시트	915
리스트	915
▁동원	915
▁벌금	915
▁가질	915
심을	915
▁선진국	915
▁신용	915
▁세종	915
▁문장	915
▁득점	914
▁공기	914
▁화학	914
▁사립유치원	914
▁120	913
▁보이	913
사무소	912
▁심한	912
상황	912
멸	911
▁기대가	911
법이	910
▁일고	910
▁종사자	910
▁야간	910
▁정상화	910
▁트위터	910
▁돌려	909
▁커질	909
▁마련한	909
29	909
▁듣는	909
운용	908
부장	908
다음	908
(4	908
▁경기북부	908
▁기분	908
시기	908
혹	907
▁회의에서	907
▁베이징	907
프로그램	907
▁이때	907
▁있었는데	906
서비스를	906
기능	906
▁국경	906
▁공감	905
▁재무	905
▁모범	905
▁마주	905
▁경기도내	905
▁모른다	904
▁장르	904
▁위기에	904
▁대해선	903
위원은	903
▁쉬운	903
▁피해자들	903
경쟁	902
▁세계에서	902
자치	902
▁밖으로	902
럼	902
▁차질	901
▁장면이	901
▁관리하는	901
▁차세대	901
▁꾸	901
▁예고	901
▁많지	901
▁최초의	901
▁모았다	901
▁현안	901
▁형식	900
롭	900
▁것이라	900
▁사안	900
▁자카르타	900
▁조합	900
▁조율	899
▁얻은	899
▁노출	899
▁용인	899
인사	899
▁위원회에	899
활	899
▁났다	898
▁자격증	898
▁임용	898
들로	898
단은	898
넷	898
▁조사에서	898
31	897
▁놓	897
▁내야	897
▁올라가	897
▁향상을	897
▁꼽힌다	896
▁오류	896
▁국방	896
▁다르게	896
▁그걸	896
▁구청	896
▁건수	896
▁기온	895
▁디스플레이	895
▁사장이	895
▁존중	895
▁불량	895
▁성향	895
▁들어가는	895
▁교육청	894
튼	893
▁비정규직	893
▁판매량	892
▁학생들은	892
▁마지막으로	892
▁성남	892
했	892
▁카카오	892
▁카카오톡	891
설비	891
▁뛰어	891
▁북한과	891
▁부득이	891
▁대학교	890
소를	890
▁가능하며	890
끊	890
실제로	890
▁훌륭한	890
엠	890
잠	889
▁높	889
▁대결	889
▁문자	889
▁발전에	889
▁테러	889
▁시기에	889
IT	888
됐습니다	888
▁소비자들	888
▁법원이	888
정부가	887
▁친구와	887
▁깨	887
▁방어	887
되기도	887
▁투기	887
▁소프트웨어	887
결제	887
롱	887
▁관장	887
▁때문	886
▁소형	886
▁매매	886
겸	886
▁소비자가	886
▁가능한가요	886
▁활동이	886
텐	886
세포	885
32	885
▁행동을	884
▁보건복지부	884
▁탄력	884
▁무려	884
▁날부터	884
▁항공사	883
▁소유자	883
▁댓글	883
▁보지	883
따	883
▁않을까	883
▁남자친구	883
▁정부에	883
▁리스크	882
ing	882
▁팀을	882
▁국비	882
▁살해	882
▁사용이	882
▁희	882
하시	881
▁화물	881
노인	881
▁김씨가	881
논	881
▁아니한다	881
▁벽	881
▁별도	881
▁산업단지	881
36	881
렬	880
만달러	880
▁곳곳에	879
우선	879
부담	878
▁리스트	878
▁아니한	878
▁북한에	878
대교	878
▁연방	878
▁그날	877
▁웃	877
▁트렌드	877
▁팀장	877
재판	877
▁정상회담이	877
배우	877
▁전반에	876
입니까	876
▁돕는	876
▁효	876
▁다르다	876
▁아니라는	876
▁충족	876
▁과도한	876
▁최소화	876
▁유행	876
▁성명	876
▁가족과	875
▁이끌	875
▁연락이	875
▁중요성	874
▁좌	874
받	874
▁상태를	874
▁주문한	874
▁막을	874
탁	873
촉	873
청장	873
▁사무실	873
▁비싸	873
▁흉기	873
▁염	872
역사	872
▁드러냈다	871
었는데	871
▁파괴	871
트를	871
▁민족	871
번에	871
▁사정이	871
아시아	870
▁탄생	870
▁사용하고	870
하라는	870
하시고	870
▁안팎	870
▁개념	870
▁기준이	870
▁이탈	870
▁관계자들	869
기와	869
▁병원으로	869
▁참사	869
▁성추행	869
헤	869
▁조리	869
▁느낌이	869
▁준공	868
▁37	868
▁송파구	868
▁컬러	868
▁여자친구	868
▁덮	867
▁빌	867
파크	867
▁가능하도록	867
▁고려하면	867
▁마포구	867
▁철회	866
▁보증	866
▁음식점	866
▁만들어진	866
바이오	866
▁된다면	866
▁기여할	865
내는	865
느냐	865
▁계절	865
▁이송	865
▁취약계층	865
분에	864
▁놀	864
▁무릎	864
▁해체	864
▁준비가	864
▁전주	864
▁조금만	864
▁보일	863
이라서	863
▁봐야	863
▁70%	863
▁측면	863
▁시는	863
념	862
실제	862
▁주최하고	862
▁밑	862
▁재고	862
▁쇼핑몰	862
▁층	862
▁또다시	861
▁해군	861
추진	861
▁퇴	860
▁빅	860
▁면적	860
▁사망자	860
수는	859
껏	859
▁아이돌	859
▁아니지만	859
회가	859
▁만료	859
▁관객	859
▁짜	859
샤	858
▁말할	858
▁야외	858
▁지장	858
▁섭취	858
개월간	858
▁명단	858
▁이거	857
둔	857
▁기다리	857
하러	857
▁자라	857
▁명시	857
▁부착	856
경남	856
▁대장	856
▁해안	856
의결	856
49	855
줍니	855
▁맞서	855
▁돼지	855
받을	855
투어	855
▁부스	855
방지	855
짜리	854
급여	854
▁몸에	854
▁참여하고	854
▁전파	854
▁고장	854
▁증가하는	854
▁검	854
▁의혹에	853
방식	853
▁지표	853
리고	853
정원	853
특위	853
치를	853
▁경과	853
▁편집	853
센터는	852
▁관찰	852
▁광진구	852
▁심지어	852
랩	852
▁뒤늦게	852
▁흘러	852
▁묻는	852
인천	852
▁중동	852
▁아이폰	852
▁싫어	851
▁음성	851
▁사람과	851
▁고통	851
▁기여	851
확인	851
▁언급한	851
▁진정	851
▁되면서	851
▁파트너	851
▁지침	850
▁지방세	850
▁오지	850
책임	850
▁일어나	849
기간이	849
▁창작	849
▁확실히	849
석이	849
산업의	848
▁갔다	848
예정	848
▁성과가	847
▁늘어나	847
▁논의를	847
▁허리	847
400	847
▁지상	847
또	847
▁판문점	847
▁보고하여야	846
▁않았던	846
▁좋	846
▁사용하지	846
▁면담	845
▁통지	845
▁관련이	845
밤	845
▁급식	845
▁상담을	844
아가	844
▁신도시	844
▁이미지를	844
▁600	844
▁엘	844
▁배가	843
▁강릉	843
▁종종	843
▁적용한다	843
중심	843
위험	843
자인	842
▁계약서	842
▁서울시가	842
▁국무부	842
과정에서	842
닉	842
▁월요일	842
▁연봉	841
협상	841
국장은	841
▁고문	841
낙	840
조합	840
▁김태	840
▁책임이	840
처분	840
▁관광지	840
▁짓	840
▁수영	840
전문가	840
▁선물을	840
▁육아	840
캠프	839
▁하천	839
▁그랬	839
▁이곳에서	839
▁개발에	839
▁것이고	839
▁상용화	839
▁수여	838
▁유전자	838
▁국가대표	838
▁수소	838
변경	838
▁대통령에게	838
▁금고	838
▁연합	838
▁최소한	838
광고	838
▁높고	838
▁장에게	837
▁스케줄	837
립니다	837
짓	837
▁지적도	837
▁국어	837
▁그려	837
우리가	837
▁영향력	837
▁소중한	837
부지사	836
▁발목	836
▁건데	836
▁입국	836
▁코드	836
▁가사	836
▁포함한다	836
▁데는	836
짜	836
▁치킨	836
유지	835
▁성분	835
진흥원	835
▁서면	835
▁행정안전부	835
▁한정	835
▁출국	835
▁가능성은	835
사업의	835
▁납품	834
▁확신	834
수원	834
800	834
▁연인	834
▁인하여	834
자에	834
▁관악구	834
▁집계됐다	834
▁40%	834
▁시세	834
▁수원시	834
▁기업은	833
▁기상	833
▁일각에서	833
▁지급한다	833
▁꼼꼼	833
▁뒤로	833
▁방학	832
기반	832
▁수색	832
▁건전	832
▁뒷받침	832
ha	832
▁후에는	832
▁증권	832
전쟁	832
▁역할이	832
▁회원들	831
▁평택	831
끄러	831
▁창조	831
▁민주노총	831
▁손님	831
서울시	831
▁도가	831
번호	831
▁방식이	830
▁도서	830
▁끌어	830
▁수행하는	830
∼20	830
▁그만	830
닿	830
▁실태	830
▁늘어	830
▁부모님	829
▁SBS	829
▁대표와	829
▁견	829
▁든	829
근로자	828
보장	828
▁점에	828
유치원	828
▁고가	828
▁하더라도	828
▁대구시	828
▁기대감이	827
▁인건비	827
▁대답	827
45	827
ar	827
▁번에	827
▁넓은	827
▁주민등록	827
▁기차	827
▁제게	826
▁사법	826
▁태양광	826
▁의장이	826
▁매니저	826
▁갖추고	826
▁아니라고	826
▁평생교육	826
▁차지	825
재난	825
▁슈	825
▁안전하게	825
▁가리	824
▁내외	824
▁예배	824
▁버전	823
▁검토하고	823
수익	823
▁콩	823
▁좋겠습니다	823
▁부각	823
▁차기	823
▁곤	823
시킨다	823
▁권리를	823
▁시술	822
▁학대	822
미터	822
▁숙박	822
▁금액이	822
▁혐의가	822
▁드는	822
▁스트레스	822
▁39	822
아파트	822
직원	822
▁컨	821
▁포함돼	821
▁싶지	821
대와	821
인당	821
다니	821
▁않았다는	821
▁중점	821
23	821
▁문화재	821
대한	821
▁대사	820
▁발의	820
▁중국에	820
▁자동으로	820
▁포스코	820
▁사회복지	820
시설의	820
▁위해선	820
▁나쁜	820
▁내릴	820
목적	820
▁원이	819
▁파업	819
▁경기장	818
걷	818
▁거로	818
▁분이	818
제안	818
▁발효	818
▁활성화에	818
▁대가	818
▁올바른	818
▁개시	818
▁당연직	817
▁뜨	817
▁예정인	817
▁거리가	817
▁너무나	816
▁피곤	816
▁감안하면	816
억원에	816
▁조사에	816
▁48	816
▁홈페이지에	816
농업	816
▁현실화	816
▁기업인	816
맛	816
▁취재	816
▁80%	815
대전	815
셨	815
▁지나치	815
▁통지하여야	815
이니	815
에스	815
▁자신감	814
▁푸	814
▁명품	814
담당관	814
▁성적이	814
수의	814
▁시작해	814
▁없나요	814
부서의	814
▁벌인	813
▁평생	813
생명	813
▁다하겠다	813
▁호소	813
잉	813
▁주석	812
▁활력	812
∼2	812
머리	812
▁경비를	812
▁식으로	812
▁게시	812
▁있거나	812
▁살펴보면	812
▁이후에	811
▁집권	811
5000	811
더라	811
▁궁금증	811
▁노력하겠다	811
텔	811
▁깜짝	811
방안	811
통일	810
▁높였다	810
▁필요로	810
▁와인	810
▁통장	810
▁개인의	810
▁이어진	809
▁상영	809
▁내년부터	809
별로는	809
▁성공했다	809
▁가려	809
잃	809
개인	809
고객	808
▁것들이	808
▁이걸	808
퍼센트	808
▁당연히	808
▁늘어나는	808
▁해명	807
▁믿고	807
▁체크	807
▁시신	807
▁의존	807
▁일본에서	807
우스	807
▁들어갈	807
▁다수의	807
▁거라고	807
▁재미	807
▁취재진	807
▁철저히	807
▁조성을	807
▁블랙	806
대상자	806
▁그러하지	806
하우스	806
▁다섯	806
피해	805
▁명확	805
▁가격에	805
▁설문조사	805
▁보러	805
▁간부	805
금지	805
▁e	805
▁사정	804
안에	804
지역의	804
▁시대에	804
▁원유	804
▁소음	804
▁해결하기	804
▁뷰티	804
▁이스라엘	804
▁보험사	804
▁개발을	804
▁운항	804
하나요	803
▁일환으로	803
▁계속해서	803
센터를	803
▁하니	803
▁괜찮	803
▁곳곳에서	803
▁출제	802
▁이수	802
▁조금씩	802
▁소설	802
▁애초	801
▁도출	801
▁포기	801
▁물어보	801
클럽	800
▁경찰의	800
▁상금	800
▁유사	800
▁시너지	800
▁끝나면	800
학회	800
▁대다수	800
액을	799
사례	799
▁경주	799
▁거짓말	799
▁교육이	799
▁먼	799
▁관리자	799
▁여론이	799
▁내용에	799
▁서기	799
▁55	799
님께서	798
▁고속도로	798
의무	798
광주	798
▁고시	798
▁잊지	798
받았다	798
이닝	798
▁주어	798
▁끊임없	798
있	798
▁진정한	798
육성	797
▁드릴게요	797
▁끝까지	797
▁침	797
▁줄었다	797
레스	797
▁정보화	797
▁유력	797
비율	797
▁신중	797
▁기무사	796
▁갖는	796
▁줄어든	796
▁업무에	796
▁거래가	796
▁무게	796
부를	796
▁제안했다	796
▁응답	795
▁이민	795
답	795
년째	795
▁매수	795
▁자원봉사	795
▁수익을	795
▁보여준다	794
▁주재	794
▁프리	794
▁불가능한	794
▁봉사활동	794
▁사이버	794
▁에어컨	794
명에게	794
▁펴	794
▁엄청난	794
▁성장세	794
en	793
▁사찰	793
▁선두	793
금액	793
▁조만간	793
▁회신	793
▁분석된다	793
▁활발	792
▁전산	792
▁규명	792
▁취미	792
지역에	792
▁가시	792
▁펼쳐진다	792
▁5·18	792
▁병행	792
▁꺼	791
▁아들이	791
▁끌었다	791
▁성범죄	791
▁올해부터	791
함과	791
영상	791
콤	791
▁호텔에서	790
▁구체적	790
▁철저한	790
센터가	790
▁실적을	790
▁중에는	790
▁매력을	790
▁문학	790
▁손에	790
▁고유	789
에겐	789
▁유족	789
▁어디로	789
▁보험료	789
▁영세	789
▁세계적으로	789
겠어	789
▁의원들이	789
▁상품이	789
▁철학	789
▁없게	789
▁판매가	789
▁조사가	788
인천광역시	788
▁증언	788
▁블	788
▁즉각	788
동물	788
▁빵	788
합의	788
▁유관기관	788
▁유사한	787
▁수질	787
연합회	787
▁붙여	787
▁반등	787
이후	787
▁있었다고	787
▁I	787
▁표정	787
▁강세	786
▁일하고	786
▁그림을	786
▁널리	786
▁않겠다	786
▁주장하는	786
▁개봉	786
▁크지	786
▁들은	786
모든	786
수요	785
▁파악하고	785
설계	785
▁인쇄	785
▁특유	785
징수	785
▁열려	785
600	785
▁저녁에	785
▁인용해	785
▁반대로	785
사에	785
▁좋겠어	785
▁강요	784
▁않	784
신도시	784
▁규정이	784
▁소수	784
▁실태조사	784
▁대립	784
▁감동	783
▁먹거리	783
성은	783
▁기름	783
▁내신	783
센터에서	783
횡	783
▁부위	783
만명이	783
▁안전사고	783
▁일어난	783
▁자영업자	783
▁변수	783
▁하락세	782
▁동행	782
▁테마	782
▁특성상	782
▁인상을	782
▁땀	782
▁실력	781
어가	781
▁선보인다	781
▁내역	780
요원	780
▁상시	780
▁보면서	780
▁관계자들이	780
▁출연해	780
▁패널	780
▁한데	780
▁시사	780
첩	779
▁플라스틱	779
▁머	779
들어	779
▁착수	779
▁제안한	779
▁과세	778
면적	778
▁전세계	778
▁합의가	778
페이	778
▁열람	778
▁끝나고	778
▁정밀	778
▁조화	778
아직	777
▁거점	777
았	777
▁공단	777
▁유망	777
▁폭이	777
▁구민의	777
▁주행	777
▁이명박	776
▁응답자	776
옹	776
▁제시했다	776
▁퇴직	776
단을	776
▁시진핑	776
▁불가	776
▁기증	776
▁기여한	775
시다	775
쳤	775
▁테이블	775
▁나가는	775
▁주실	774
▁거기에	774
▁흡수	774
▁경기도에	774
▁금융권	774
기념	774
▁영어로	774
▁저감	774
대비	774
▁한글	774
▁김성	774
▁지역이	774
▁위주로	773
▁주신	773
▁거친	773
끼	773
기업의	773
▁정황이	773
▁교실	773
▁잡은	772
였지만	772
▁긴밀	772
다리	772
▁신축	772
▁위원장을	772
▁최근에	771
곳에	771
▁가축	771
기업이	771
▁CEO	771
앙	771
▁자랑	771
▁재판을	771
▁걸려	770
▁유아	770
▁정확하게	770
▁필요해요	770
▁지금도	769
▁경찰과	769
▁여기는	769
전형	769
트가	769
▁말은	769
▁담고	769
▁위원장과	769
▁뇌물	769
▁의자	769
▁전문가들이	769
▁원인으로	769
▁고용노동부	769
갔	769
▁구성원	769
▁그곳	768
렁	768
▁신앙	768
벤	768
▁메인	768
기록	768
▁음식이	767
▁준비한	767
영이	767
▁시행에	767
▁아무것	767
▁경로	767
▁반영된	767
▁근처	767
▁구매할	767
월드	766
▁생계	766
▁해결할	766
회의를	766
지면서	766
▁인근에	766
▁관행	766
34	766
등을	766
65	766
▁전국에서	765
▁다니	765
▁짐	765
▁재능	765
▁개선이	765
▁점유율	765
▁좌우	765
▁약속을	765
▁증대	765
▁국제사회	764
버리	764
▁신속하게	764
▁좋아합니다	764
▁나서는	764
▁모자	764
▁주시면	764
카페	764
▁녹	764
▁보조금을	764
▁이해할	763
시나요	763
▁윤리	763
소가	763
주간	763
▁건지	763
픽	763
▁승진	763
▁서식에	763
▁비슷	763
▁연구소	762
▁패키지	762
▁체결했다	762
▁BMW	762
▁250	762
▁개척	762
▁소녀	762
▁결정이	762
▁취약	761
오직	761
▁비싼	761
▁마찬가지로	761
건물	761
▁지원받	761
▁서울에서	761
놀이	761
▁당국이	761
된다는	760
▁사우디	760
▁혜택이	760
▁점수를	760
▁경찰청	760
맥	760
▁근육	760
▁민주주의	760
량을	760
▁1∼2	760
▁설치할	760
▁수상했다	760
팀장	759
▁좋아해요	759
▁유럽연합	759
만대	759
캐	759
▁안으로	759
"	759
▁접목	759
▁사회의	759
자리	759
▁배우고	758
▁했	758
운영할	758
▁남북정상회담	758
▁이름은	758
▁신청할	758
회계	758
▁의문	757
▁칠	757
▁다이어트	757
▁신청한	757
▁무역협상	757
▁의료기관	757
칸	757
심이	757
▁43	757
▁여성들	757
▁양식	757
▁꺼내	757
▁한때	757
▁타이	757
분을	757
▁2∼3	757
▁인식이	757
▁채워	757
▁종류의	757
▁맞고	756
▁불가피	756
▁차장	756
▁가로	756
▁있을까	756
▁기구	756
▁효율적	756
▁석탄	756
스테	756
▁헬기	756
▁신인	756
펜	756
▁드릴	756
발생	755
신속한	755
▁오를	754
▁국정	754
▁않았다고	754
▁아까	754
▁힘들었	754
시아	754
▁사법부	754
▁확	754
법원	754
▁증진	754
▁도약	754
현이	754
편의	754
였어요	753
▁글이	753
▁경제의	753
▁스토리	753
▁숫자	753
▁왔어요	753
럽	753
▁소감	753
▁시가	753
▁병원에서	753
당국	753
▁비용은	753
▁판매하는	753
▁스크린	753
▁앞선	752
▁위법	752
업소	752
▁보건	752
▁수출이	752
좌	751
▁조달	751
▁안산	751
▁2006	751
▁본격화	751
▁목록	751
▁위축	751
▁강화하고	751
▁취급	751
▁늘어나고	750
▁회의는	750
그런	750
▁최다	750
총장	749
전기	749
잖아	749
▁끝나	749
▁약화	749
곳을	749
▁인류	749
▁조항	749
이드	749
▁임무	748
▁추정되는	748
▁벌어진	748
▁보냈다	748
▁억제	748
▁환율	748
▁석유	748
▁포함됐다	748
▁이혼	748
▁보도가	748
▁대단	747
▁발부	747
▁바이	747
▁지인	747
▁환경이	747
▁복무	747
하였을	747
▁요구를	747
▁중지	747
수술	747
▁동시	747
▁높일	747
▁모델을	747
▁해주세요	747
▁무인	747
앞으로	746
협약	746
▁움직임이	746
▁언급했다	746
▁근거로	746
▁분들	746
▁수령	746
▁참가자	745
▁정하여	745
▁한다면	745
▁저하	745
▁주시기	745
구를	745
▁국민청원	745
보면	745
▁담보	745
▁제외한다	744
▁이른	744
▁런던	744
졌	744
수준	744
▁일본이	744
놓	744
▁재발	743
▁구조조정	743
▁성장할	743
▁신고가	743
▁발생하고	743
자본	743
집행	743
▁확보한	743
▁민선	743
▁넌	743
시장에서	743
박람회	743
▁천연	743
▁달려	743
▁될지	743
▁현직	742
▁매력	742
▁서부	742
릉	742
▁시인	742
▁사람으로	742
▁체계적	742
▁용기	742
▁비자	742
▁참여한다	742
▁여비	742
▁사로잡	742
▁레스토랑	742
▁업체들	741
임대	741
▁동향	741
▁세력	741
▁바이어	741
700	741
연금	741
택시	740
▁어쩔	740
▁연다	740
▁위주	740
▁42	740
롬	740
▁않았어요	740
▁언니	740
▁든다	740
▁전액	740
▁나은	739
▁준비하고	739
▁극대화	739
규칙	739
▁높다는	739
▁막아	739
▁예수님	739
미래	739
시장은	739
눈	739
▁재건축	738
▁프로그램은	738
▁장식	738
▁이론	738
준다	738
교수	738
업무를	738
▁걸린	738
용으로	737
▁다니는	737
▁변화에	737
▁영입	737
▁커졌다	737
▁하루에	737
▁뭔가	737
▁합쳐	737
안보	737
▁용산구	737
심의회	737
할지	736
▁수시	736
▁사실은	736
▁우유	736
▁요구한	736
▁말레이시아	736
▁차량에	736
▁취업자	736
▁조각	736
▁거절	736
▁위생	736
▁건너	736
▁바꿀	735
▁지난주	735
▁불편한	735
▁국회에	735
정책을	735
천여	735
▁학기	734
▁그러	734
▁남긴	734
었지만	734
▁북쪽	734
▁출자	734
했었다	733
▁요인이	733
▁포함되어	733
▁상무	733
▁철수	733
꾼	733
▁일요일	733
▁김종	733
스와	733
▁패턴	732
▁부활	732
▁2,000	732
▁모인	732
으로써	732
차로	732
▁합의한	732
▁되는데	732
▁알리는	732
▁에이	731
▁구성한다	731
▁측의	731
▁대비해	731
▁법관	731
▁추산	731
▁업무협약	731
▁세입	731
▁거론	731
▁중복	731
▁학술	730
민의	730
앞서	730
▁정책의	730
▁헤어	730
▁인적	729
▁에스	729
과학기술	729
▁처분을	729
▁필요성이	729
▁견제	729
77	729
▁한류	728
렸던	728
▁결정한다	728
▁무역분쟁	728
▁청사	728
▁혁신성장	728
▁연대	728
묘	728
▁괴	728
▁우승을	728
화된	727
▁일치	727
▁전해	727
▁동작	727
▁탈퇴	727
▁패스트트랙	727
▁예정된	727
▁모습으로	727
▁영광	727
▁이르면	727
▁지배	727
▁남쪽	727
연수	726
▁전달했다	726
it	726
▁지역으로	726
건을	726
▁제외하고	726
▁초점	726
▁싶	725
박스	725
▁보며	725
담당	725
▁그나마	725
▁부부가	725
▁했을	725
자들의	725
▁공개됐다	725
간의	725
우가	725
▁통일부	725
▁성사	725
▁국민들이	724
당이	724
▁제기된다	724
▁과거에	724
▁결혼식	724
▁간호사	724
▁하려고	724
해지는	724
▁강동구	724
▁생기는	723
▁부르	723
▁관계기관	723
▁음식은	723
▁의제	723
▁영상이	723
▁틈	723
▁찾지	723
▁목포	723
▁메이	723
▁운명	723
▁줄이기	722
▁열기	722
이었지만	722
▁연령	722
렇	722
▁판결이	722
▁규제가	722
정비	722
▁줄여	722
단의	722
▁최적	722
▁리더십	721
▁지원해	721
▁전체의	721
▁일시	721
▁노동당	721
▁그곳에	720
68	720
▁자치	720
▁소개했다	719
폐기물	719
부분	719
경북	719
▁있었다는	719
▁학생들에게	719
▁확정된	719
▁사회적기업	719
▁신분	719
▁편하게	719
▁반려동물	719
▁웹	718
▁노무현	718
AR	718
▁집값	718
아니요	718
▁없다면	718
▁유발	718
▁한쪽	718
▁미니	718
▁레이	718
▁준비하는	718
▁기념식	718
으세요	718
▁독특한	718
딜	718
래도	718
CC	717
▁널	717
▁"1	717
▁만든다	717
▁사진은	717
▁친구들이	717
▁갖게	717
▁잡았다	717
▁입사	717
▁내려가	717
▁너와	717
었을	717
정보를	717
▁당직	716
▁솔	716
▁내수	716
▁합류	716
▁기쁨	716
포인트	716
▁추락	716
밭	716
▁워낙	716
▁참가해	716
▁연일	716
▁자사	716
인터넷	716
▁제품으로	715
건축	715
▁멀리	715
▁환자의	715
▁기한	715
젤	715
▁챙겨	715
▁수습	715
공개	715
▁기소된	715
였고	715
▁박씨	715
만원으로	714
▁주셔서	714
콘텐츠	714
▁경기에	714
밍	714
전국	714
▁횡령	714
▁귀국	714
만여	714
▁척	714
▁즐기는	713
나라	713
▁연예인	713
▁공모전	713
▁해석이	713
▁기준금리	713
웠	713
▁도구	713
▁모습이다	712
자들은	712
농가	712
▁떠난	712
뉴스	712
▁감소한	712
▁격려	712
▁세종시	712
▁양산	712
학기	712
자격	711
▁밝은	711
▁드리	711
▁분실	711
▁반대하는	711
▁무대에	711
하기를	711
▁말로	711
▁바꾸	711
씨에게	710
▁예수	710
▁통증	710
스크	710
▁워크숍	710
▁토론회	710
▁도시재생	710
▁됐다고	710
33	710
▁경향이	709
▁본부장	709
▁공략	709
▁정성	709
▁참가한	709
5,000	709
공동체	709
▁CJ	709
밟	709
▁공화당	709
▁각호의	709
PS	708
▁공연이	708
근로	708
▁예상했다	708
▁오랜만에	708
▁육군	708
▁인정받	708
▁막대	708
▁처방	707
▁탑재	707
▁일할	707
▁후보는	707
▁때보다	707
▁선택할	707
▁고객들	707
었어	707
▁생성	707
▁마련해	707
▁나서고	707
▁주방	707
78	707
▁스튜디오	707
▁간판	706
▁보호자	706
▁포상금	706
기본법	706
▁닭	706
회담	706
안정	706
▁콜	706
▁원고	706
▁간단한	705
▁믿음	705
▁강행	705
▁벌였다	705
지출	705
▁전송	705
▁감각	704
▁불거진	704
▁44	704
▁고객에게	704
▁셀	704
▁선호하는	704
▁구호	704
▁조심	703
운전	703
▁문제의	703
지급	703
▁면허	703
▁실정이	703
▁마스크	703
▁정작	703
비록	703
▁양승태	702
▁말에	702
국이	702
▁익	702
▁말씀을	702
사로	702
▁수백	702
▁장기간	702
▁박사	702
코스	701
실을	701
▁끌	701
▁고르	701
홍보	701
▁좋고	701
▁절차가	701
스코	701
명령	701
▁지갑	701
▁민주	700
만원이	700
널	700
▁확인된	700
▁부천	700
▁국회가	700
동에	700
▁완벽한	700
▁미팅	700
범위	699
▁갑니다	699
▁막판	699
▁언	699
▁소요되는	699
상에	699
▁즐겁게	699
▁나면	699
▁반납	699
▁심판	699
만약	699
됐기	698
▁탈락	698
보안	698
▁조별리그	698
▁입점	698
▁모양새	698
▁방금	698
▁국가의	698
▁없었습니다	698
▁협박	698
▁시대를	698
▁결합	698
삭	698
▁사회적경제	698
하이	698
님이	698
▁제안을	698
사업이	697
▁신흥국	697
▁잠깐	697
숲	697
▁경우에도	697
▁가족들	697
▁표면	697
▁가이드	697
▁시설이	697
▁걱정이	697
이던	697
▁밴드	697
▁토트넘	696
▁보여줄	696
▁규정한	696
▁보내주세요	696
▁골키퍼	696
▁중독	696
▁것만	696
▁아픈	696
▁저기	696
▁정산	696
▁5,000	696
▁액	696
▁상대방	696
보고서	696
▁확인을	696
축구	696
▁딸이	696
에게도	696
▁디자이너	696
▁해지	696
▁기재부	695
▁선택한	695
▁때문으로	695
▁복수	695
▁적용해	695
▁넥센	695
▁공적	695
▁콘	695
▁먹으면	695
▁조사결과	695
▁벤투	695
▁용어	695
Q	695
학자	694
▁신한	694
▁급락	694
원인	694
▁머물	694
▁인테리어	694
▁임대료	693
마켓	693
칼	693
▁시민이	693
IC	693
▁이뤄진다	693
책임자	693
▁결정할	692
▁가져가	692
▁혈	692
▁강경	692
▁중국은	692
▁나이가	692
▁경기도의회	692
▁하도록	692
직을	692
▁정당한	692
양이	692
▁운영위원회	692
▁남북관계	692
▁생겼다	692
▁학업	691
▁국무총리	691
▁웃음을	691
조사를	691
▁몇몇	691
▁센서	691
▁얻었다	691
▁보여주	691
▁이해가	691
합니까	691
▁실종	691
▁생각하지	691
▁추구	691
진단	690
시고	690
▁케이	690
수출	690
▁그와	690
EU	690
▁둘째	690
▁밀려	690
▁김민	690
▁타자	690
▁거죠	690
구는	689
▁계층	689
▁불이익	689
▁연설	689
▁프로그램에	689
▁광장	689
▁민주당이	689
▁예정이라고	689
▁금융위	689
▁대상을	688
▁업	688
▁애플리케이션	688
46	688
지부	688
▁동부	688
민원	688
▁가공	687
▁골목	687
▁뜻이다	687
▁예약을	687
▁용도	687
▁읽고	687
▁이뤄지는	687
▁분당	687
▁업계에서	687
▁연내	687
▁대회에서	687
▁근절	687
▁맡기	686
우는	686
▁무상	686
▁그저	686
▁무대를	686
사장	686
▁빗	686
▁미뤄	686
59	686
▁분산	686
▁능	686
▁사망한	686
▁줍니	686
▁건강에	686
결코	686
그럼	685
▁공감대	685
▁대상은	685
67	685
▁체류	685
▁일원	685
▁재해	685
하셔야	685
정지	685
▁패배	684
▁지켜보	684
대사	684
▁다채로	684
▁흡연	684
▁수차례	684
▁세금을	684
▁공정한	684
렛	684
롤	684
▁관여	683
▁고개	683
복합	683
▁케이크	683
준비	683
▁걸리	683
▁줄일	683
▁관광객이	683
(19	683
▁곽	682
호는	682
스란	682
테크	682
▁성매매	682
▁키워	682
▁면세점	682
▁희망을	682
▁뭘	681
▁주최	681
▁풍경	681
▁오프라인	681
▁빌려	681
▁반영한	681
수수료	681
교실	681
▁서대문구	681
▁등에게	681
▁예전	681
▁알아보	681
▁어르신	680
▁체력	680
▁실망	680
5%)	680
▁바람에	680
▁경찰서	680
▁거뒀다	680
▁무선	680
▁작용	680
▁중요하다고	680
지기	680
▁출동	680
▁이루	680
기간을	680
▁해킹	680
▁바르	680
▁해외에서	680
공유	680
▁공군	679
지사	679
▁결심	679
▁지급하는	679
▁성공한	679
▁원료	679
▁승객	679
▁페스티벌	679
화학	678
▁흥행	678
▁복잡한	678
▁환승	678
▁세운	678
▁예외	678
▁이벤트를	678
▁설립한	678
랭	678
받고	678
▁일종	677
▁계단	677
▁수술을	677
ch	677
기사	677
된다면	677
▁착공	677
▁유포	677
▁자칫	677
▁논란에	677
▁정할	677
▁소환	677
권자	677
서류	677
▁말이다	676
▁문화가	676
치가	676
▁성희롱	676
이거나	676
았습니다	676
▁이해관계	676
▁수강	675
▁나란	675
▁협회	675
▁구정	675
▁누리	675
▁행사에서	675
▁25%	675
다운	675
▁상정	675
▁나타나는	674
공정	674
▁않았고	674
▁배경에	674
▁필요성을	674
핵	674
닐	674
대통령	673
부에	673
상이	673
ra	673
됐을	673
아트	673
▁2005	673
▁응시	673
▁줄이	673
▁차로	673
▁부작용	673
▁타결	672
▁회의록	672
▁세워	672
▁설치한	672
엔터테인먼트	672
▁서해	672
럴	672
▁버닝썬	671
▁국적	671
▁내리는	671
▁배울	671
▁정해진	671
▁할아버지	671
▁영유아	671
▁만났	671
▁결승	671
▁전체가	671
▁선수단	671
▁맹	670
▁다행히	670
▁해석된다	670
핀	670
▁여름철	670
▁지역구	670
▁적립	669
▁민간인	669
▁생겨	669
▁특혜	669
▁합리적	669
▁맡았다	669
▁고객님	669
보전	669
자연	669
▁서울에	669
▁돕기	668
▁용산	668
시설이	668
▁진행해	668
린다	668
▁병역	668
▁달한다	668
▁위에서	667
▁기본계획	667
▁좋았	667
▁약물	667
부대	667
▁못했던	667
일보	667
▁의류	666
▁방문하는	666
▁내년도	666
▁방식이다	666
▁체감	666
▁돼서	666
구가	666
▁바라는	666
▁자립	666
음식	666
▁촉구	666
지검	666
협의체	666
▁하나인	665
▁수량	665
▁가이드라인	665
▁해고	665
▁걸리는	665
▁섬유	665
▁연관	665
▁노동계	665
▁여부가	665
▁규칙으로	664
▁희망하는	664
▁없었	664
▁제조사	664
▁여부에	664
▁솔로	664
▁쓰지	664
▁사회가	664
율을	664
램	664
▁확대하고	663
▁정치인	663
▁채소	663
▁유지하고	663
▁쿠	663
▁의정부	663
업체가	663
음악	663
▁데이트	663
▁자세히	663
스티	663
▁반전	663
문학	663
▁철강	662
▁하세요	662
찌	662
▁대책이	662
▁일반인	662
▁선포	662
자문	662
▁즐겨	662
▁최씨	662
방향	662
-2	662
▁가슴	662
▁순서	662
▁자꾸	662
▁성남시	661
▁실시했다	661
드려	661
▁발생한다	661
▁유지할	661
▁오래된	661
▁많은데	661
▁DMZ	661
▁제공하기	661
▁5000	661
▁조회	661
▁주관부서	661
▁맞이	661
▁없던	660
▁집계	660
료를	660
▁오고	660
▁나누고	660
임금	660
▁응급	660
▁창립	660
캠퍼스	660
▁아르헨티나	659
▁모델이	659
52	659
단장	659
▁휴일	659
▁국내에	659
점으로	659
▁진심으로	659
▁밝혔습니다	659
맡	658
▁몰아	658
▁튀	658
자료를	658
▁뼈	658
▁않다고	658
▁전략적	658
41	658
▁쥐	658
(7	658
역량	658
▁무단	658
▁적발됐다	658
▁만화	658
▁줄이고	658
▁거짓	658
▁설치하는	657
▁오르는	657
▁김경수	657
▁오르	657
▁판단을	657
▁유연	657
▁흔들	657
순위	657
▁증가세	657
▁국외	657
▁확실한	656
▁세포	656
정의	656
▁알려주	656
▁부상을	656
여부를	656
올림픽	656
자유	656
플레이	656
▁충실	656
▁책임자	655
▁사실이다	655
폴	655
소방	655
사들이	655
프레	655
▁60%	655
프리	655
▁작품이	655
▁고령	655
실이	654
대구	654
▁공무원의	654
톡	654
잊	654
▁기후변화	654
▁들었습니다	654
▁마시고	654
▁제기된	654
▁3·1	654
▁재벌	653
▁국무장관	653
▁못하게	653
▁90%	653
▁환전	653
FC	653
▁법을	653
▁보세요	653
▁못한다	653
▁임상	653
코드	653
됐으나	653
▁특별법	653
▁궁	652
▁상관없이	652
빌	652
▁물에	652
▁끈	652
미디어	652
취업	652
▁소비자들이	652
85	652
▁업체들이	652
조를	652
▁화상	651
▁행위가	651
놓은	651
▁예를	651
▁소득이	651
▁실효성	651
▁왔는데	650
▁장악	650
▁이용하여	650
▁저항	650
▁메르스	650
(6	650
▁홀로	650
▁배경으로	650
▁공중	650
▁상징	650
▁개성공단	650
▁내놨다	649
▁수상자	649
이익	649
▁위상	649
▁올리는	649
모임	649
▁권장	649
▁김포	649
▁하나는	649
▁2021	649
▁대북제재	649
▁강좌	649
▁적어도	649
▁업그레이드	648
▁사회에	648
▁찾았다	648
▁실형	648
▁치유	648
▁줄이는	648
▁장관과	648
▁폭염이	648
▁직원을	648
▁선사	648
고속도로	648
▁이재	647
▁달아	647
민주	647
▁걸그룹	647
▁색깔	647
▁극장	647
▁시작할	647
▁시작한다	647
부의	647
▁설치하고	647
▁공백	647
▁수준에	647
▁반입	646
비서관	646
▁군수	646
▁않는다면	646
▁멤버들	646
▁농구	646
▁농업인	646
▁동력	646
▁도달	646
리지	645
초등학교	645
펠	645
▁예정이며	645
▁부모가	645
▁패스	645
▁일부가	644
실에	644
▁시상	644
일반	644
소비자	644
▁오해	644
메이	644
낭	644
▁계신	644
증진	644
롯데	644
▁생산성	644
▁숙제	644
▁흥	644
괴	644
뒀	643
▁영업이익	643
▁꾸준	643
▁김정	643
▁앞장서	643
민간	643
▁독점	643
▁잃은	643
▁한복	642
▁현대자동차	642
▁중국인	642
▁블루	642
▁창고	642
▁간에	642
▁더위	642
▁삶이	642
▁피자	642
▁사무총장	642
주차	642
▁있어도	642
▁가요	642
보세요	642
▁남경필	642
▁아니야	642
IS	642
망을	642
▁안타	642
으신	641
▁고의	641
석을	641
▁영등포구	641
살이	641
▁면에서	641
▁양쪽	641
했으면	641
▁장기화	641
▁라이	640
▁제기했다	640
▁정규	640
순환	640
ic	640
이었어요	640
▁아끼	640
▁청취	640
▁총회	639
▁신청자	639
▁사건과	639
▁시행하는	639
▁읽어	639
▁파손	639
▁끝나는	639
▁학생의	639
데이터	639
률을	639
▁견인	639
▁아마도	639
▁방문할	639
▁진영	639
▁펼치고	638
▁수탁	638
▁초래	638
▁떨어졌다	638
▁도착할	638
▁힘입어	638
협정	638
▁공판	638
졌고	638
▁합병	638
▁느끼고	638
▁태양	638
▁거둔	638
▁경찰관	637
▁투약	637
▁매도	637
▁지목	637
▁어렵게	637
뇌	637
▁경북도	637
▁변호사가	637
의견	637
▁의무화	636
▁단순한	636
▁공간으로	636
▁연료	636
▁세상에	636
▁실력을	636
▁나왔	636
▁흐	636
▁보복	636
채용	636
55	636
75	636
▁KB	636
79	636
▁알지	636
▁고속	636
투표	635
▁나오기	635
▁180	635
▁못했습니다	635
▁책은	635
▁먹어	635
드라마	635
▁가계	635
국의	635
▁불만이	635
▁상권	635
▁십	634
▁현재는	634
▁고수	634
펀	634
▁투쟁	634
야말로	634
행동	634
마크	634
▁미흡	634
▁이후에도	634
군에	633
▁혈액	633
▁보여준	633
저희	633
▁마시	633
▁순으로	633
▁땐	633
▁과감	633
▁복음	633
▁배포	633
▁다음날	633
데요	633
산업단지	633
▁후회	633
몽	632
▁저출산	632
▁많다는	632
▁산업통상자원부	632
▁지도부	632
▁자원봉사자	632
▁금융당국	632
▁포착	632
66	631
대한민국	631
▁키우는	631
▁41	631
▁소스	631
▁도착한	631
▁기억이	631
44	631
▁예전에	631
▁민생	630
▁모색	630
▁강조한	630
▁제품들	630
▁자치구	630
▁기반을	630
▁대전시	630
▁보여주고	630
▁측에	630
▁이해하고	630
▁질의	630
▁저자	630
▁단일	630
▁참여가	630
▁소식통	630
▁했어	630
▁가족의	630
▁감지	630
▁입장이	630
증이	630
▁김동	630
▁국무위원장의	630
▁상해	629
▁공격수	629
▁공직자	629
원에서	629
▁있니	629
▁입주자	629
▁투명	629
▁코스피	629
▁지정한	629
▁순수	629
▁이하로	629
▁탈출	629
▁개선에	629
성에	628
썼	628
▁압도적	628
상으로	628
▁바이러스	628
▁한국교회	628
▁주고받	628
스럽	628
원과	628
▁않는다고	628
▁역전	627
되던	627
▁합의했다	627
▁순환	627
융합	627
▁단위로	627
▁약세	627
▁마음으로	627
▁투입해	627
▁최고위원	627
▁드루킹	627
▁되는지	627
주셔서	627
▁스위스	626
▁살려	626
▁집중되고	626
▁명동	626
▁요구하고	626
▁취하고	626
▁냉	626
드린	626
▁더해	626
▁다문화	625
▁무조건	625
▁국면	625
▁날인	625
▁감소했다	625
▁제보	625
해당	625
69	625
▁안정적으로	625
88	625
아웃	624
▁3000	624
▁착	624
관에서	624
▁이성	624
▁형제	624
▁복용	624
▁디자인을	624
▁가족을	624
▁안정성	624
▁그래	624
▁부패	624
▁비준	624
스마트	623
▁법원행정처	623
▁본선	623
내년	623
▁이어져	623
▁확보를	623
▁알리	623
▁낮아	623
▁제공해	623
구매	623
▁유리한	623
▁시계	622
맑	622
▁경유	622
▁구의	622
▁얼음	622
▁비트코인	622
▁농장	622
놓고	622
▁이외에	622
▁생물	622
굴	622
47	621
▁보건소	621
으려	621
▁커플	621
▁환경에	621
▁김용	621
▁귀가	621
▁이름으로	621
▁컵	621
승인	620
▁아무도	620
▁골을	620
청은	620
▁이용이	620
▁입장에서	620
짐	620
나눔	620
정이	620
지침	619
▁결의	619
▁개관	619
▁업체에	619
▁넣고	619
봐	619
▁불어	619
▁꼽히는	618
▁전인	618
▁나타난	618
▁중부	618
▁변신	618
▁뒤집	618
▁답장	618
▁강화하는	618
▁류현진	618
▁등록된	618
▁기록하며	617
故	617
▁전반적	617
▁환경에서	617
▁고백	617
▁함유	617
▁사인	617
제작	617
▁중순	617
▁일본인	617
▁자를	617
법은	616
운반	616
▁접수된	616
▁압력	616
중구	616
▁상자	616
경이	616
▁문화체육관광부	616
▁미래에	616
지정	616
▁남용	616
▁전후	616
랄	616
▁신청이	616
▁선보인	616
▁월드	616
▁졸	616
▁상의	615
▁여론조사	615
▁짐을	615
▁지어	615
▁추측	615
▁재미있	615
청와대	615
▁핀테크	615
▁스트레스를	615
▁묻	615
▁잠실	614
임에도	614
▁의혹과	614
▁신기술	614
▁처리하기	614
▁개최된다	614
셔야	614
▁세탁	614
이든	614
▁장소에	614
▁열악한	614
▁여성들이	614
▁의원을	614
▁의무를	613
43	613
▁교원	613
▁이어가고	613
▁진흥	613
득점	613
▁같아서	613
▁추진하기	613
▁대학에	613
▁확인이	613
▁가져다	613
▁고통을	613
회의에서	613
▁사랑의	613
▁축구대표팀	613
▁전무	613
▁Y	612
▁태도를	612
▁치즈	612
▁상당수	612
제주	612
▁가중	612
▁추진해	612
▁경제에	612
▁서면으로	612
▁대안	612
지원을	612
▁업소	612
▁경기지사	612
▁근무하는	612
▁높아질	611
▁편입	611
▁밀어	611
▁공급이	611
▁이뤄지고	611
▁숨졌다	611
▁상인들	611
▁안전하고	611
▁고지	611
▁메모리	611
▁제어	611
리어	611
사유	611
▁구조를	611
▁획득	611
▁들려	610
▁등재	610
▁전수	610
위의	610
▁견해	610
세트	610
▁경영진	610
▁관객들	610
▁봐도	610
▁의거	610
거든요	609
▁대회에	609
▁군인	609
▁연도	609
▁방송된	609
▁월급	609
▁조세	609
수행	609
▁이뤄	609
▁결정한	609
청이	609
▁자신에게	609
▁환자들	609
▁생겼	609
▁양천구	609
▁환수	608
▁감안해	608
켜	608
▁잡지	608
달라고	608
▁수익률	608
▁차지하고	608
▁변호인	608
▁서울과	608
▁이적	608
노동자	607
받았던	607
윈	607
▁늘려	607
시간에	607
▁46	607
▁고생	607
회원	607
▁창문	607
▁상향	606
이미	606
▁있었어	606
▁알았	606
▁민주평화당	606
▁안심	606
▁물건이	606
▁드러난	606
▁세계적	606
▁남자가	606
64	605
▁거두	605
▁피고인	605
▁교정	605
▁전화번호	605
▁계시	605
▁승무원	605
▁나라가	605
월말	605
▁시일	605
▁센	605
▁바뀐	605
▁화합	605
MS	605
▁줘	605
골을	604
뢰	604
▁지문	604
▁혜택	604
▁치열	604
▁시리아	604
▁공사가	604
▁성격이	604
▁전투	604
▁했으나	604
▁일반적으로	603
▁컨테이너	603
▁빨라	603
▁결정에	603
벤처	603
유럽	603
▁모은다	603
관리를	603
강사	603
▁자재	603
▁많을	603
▁한국으로	603
▁전문기관	603
▁재활	603
▁개장	603
미술	603
▁주식을	602
▁유학	602
▁것이며	602
▁편리하게	602
▁발언이	602
어린이	602
▁고인	602
▁시작하는	602
▁학과	602
▁일어날	602
▁오기	602
▁횟수	602
보육	602
▁산책	602
어진	602
▁추억	601
▁소득주도성장	601
▁합리적인	601
▁잡는	601
강원도	601
청사	601
▁단가	601
타워	601
▁자에게	601
▁과제를	601
친화	601
▁옥상	600
확	600
2)	600
▁분기	600
▁이른다	600
▁총재	600
▁괜찮으	600
▁첨부하여	600
▁선전	600
기준을	600
▁외모	600
▁반박	599
▁대화가	599
대금	599
▁활용하는	599
▁공지	599
▁나누는	599
▁하원	599
▁외출	599
떡	599
▁베네수엘라	599
덴	598
▁추정된다	598
▁만나고	598
▁무장	598
▁돌아오	597
상가	597
▁군대	597
▁기숙사	597
▁끊이지	597
▁타당성	597
▁표기	597
▁성공적인	597
▁주목받고	597
▁고민이	597
▁호평	597
▁아시아나항공	597
▁아픔	597
▁인상이	597
▁책정	597
▁침수	597
▁활발한	596
▁구로구	596
뱅크	596
▁평창	596
▁생각보다	596
▁원합니다	596
공사가	596
▁문재인정부	596
▁떼	596
▁출고	596
▁얼굴이	596
▁경관	596
지방자치법	596
▁쟁점	595
▁쳐	595
▁확대될	595
넥	595
많은	595
라서	595
▁파는	595
▁끝날	595
▁직장인	595
▁않았	595
▁지사의	595
▁회동	595
▁창업자	595
일로부터	595
▁도의	595
소재	595
▁바쁘	594
z	594
▁모습은	594
900	594
활성화	594
수로	594
▁행사로	594
▁센터장	594
▁비타민	594
▁협력해	594
▁고려할	594
▁소식	594
지요	593
▁비공개	593
팀을	593
바람	593
▁손가락	593
▁삼아	593
▁타는	593
▁쪽에	593
▁공로	593
▁공정성	593
▁읽	592
▁얻는	592
▁개발이	592
져서	592
▁금융위기	592
▁있기를	592
▁조합원	592
전환	592
▁대표를	592
자마자	592
그가	592
▁넘어서	592
금이	592
조성	591
▁경기도에서	591
트는	591
▁중반	591
▁입양	591
▁챔피언	591
▁반성	591
▁증가할	591
▁총수	590
▁방침을	590
▁단서	590
▁당황	590
▁추구하는	590
▁모르겠어요	590
▁기자들	590
▁남편이	590
▁찾으	590
로써	590
보조	590
▁포스터	590
▁뛰	590
▁취할	590
하듯	589
업종	589
지역에서	589
▁보석	589
▁수영장	589
▁당했다	589
▁자제	589
▁일산	589
동이	589
▁협의체	589
▁가격으로	588
▁몰래	588
운송	588
▁댄스	588
▁천천히	588
책을	588
곳에서	588
으니까	588
▁찾아가는	587
▁지속될	587
회관	587
▁작전	587
▁확립	587
▁지분을	587
▁FA	587
▁액션	586
▁일도	586
▁샤	586
주로	586
▁비디오	586
▁분석해	586
▁우려도	586
론이	586
▁800	586
▁도정	586
▁저지른	586
이었습니다	586
그룹이	586
▁비건	586
▁나지	586
전화	586
▁사회를	585
▁제작한	585
아니	585
▁해주	585
▁오후에	585
▁인원이	585
머니	585
▁탁월	585
▁3,000	585
▁집이	585
▁김상	585
▁가득한	585
▁최우선	584
▁확인하는	584
▁공세	584
▁신원	584
▁연기가	584
▁절약	584
▁지원금	584
▁접수한	584
▁대상에	584
▁투명성	584
안타	584
▁물리	584
▁자녀가	584
▁면역	584
▁부문에서	584
▁연계해	584
▁시나리오	584
▁고령화	583
▁처리할	583
▁심의회	583
▁연결하는	583
샌	583
▁노력할	583
▁선보이는	583
▁제기되고	583
▁대법원장이	583
▁일선	583
▁주어진다	582
▁같네요	582
▁경기도청	582
기한	582
어로	582
▁구성해	582
▁교복	582
▁5%	582
▁지낸	582
▁유효	582
▁쏟아	582
▁가르쳐	582
▁직접적인	582
없	582
99	582
▁국회의장	581
▁높아졌다	581
▁클래식	581
▁가자	581
▁지원대상	581
▁시간과	581
▁신장	581
▁아니하다	581
▁초등학생	581
▁인증을	581
▁싱글	581
▁주류	581
팔렘방	581
▁초콜릿	581
▁양보	580
▁집안	580
소장	580
멘	580
▁갑질	580
▁허락	580
트라	580
왔던	580
▁이후로	580
설명회	580
▁악취	580
▁수업이	580
~	580
▁선교	579
▁공유하고	579
계약을	579
정당	579
해진다	579
▁페이지	579
북부	579
▁저한테	579
▁바라요	579
템	579
▁악재	579
▁계약이	579
▁인정한	579
▁배우자	579
▁때에	579
▁특강	579
행복	578
품을	578
▁온실가스	578
▁서민	578
0,000	578
영업	578
급식	578
▁불가능하다	578
▁나섰	578
▁투자유치	578
▁의료진	578
▁내기	578
▁목적이	578
▁힘들다	578
▁발매	577
확대	577
▁고객들이	577
▁문제와	577
▁작가가	577
위원회를	577
▁건강보험	577
▁똑같은	577
광장	577
▁대금	577
▁파워	577
▁바라보는	577
효과	577
▁치솟	577
▁싶어서	577
▁할게요	577
▁가능하다는	577
▁효과적으로	577
▁난다	576
▁칭찬	576
사업장	576
▁도민의	576
▁마찬가지	576
▁트럭	576
▁가전	576
▁저소득	576
외국인	576
▁옵션	576
▁페이스북에	576
▁갚	575
▁받으면	575
▁금방	575
▁조사할	575
▁발병	575
▁수사권	575
▁개최한	575
▁무관	575
▁노력하고	575
▁김성태	575
▁받으며	575
▁화해	575
▁공표	575
▁중계	575
▁정면	575
▁경매	575
▁이동통신	575
▁기술과	574
▁고위급	574
▁일반적인	574
▁무시	574
지인	574
▁배우는	574
가능	574
▁이들에게	574
▁남북이	574
▁묶	574
줬다	574
▁주시겠어요	573
▁이뤄졌	573
▁방역	573
▁떨어진다	573
▁완공	573
▁고려한	573
▁국정원	573
▁눈빛	573
▁몫	573
▁제공된다	573
▁위험한	573
종의	572
▁시민의	572
노선	572
▁못하면	572
▁공조	572
▁후에도	572
▁주장하고	572
▁내용이다	572
짧	572
▁동해	572
▁연동	572
▁모집한다	572
▁아울러	572
▁마련하고	571
▁공시가격	571
▁내면	571
▁무엇인가요	571
하긴	571
▁국세청	571
요청	571
이므로	571
▁안성	571
▁저지	571
요구	571
인재	571
▁예매	571
치기	570
▁강렬	570
▁있었는지	570
▁언론에	570
검찰	570
사람	570
▁시켜	570
▁자진	570
▁위치해	570
깊	570
▁구경	570
▁푸틴	570
▁화성시	570
세로	570
겠	570
마당	570
▁송도	570
▁시원	570
▁혐오	569
부동산	569
스테이	569
▁슛	569
▁뚜렷	569
▁정수	569
소비	569
▁프랜차이즈	569
▁되기를	569
텔레콤	569
▁군산	569
▁방탄소년단	569
▁생기면	569
▁가능하고	568
▁자유한국당이	568
튜	568
▁성장이	568
▁재생	568
보상	568
▁어렵습니다	568
▁다들	568
▁긍정적으로	568
▁남아있	568
구의	568
▁광화문	568
▁가져	568
분간	567
틸	567
▁어려웠	567
▁남겨	567
▁외면	567
▁쌓아	567
▁고성	567
역에서	567
▁여사	567
법률	567
▁결과로	567
▁정서	566
▁피아노	566
▁펜	566
▁전격	566
▁본청	566
화물	566
▁궁금해	566
운영에	566
▁남측	566
▁원가	566
▁이어진다	566
▁농협	566
▁재개발	566
▁가상	566
▁용인시	565
▁입장에서는	565
▁교과	565
▁늦은	565
▁체결한	565
▁펼쳤다	565
고문	565
▁건물이	565
▁49	565
at	565
기관이	565
▁대대적	565
던데	565
▁시청자	565
바다	565
▁그쳤다	565
▁부회장이	565
▁제조업체	564
▁일가	564
▁KBO	564
▁채무	564
▁민관	564
▁연구팀	564
▁의약품	564
▁선행	564
▁많았고	564
▁파주시	564
▁자택	564
▁나타날	564
▁도모	564
기계	564
▁밝혀졌다	564
언론	564
▁목사가	564
어린이집	563
북한이	563
이었고	563
▁없으며	563
▁따르	563
▁취지로	563
▁견적	563
2000	563
▁적용할	563
▁유인	563
▁PD	563
과목	563
간다	563
54	563
사인	563
▁자발적	563
계좌	562
줘	562
▁쉽고	562
▁해임	562
▁그중	562
▁미루	562
▁예상보다	562
로드	562
▁유감	562
연이	562
▁51	562
▁눈치	562
▁유지하는	562
▁선보였다	562
▁종일	562
▁상세	562
여자	562
▁정상회담에서	562
청구	562
▁가족들이	562
▁자율적	562
▁매출액	562
▁금연	561
수영	561
▁경쟁력이	561
위기	561
▁코스닥	561
▁관절	561
겐	561
▁화장	561
▁걸렸다	561
▁구제역	561
▁효과적인	561
▁준비해	561
▁삶	561
▁나타나고	561
브랜드	561
▁잠정	561
비와	561
▁먹이	561
토론	561
▁공직	560
▁갖는다	560
스러워	560
▁경제정책	560
▁만들었	560
▁청탁	560
▁무더위	560
▁사내	560
이제	560
▁어때	560
▁전당대회	560
▁실시간으로	560
▁영하	560
▁관점에서	560
▁발간	560
세력	560
▁걸고	560
▁유기	560
∼6	560
▁반영해	560
럭	560
DC	559
렸지만	559
▁봉투	559
흐	559
▁금융회사	559
▁시점에	559
내기	559
봤다	559
▁코너	559
▁독도	559
▁있었기	559
돋	559
주일	559
▁개인이	559
▁치고	558
▁말하고	558
▁일자	558
▁산업이	558
▁불확실성이	558
▁교통안전	558
▁손님이	558
▁첫날	558
▁벤처	558
▁사연	558
▁추후	558
민주당	558
로스	558
▁묘	558
▁골라	558
▁당내	558
▁학부모들	558
▁전역	558
▁대학이	557
▁사람들과	557
담당자	557
사항이	557
호를	557
▁유의	557
▁과실	557
▁벌어졌다	557
▁언제든지	557
▁여름에	557
▁지시했다	557
수탁자	557
단위	557
▁칸	557
▁현역	557
▁그거	557
▁코인	557
▁아래와	557
▁내륙	557
▁산출	557
▁넘겨	556
▁정도다	556
▁여는	556
킬	556
매체	556
▁폭우	556
▁속한	556
MA	556
▁누락	556
▁무언가	556
▁자금이	556
▁취약한	556
▁상업	556
▁태어나	556
▁있었	556
기간은	556
현황	556
▁중이에요	555
▁질서	555
▁찌	555
▁기자회견에서	555
▁인보이스	555
털	555
▁대목이다	555
▁선정한	555
장에게	555
셔서	555
▁않았을	554
전용	554
▁드러내	554
▁약속했다	554
▁전체를	554
▁75	554
▁이슈가	554
▁간다	554
먼저	554
▁유가	554
▁것이었다	554
▁정해	554
깨	554
▁최고경영자	554
▁호텔에	554
▁최우수	554
질서	554
▁비서실장	554
▁길에	554
수단	553
▁주간	553
▁700	553
해지면서	553
▁누릴	553
▁수비수	553
▁사후	553
희망	553
▁떨어질	553
▁볼거리	553
▁출구	553
▁굳이	553
▁뚜렷한	553
▁넘기	553
▁중대한	553
▁많아요	553
▁회피	553
▁미친	553
▁의원과	552
▁유물	552
▁어렵다고	552
▁케이블	552
▁너한테	552
▁삼성바이오로직스	552
▁바꾸는	552
수도	552
건에	552
▁늘리는	552
▁영화의	552
▁살아가는	552
▁쪽에서	552
▁봅니다	552
▁잇는	552
▁알기	552
▁자격이	552
누리	552
앱	552
▁불참	552
▁노조가	552
▁노동자들	552
▁스캔들	551
▁백신	551
▁공론화	551
▁라디오	551
인에게	551
▁장벽	551
▁거세	551
▁어릴	551
하셔서	551
놀	551
et	551
▁47	551
▁재심	550
▁중소기업이	550
▁거라	550
▁관심사	550
▁보좌관	550
▁예쁜	550
▁출판	550
▁용이	550
▁동남아	550
이번에	550
▁정신적	550
▁단체에	550
집단	550
▁헌신	550
▁다해	549
▁신속히	549
센터장	549
▁적절	549
▁인명피해	549
▁시청률	549
▁사진과	549
▁혼자서	549
▁일본에	549
▁앙	549
▁그녀를	549
▁객관적	549
▁받았	548
▁판교	548
▁중국어	548
▁‘20	548
액은	548
▁사육	548
▁호기심	548
기관에	548
▁기사를	548
단속	548
▁맺은	548
잘	548
▁중이던	548
▁시상식	548
▁부당한	548
잖아요	548
▁썼다	548
▁마련할	548
▁책임감	548
▁주사	548
모씨	548
▁절차에	547
뜻	547
▁까	547
▁일괄	547
임이	547
건축물	547
▁복잡	547
▁상태에	547
▁하나님이	547
점에서	547
▁결렬	547
▁세무	547
▁심의위원회	547
▁겨울철	546
▁유독	546
▁책상	546
되는데	546
▁알려졌	546
반도체	546
▁아트	546
▁지방정부	546
나갈	546
▁정준영	546
▁평소에	546
▁웹사이트	546
▁선배	546
졌지만	545
획	545
▁자율주행	545
▁일으킨	545
▁회계연도	545
8%)	545
계의	545
▁영구	544
비치	544
▁기관에	544
베리	544
▁조국	544
▁포즈	544
▁장착	544
▁기술개발	544
폭력	544
▁미치지	544
샵	544
▁생긴다	544
▁학계	544
▁말하기	544
▁선보일	544
수석	543
맞	543
▁양육	543
▁달했다	543
▁기량	543
▁관리하여야	543
▁상주	543
▁과학기술정보통신부	543
▁정기적으로	543
▁권위	543
▁진행되며	543
상은	543
▁줄어드는	543
72	543
▁지원자	543
▁감사하겠습니다	542
▁해결책	542
러시아	542
에서부터	542
▁130	542
배가	542
주시면	542
ro	542
님께	542
성적	542
층에서	542
▁과도	542
0%)	542
▁아니에요	542
▁승소	542
▁리콜	542
▁2004	542
하기에	542
▁체계적으로	542
주시겠어요	542
▁시스템이	542
▁언제쯤	541
▁살기	541
덩	541
▁2002	541
▁설치해	541
▁일본은	541
▁알려지면서	541
ES	541
▁들었어요	541
▁구매한	541
▁월요일에	541
▁선생	541
▁일상생활	540
끼리	540
NA	540
▁사법농단	540
▁앱을	540
개월이	540
▁펼칠	540
▁교수님	540
▁늘면서	540
▁프로그램이다	540
▁시작되는	540
▁만나서	540
▁의미한다	540
▁피부에	540
▁시행계획	540
▁상하이	540
▁크리스	540
▁추진에	540
신청서를	540
▁추진한	540
▁부사장	539
▁엠	539
▁수행하기	539
해볼	539
▁정류장	539
▁한달	539
▁춘천	539
▁떡	539
▁규정하고	539
듯이	539
▁앞으로는	539
궐	539
63	539
일정	539
▁생산하는	539
▁해줄	539
▁부상으로	539
▁내부에서	538
작가	538
▁매진	538
▁증인	538
▁대표적	538
▁붙잡혔다	538
효과가	538
맺	538
▁밖에서	538
▁운영자	538
▁정체성	538
스피	538
▁데이	538
위원회에	538
▁학교가	538
▁작업에	538
ri	538
딘	538
채권	538
▁한꺼	538
▁중심에	538
▁도의회	537
해달라고	537
주차장	537
큰	537
▁제공한	537
▁부족해	537
▁사업계획	537
삼성전자	537
▁국장	537
신용	537
▁신약	537
대장	537
▁어렵고	537
내역	537
▁법무	537
▁앤	537
▁주위	537
봐야	537
▁프라	537
소프트	537
영국	536
▁골프장	536
▁인천공항	536
th	536
▁"19	536
스토	536
▁영화가	536
▁다를	536
▁압	536
▁여주	536
▁잉글랜드	536
▁용의자	536
▁의사소통	536
해주셔서	536
해주시기	536
▁석방	536
▁발표된	535
▁들어간다	535
오고	535
▁개최되는	535
▁급증	535
대학원	535
▁듣기	535
기술을	535
▁바쁜	535
▁시범사업	535
▁궁금	535
▁보도에	535
▁금융감독원	535
▁폴	535
▁제작진	535
▁세제	535
줬	535
▁쿠폰	535
상황을	535
▁폭으로	535
▁젖	535
▁숨지	535
▁전국적으로	535
▁인가	535
▁협상에	534
▁추첨	534
76	534
▁중심이	534
물품	534
▁판단해	534
지면	534
▁서울시장	534
▁날아	534
▁나타냈다	534
▁김기	534
▁신세계	534
0.0	534
행위를	534
▁배운	534
▁관계자가	534
▁우리은행	533
▁독자	533
▁출퇴근	533
▁켜	533
종이	533
▁당부	533
싸	533
▁이외의	533
▁상황은	533
▁남한	533
쟁	533
▁근데	533
콩	533
장소	533
▁오피스텔	533
변호사	533
실무	532
▁겪은	532
가장	532
▁거리에	532
▁오리	532
▁일어나는	532
▁업체의	532
하이닉스	532
▁올리	532
74	532
▁출력	532
▁확대할	532
문서	532
▁못해서	532
▁배분	532
▁옮기	532
됐는지	532
▁해촉	532
▁도주	532
▁때문이라고	532
▁감사드립니다	532
▁일로	532
▁들어온	532
▁확대에	531
차전에서	531
▁유착	531
▁메일로	531
▁우대	531
▁미술관	531
53	531
▁선생님이	531
OS	531
▁쉴	531
▁성관계	531
▁양질	531
▁중재	531
▁결단	531
▁해가	531
▁여자가	531
▁내리고	531
▁우린	531
▁합의안	531
▁노트북	531
▁위안부	531
▁모델로	530
▁손흥민이	530
▁가졌	530
속도	530
▁행사장	530
▁선정해	530
▁길게	530
▁자녀들	530
▁마르	530
▁약한	530
▁말씀해	530
▁안양	530
▁협동조합	530
▁흑	530
공시	530
구간	529
스키	529
▁흐름이	529
▁이해찬	529
시장이	529
▁라면	529
▁여러분이	529
한데	529
빅	529
▁어린이들이	529
외교	529
브리	529
▁동구	529
▁빛을	529
▁줬다	528
▁불리	528
▁들었	528
▁요구에	528
협회가	528
▁아이들에게	528
▁공무	528
▁금융위원회	528
▁서둘러	528
▁불신	528
웨어	528
▁도와주	528
▁꼽았다	528
예를	528
▁선별	527
호와	527
▁수혜	527
▁자고	527
▁공격을	527
▁사용되는	527
▁느껴	527
▁태어난	527
▁어른	527
▁전술	527
▁바지	527
▁환급	526
▁모르겠다	526
물류	526
▁부족하다	526
천억원	526
▁소폭	526
▁실력이	526
해양	526
하느라	526
▁생기	526
델	526
▁출신의	526
▁목적을	526
▁개정안이	526
▁치르	526
▁빨	526
▁열리고	526
주식	526
첨	526
▁FTA	526
통제	526
▁타임	526
▁결정된	525
58	525
▁시기를	525
▁그리스도	525
▁유죄	525
그린	525
▁갖추	525
▁안고	525
▁돼야	525
가치	525
버린	525
▁요청이	525
스럽게	525
▁맞춘	525
▁삼성바이오	525
▁후보로	525
st	525
▁나라에서	525
꾸	525
▁정도는	525
▁자리매김	525
진영	525
금은	525
▁평일	525
▁원정	524
▁발표할	524
▁제임스	524
▁만기	524
▁축산	524
▁좋아하지	524
여부	524
방문	524
▁벌여	524
대행	524
당신이	524
▁예금	524
▁체육시설	524
▁장려	524
▁뻔	524
▁웃음	524
▁이정	524
▁부총리는	524
▁상한	524
▁실습	523
▁경보	523
▁전반적으로	523
▁알리고	523
율은	523
▁좋게	523
▁아티스트	523
▁재미있는	523
어도	523
▁평화의	523
▁붙잡	523
▁주자	522
▁원내	522
▁사람도	522
수리	522
▁적용되는	522
▁체크인	522
사이트	522
▁위반한	522
▁책이	522
▁적게	522
▁급속	522
▁부리	522
스럽다	522
▁참석하는	522
스로	522
▁무너지	522
봉사	522
▁주십시오	522
▁받았다고	522
▁먹기	522
▁그곳에서	522
▁선고받았다	521
▁지정할	521
▁상점	521
▁손쉽게	521
▁확보했다	521
▁좋다고	521
▁피로	521
▁부장	521
▁편이	521
▁태극기	521
야구	521
▁근대	521
▁불평등	521
▁보행	521
더라고요	521
▁않았어	521
▁일어났	520
발전소	520
여대	520
▁언론들	520
▁교회가	520
▁도입한	520
▁애정	520
▁게시판에	520
▁모르	520
팬	520
▁염두	520
길이	520
▁언젠가	520
틱	520
▁해경	520
▁방문을	520
납니다	519
▁선거에서	519
▁검출	519
태평양	519
▁분식회계	519
▁전임	519
▁감사원	519
3%)	519
구민	519
▁팬들이	519
▁재선	519
▁받아들여	519
▁실질적	519
6%)	519
56	519
▁시원한	519
▁롤	519
▁지나면	519
▁봐요	519
▁청년들	518
▁공제	518
▁환경오염	518
▁다루	518
▁말도	518
▁카드사	518
워드	518
▁주한미군	518
▁거치	518
▁뜻이	518
▁추천해	518
▁터지	518
▁분할	518
해준다	518
부모	518
▁나오면	518
▁어디에서	518
마이	518
▁JTBC	518
▁취한	518
빵	518
▁대응을	517
▁유예	517
▁되어있	517
▁대략	517
▁입어	517
▁생각했다	517
비로	517
몸	517
▁각급	517
우수	517
▁경기도민	517
▁여가	517
내고	517
▁잡을	516
▁분석도	516
▁방법에	516
의약품	516
▁어울리는	516
주에	516
▁지지율	516
▁놀러	516
▁논의했다	516
▁생명을	516
▁녹음	516
▁현지에서	516
▁외식	516
지방자치단체	516
▁살았	516
▁속에는	516
▁출동한	516
▁54	515
▁두려움	515
우리나라	515
▁검진	515
▁주장한	515
▁밀접	515
▁중간선거	515
보관	515
동향	515
▁감사의	515
▁아직까지	515
▁입구	515
▁고용부	515
▁지은	515
▁적합	515
▁오사카	515
▁멀	515
▁습관	515
▁실명	514
▁전국의	514
▁의상	514
▁오늘도	514
▁고도	514
▁수강료	514
니스	514
쇄	514
▁예선	514
▁신조	514
▁결정하는	514
BC	514
▁쪽은	514
▁대부	514
▁금천구	514
▁마련돼	514
하였고	514
겨울	513
▁지난해보다	513
▁재차	513
▁김동연	513
▁넘겨진	513
드라	513
심사위원회	513
▁반품	513
▁살짝	513
▁확실	513
좋은	513
▁제휴	513
하시나요	513
위탁	513
▁청소년들이	513
해달라	513
비스	512
종을	512
되지만	512
▁참석할	512
▁쏠린다	512
▁성분이	512
▁낚시	512
식물	512
▁올릴	512
▁네덜란드	512
▁나랑	512
▁추세다	512
▁관계공무원	512
▁결재	512
▁브리핑	512
▁우위	512
▁단계에서	512
▁모은	512
▁하위	512
▁보험금	512
▁법원의	511
▁아닌지	511
▁공유재산	511
관리에	511
▁인지도	511
▁고등학생	511
▁프로그램으로	511
▁농어촌	511
▁불가피하다	511
▁기간은	511
▁우정	511
(8	511
냉	511
▁마쳤다	511
자재	511
▁경고했다	511
보기	511
▁확대해	511
▁리모델링	510
심사를	510
▁혁신을	510
▁구축을	510
▁도청	510
▁아닐	510
에서만	510
▁윤씨	510
▁타인	510
▁발생하면	510
▁왜곡	510
▁공급하는	510
▁챔피언스리그	510
새로운	510
▁비위	510
▁학생과	510
▁시중은행	510
음이	510
▁공정거래위원회	510
▁보강	510
내용을	510
▁라이브	510
▁나노	510
▁사회공헌	509
▁아프	509
▁중앙정부	509
▁세무조사	509
▁수익성	509
▁처한	509
있어	509
▁해주는	509
학년도	509
▁남기	509
▁주도하는	509
대상은	508
▁구두	508
▁언제든	508
▁녹지	508
▁촉구하	508
▁스탠	508
▁커버	508
▁그녀에게	508
▁국토	508
▁결산	508
▁멀티	508
▁중국산	508
▁속속	508
세종	508
이들은	508
▁하도급	508
사에서	508
로우	508
▁효율성	507
롭게	507
ol	507
▁명성	507
▁무한	507
봤	507
▁모드	507
▁통계청	507
▁유용	507
옳	507
▁찾았	507
최저임금	507
▁갔습니다	507
서부	507
피스	507
▁서울중앙지법	507
▁여동생	506
▁걸로	506
▁생각할	506
▁심의하기	506
▁베이	506
▁웨이	506
과정을	506
즐	506
괄	506
▁시행할	506
▁과반수의	506
▁열쇠	506
느라	506
▁이었다	506
▁매뉴얼	506
▁조건으로	506
▁편견	506
▁행정기관	506
권의	506
이즈	506
톱	506
선언	506
▁상인	506
▁고등	506
쾌	506
제약	505
▁내용으로	505
▁벌이	505
▁청년들이	505
여기	505
근본적인	505
▁매물	505
▁오늘날	505
▁정책과	505
▁치료가	505
비아	505
▁내용과	504
▁지내고	504
남동	504
▁행복하게	504
사이	504
▁공유하는	504
il	504
▁하향	504
▁잡기	504
▁아이들은	504
▁아니었다	504
▁숨겨	504
▁곳도	504
62	504
하네요	504
월드컵	503
▁사서	503
▁소매	503
▁나라를	503
▁인생을	503
주체	503
위생	503
▁감상	503
▁남지	503
됐는데	503
▁맺고	503
▁위원에게	503
▁혜	503
▁합니까	503
▁가능한지	503
▁낭비	503
▁등이다	503
▁여수	503
검찰은	503
밝	503
▁어때요	502
▁흰색	502
▁악용	502
▁시각이	502
안녕하세요	502
▁주최하는	502
우주	502
▁호남	502
▁퍼포먼스	502
▁숨지고	502
강의	502
▁낫	502
▁맞춤	502
층이	502
▁풀이	502
▁읽는	502
▁청산	502
▁크로스	502
▁보냈	502
▁옛날	502
경보	502
▁마사지	502
체가	502
▁시연	502
▁재현	502
▁인사가	501
▁접어들	501
법상	501
사단	501
네트워크	501
▁상실	501
▁북핵	501
▁수분	501
▁장난감	501
▁행정처	501
▁보고를	501
일부	501
▁등판	501
▁알아야	501
력과	501
▁먹지	501
84	500
리와	500
▁단체가	500
이밖에도	500
▁조건이	500
▁취해	500
인원	500
▁자료가	500
▁연세대	500
그렇군요	500
▁단행	500
▁동화	500
싫	500
탓	500
71	500
▁지루	500
▁텔레비전	500
▁종전	500
보니	499
▁가능성에	499
▁프로모션	499
▁대입	499
미술관	499
▁동작구	499
▁염증	499
▁인간이	499
▁강화하기	499
▁안산시	499
드리겠습니다	499
검사를	499
▁밝혔	499
▁급격한	499
▁권익	499
PC	499
▁올라오	499
▁평택항	499
▁교과서	499
▁점검하고	499
후보	499
▁떨어졌	499
공학	499
지표	499
▁수확	498
▁기록물	498
▁소셜	498
시책	498
▁되어야	498
▁사장님	498
▁선정했다	498
협동조합	498
▁경영권	497
▁갑	497
▁잘하는	497
▁보고서에	497
▁밖	497
지게	497
▁국산	497
▁미세	497
▁기업으로	497
▁대변	497
▁만나기	497
▁손으로	497
▁휴가를	497
티브	497
비용을	497
▁핫	497
▁벌이는	497
재해	497
▁확보하고	497
내에	497
▁장사	497
▁협정	497
▁기피	497
▁대목	496
▁있느냐	496
▁국채	496
-0	496
▁금융시장	496
▁모니터	496
소통	496
▁공방	496
▁증가로	496
▁재학	496
▁증권사	496
▁꿈이	496
연료	496
▁이천	496
▁구도	496
▁한국은행	496
▁크림	496
▁스티븐	495
▁정시	495
▁사건으로	495
벤처기업	495
분부터	495
쫓	495
▁원천	495
▁참가자들	495
▁빠졌다	495
▁흙	495
지원금	495
현지시각	495
일방적으로	495
▁노출되	495
용역	495
▁당사	495
▁붉은	495
▁연구위원	495
▁양성평등	495
닌	495
▁향상에	495
해서는	495
▁갔어요	494
레이션	494
▁전략이	494
설이	494
▁불과하다	494
▁변경할	494
▁괜찮은	494
학적	494
▁공항에서	494
▁최상	494
▁고대	494
▁단점	494
▁싶다는	494
▁얘기가	494
▁기적	494
▁김진	494
▁봤을	494
▁이모	494
▁인스타그램	493
관리법	493
▁여파로	493
▁우울	493
▁박원순	493
▁봤	493
▁붙어	493
▁1.5	493
▁현장의	493
▁거쳐야	493
▁세계를	493
▁출간	493
▁오빠	493
공공기관	493
▁전신	493
CEO	493
▁하고자	493
▁깨닫	493
▁동결	492
▁확보할	492
▁커지는	492
▁추격	492
▁정상회의	492
▁다양하게	492
▁부드러운	492
▁확인되지	492
▁수록	492
▁벨	492
스케	492
터가	492
▁공항에	492
▁아닌가	492
▁청렴	492
▁교수의	492
▁행진	492
▁차별화된	492
▁하시는	492
(9	491
▁연애	491
▁부양	491
시장에	491
년마다	491
▁어렸을	491
▁속도로	491
▁쉬는	491
▁신선한	491
▁시기가	491
▁순천	491
출납	491
▁불공정	491
▁부근	491
▁방송인	491
▁인민	490
▁여건이	490
▁검은	490
▁53	490
▁진단했다	490
▁이승	490
▁활동하고	490
▁답방	490
▁정말로	490
▁교육의	490
남부	490
▁빌딩	490
▁완료되면	490
▁협력사	490
▁보상금	490
▁하나님께서	490
▁샤워	490
▁춤	490
▁환호	489
▁자발적으로	489
▁수료	489
매치	489
▁몰랐	489
음에도	489
▁장소로	489
▁무용	489
▁감독과	489
▁목표다	489
▁지키는	489
▁등장했다	489
▁입었다	489
▁민간위탁	489
▁확보하기	489
▁노동시간	489
▁보자	489
▁강제징용	489
피아	489
▁인력이	489
총회	489
사회적	489
관의	489
만개	489
▁끝났	489
▁물량이	488
프라	488
▁확산되고	488
▁마련된다	488
윤리	488
▁공휴일	488
대에서	488
▁하반기에	488
▁시내버스	488
▁주최한	488
▁학생을	488
▁전에는	488
▁LED	488
생물	488
▁페이	488
▁GS	488
‧	488
▁해변	488
표준	488
채널	487
▁공부하는	487
지역으로	487
폭이	487
▁황교안	487
▁가벼운	487
▁증세	487
▁시비	487
▁놀라	487
▁송부	487
▁위성	487
▁취향	487
▁정보공개	487
▁올리고	487
부지	487
▁의사결정	487
▁확대되고	487
▁방안에	487
▁안전점검	486
(10	486
▁바닥에	486
▁써야	486
▁방식의	486
▁구성하고	486
▁신고자	486
▁NC	486
해주신	486
▁X	486
▁결과물	486
▁확률이	486
▁다룬	486
▁승계	486
▁비롯	486
▁교재	486
▁우려된다	486
▁힐링	486
▁검은색	486
▁방한	486
▁되찾	486
▁59	486
▁도봉구	486
▁폭발적	486
시장의	486
▁공무원들이	486
▁터져	486
▁멈춰	486
▁가짜	485
하시기	485
▁특례	485
▁나누어	485
비전	485
망이	485
▁이루고	485
▁회담이	485
▁항만	485
▁조정할	485
상환	485
▁중이라고	485
▁시작된다	485
▁불꽃	485
▁직위	485
▁치료제	485
▁조성사업	485
▁급감	485
▁도망	485
▁저번	484
▁타입	484
▁멍	484
▁인근에서	484
식은	484
▁최장	484
▁것인가	484
▁선거제도	484
▁쏠	484
▁수사관	484
▁예보	484
기상청	484
▁교착	484
휘	484
▁정세	484
▁일정한	484
▁공장에서	484
▁사용하여	484
됐	483
▁지원한	483
활동에	483
▁원격	483
▁개발하고	483
▁높아진	483
▁사료	483
▁적힌	483
▁들어갔	483
▁로맨스	483
▁장학금	483
요소	483
▁극심한	483
골프	483
▁실장	483
▁호수	483
▁일정에	483
▁중요합니다	483
▁감기	483
▁오전에	483
안은	483
▁쓰기	483
▁부재	483
기자	483
▁잇	482
▁황금	482
▁촬영한	482
2%)	482
경쟁력	482
▁생활폐기물	482
▁느낀	482
▁부모들	482
▁수요일	482
마케팅	482
▁비만	482
식당	482
▁보이며	482
겠네요	482
▁꼬	482
▁소명	482
복을	482
▁맞나요	482
▁부산에서	482
▁둘러싸고	481
포트	481
되었고	481
▁펼치는	481
단에	481
▁작년에	481
묵	481
해주고	481
9%)	481
평범한	481
▁방에	481
▁심리적	481
▁지속가능한	481
▁품종	481
▁추천한	481
복구	481
▁분야별	481
▁분석됐다	481
▁의료기기	480
▁단백질	480
샘	480
심리	480
▁확인하기	480
▁축사	480
▁개발했다	480
권에	480
▁많기	480
▁조립	480
▁감리	480
뚫	480
기부	480
▁충분	480
▁나옵니다	480
▁담았다	480
▁복사	480
▁냉장고	480
군을	479
▁“20	479
▁증거가	479
▁커지면서	479
▁빼앗	479
▁톱	479
▁독려	479
▁즐기	479
▁행태	479
▁수단	479
겪	479
▁믿을	479
▁촛불	479
▁원산지	479
▁궁금합니다	479
관계자	479
▁치아	479
주시길	479
▁계획에	479
그러나	479
▁인사들	479
▁인사들이	479
▁본부	479
▁만들어야	478
▁시행한다	478
▁마트	478
끝	478
▁어머니가	478
▁이상한	478
정부는	478
▁공청회	478
▁카드로	478
▁전국에	478
▁행정적	478
▁이유에	478
인상	478
▁떨어지고	478
▁두되	478
▁납입	478
통화	478
▁법원에	478
▁아이스크림	478
▁가져오	478
▁자랑하는	478
팩	478
대책을	477
▁56	477
개정	477
▁들어오는	477
▁속에서도	477
▁돌입	477
▁정하고	477
▁무척	477
▁못했어요	477
▁캠퍼스	477
보호법	477
57	477
▁행정부가	477
▁고객을	477
탔	476
▁부산의	476
봉투	476
▁걷기	476
▁성장률	476
▁해명했다	476
▁관계없이	476
▁추경	476
미세먼지	476
▁교육은	476
▁협의하여	476
▁기금을	476
▁통증이	476
▁고전	476
▁KTX	476
투자증권	476
▁폐업	476
▁입는	476
나도	476
▁국가들	476
▁추억을	475
문화재단	475
▁부자	475
▁참가하는	475
인식	475
▁교장	475
▁돕고	475
▁지혜	475
▁토요일에	475
▁됐고	475
▁운영과	475
▁혐의에	475
un	475
▁활기	475
▁소개하고	475
우드	475
CO	475
▁적다	475
▁너도	475
▁중이며	475
▁우울증	475
▁높아지는	475
권은	475
▁소망	475
▁콘셉트	475
년여	475
▁성북구	475
▁관람객	475
▁우회	475
▁교육에	475
▁장시간	474
▁욕구	474
▁인물이	474
▁이메일로	474
보고서를	474
▁후보자가	474
▁겹치	474
▁중학생	474
청소	474
웨	474
▁빠졌	474
▁2003	474
▁김병	474
▁영화제	474
▁쌍	474
▁사회에서	473
▁긴장감	473
▁정부에서	473
▁컴	473
▁목요일	473
▁첫째	473
▁바퀴	473
▁이슬람	473
▁발표하고	473
▁무렵	473
▁측에서	473
▁모래	473
상에서	473
▁판단한	473
▁탄력근로제	473
드릴게요	473
겠지	473
▁미래의	473
▁반발이	473
차관	473
▁운영되고	473
▁아름다움	473
▁제출받	473
▁좋아서	472
▁완성차	472
▁오더	472
▁경제협력	472
▁:	472
컨설팅	472
▁최정	472
▁갖춰	472
에프	472
▁전제	472
▁집행유예	472
르트	472
▁Q	472
▁요인으로	472
금의	472
▁존경	472
▁혹	472
▁계속되고	472
▁임대주택	472
▁서식의	472
▁해산	472
▁광교	472
액의	471
▁굽	471
▁노트	471
▁기대했다	471
덤	471
▁원해요	471
▁방이	471
▁대륙	471
▁탐방	471
갈비	471
▁종결	471
드리도록	471
▁약속한	471
▁대가로	471
▁블록	471
▁통로	471
졌어요	471
▁합의에	471
▁매장에서	471
▁딜	471
▁적용된	471
실태	471
▁법안이	471
▁강풍	471
제도를	471
▁벌어지는	471
▁공공성	471
실장은	470
▁사랑이	470
능력을	470
▁출하	470
▁있으신가요	470
▁알렸다	470
▁스타벅스	470
▁경제부총리	470
하에	470
▁세계에	470
▁마이	470
▁높았	470
▁회원국	470
89	470
길에	470
▁강의를	470
▁신생아	470
▁ICT	470
▁한동안	470
▁자신만	470
원들이	469
▁하러	469
▁난방	469
▁중으로	469
▁보내주	469
▁연구가	469
▁깨끗한	469
▁측면이	469
▁많지만	469
▁한국당이	469
▁덜어	469
▁돌아온	469
▁들어와	469
민족	469
▁하다가	469
TO	469
셋	469
▁개최할	469
▁소비자의	468
▁최강	468
▁묻어	468
▁관리할	468
▁강점	468
하였으며	468
▁살아남	468
였는데	468
▁음식물	468
▁행복을	468
특구	468
▁전문인력	468
▁제품과	468
▁흔히	468
▁연구결과	467
▁경력이	467
▁포항시	467
▁움직이는	467
중에	467
▁뿐이다	467
▁직면	467
98	467
낮	467
중학교	467
▁후보의	467
▁김희	467
▁소멸	467
깃	467
▁수송	467
▁규정된	467
▁카메라를	467
재가	467
▁발견했다	467
쁘	467
▁형식으로	467
▁윈	467
▁얻기	466
▁재판이	466
▁탁	466
▁언제까지	466
▁시간대	466
▁폭탄	466
얇	466
▁드디어	466
▁케이스	466
목표	466
고발	466
부와	466
▁돋보이는	466
▁행동이	466
▁인상에	466
▁올랐	466
▁헌	466
▁민원이	466
▁완료된	465
▁차에	465
▁로비	465
▁스티커	465
▁랩	465
▁수상한	465
▁기원	465
▁물고기	465
판을	465
▁게시물	465
▁되어서	465
▁공사장	465
▁지난해부터	465
▁축적	465
▁선수는	465
강화	465
▁제출할	465
▁해수욕장	465
된다고	465
▁장부	465
▁문제다	465
▁가정의	465
매장	465
▁원자력	464
▁구인	464
퓨	464
▁사흘	464
▁매력이	464
▁나가겠다	464
▁받았고	464
▁전체적으로	464
쥐	464
▁같은데요	464
▁우리나라에서	464
샀	464
▁가려고	464
▁크다고	464
▁로마	464
▁저번에	464
▁귀추	464
쌀	464
▁지정하는	464
▁기본적으로	464
▁자유로운	464
▁극우	464
▁수립하여	463
▁쏘	463
▁확대하는	463
상인	463
▁사라진	463
▁않나요	463
체를	463
▁공개적으로	463
∼3	463
▁산지	463
▁치과	463
▁막는	463
▁가능하게	463
▁결함	463
▁분담	463
▁자치단체	463
집을	463
▁기뻐	463
▁심사위원	463
▁잦은	463
▁창구	463
▁악수	463
▁만찬	463
▁신화	463
▁상품권	462
▁장관을	462
국으로	462
▁시티	462
▁상관없	462
▁케	462
처음	462
▁간식	462
▁저와	462
▁조용	462
▁처지	462
▁워	462
▁선호도	462
방안을	462
▁음원	462
▁겨우	462
▁파기	462
▁아니할	462
▁비서관	462
뭇	462
▁됐다는	462
▁우선적으로	462
차원	461
케어	461
▁민간단체	461
꺼	461
▁1990	461
▁설립된	461
▁방문했다	461
▁위해서다	461
▁삶에	461
▁해결하는	461
▁가까워	461
기본	461
▁않자	461
▁파악됐다	461
▁지원과	461
등의	461
▁뛰어나	460
▁김광	460
▁시에는	460
▁이낙연	460
주길	460
아는	460
▁2030	460
하느냐	460
▁보게	460
▁보행자	460
▁교육과	460
▁사용하기	460
▁내부에	460
호텔에서	460
보드	460
▁가보	460
▁외신	460
▁소방관	460
▁상원	460
▁짓고	460
▁분단	460
▁일요일에	460
여당	459
▁감염병	459
이었는데	459
▁오디션	459
▁개최하는	459
▁구는	459
농구	459
위원의	459
▁물어	459
▁궁금한	459
▁넷플릭스	459
▁청문회	459
▁대표적이	459
보이	459
00	459
▁계열	459
▁원리	459
▁티저	459
▁빙	459
▁찍	459
▁이끌고	459
▁용도로	459
▁사용허가	459
▁헌법재판소	459
▁제기돼	459
▁접근이	458
▁살펴보	458
▁수업에	458
▁커진	458
▁짓는	458
▁보아	458
▁탄탄한	458
▁관해서	458
했으니	458
셨어요	458
▁싼	458
▁커다란	458
▁예멘	458
▁청장	458
▁주면	458
▁엄청	458
▁몰입	458
힘	458
▁상사	458
▁편리한	458
▁야생	457
▁예정이에요	457
▁일관	457
▁금품	457
▁청소년들	457
해줘	457
▁먼지	457
▁일일	457
▁빌리	457
1%)	457
▁금요일에	457
▁주님	457
▁대표자	457
▁양상	457
▁국무위원장	457
겹	457
▁중증	457
▁구미	457
▁안경	457
▁전문적인	457
▁편안한	456
▁아시안컵	456
▁빠지	456
▁맡았	456
▁놓인	456
▁신기	456
▁오신	456
▁경험과	456
위원회에서	456
통장	456
▁바람직하다	456
▁대사관	456
화와	456
▁공기업	456
▁아니었	456
▁사임	456
▁선교사	456
했다면	456
▁있겠습니다	456
▁곁	456
▁개최된	456
▁알려주시면	455
▁잇달	455
▁정상적으로	455
▁초등	455
▁주민센터	455
기념관	455
▁하죠	455
▁언론이	455
▁주전	455
▁이익이	455
▁외곽	455
면접	455
▁자체적으로	455
발표	455
▁먹은	455
▁1%	455
▁부분에서	455
▁느꼈	455
▁볼턴	454
▁구매자	454
▁김장	454
▁편의시설	454
▁차지한	454
▁신청하여야	454
조작	454
▁기록하고	454
▁스카이	454
접수	454
▁운영된다	454
▁모르겠어	454
전체	454
▁평생학습	454
▁엘리베이터	454
기만	454
셨나요	454
▁아이디	454
▁호날두	454
▁비춰	454
▁소송에서	454
▁걱정하지	454
▁링크	454
겠고	454
사령부	454
▁해보	454
▁시한	453
▁양이	453
▁아래로	453
∼9	453
▁파문	453
▁사격	453
▁보냅니다	453
▁미안	453
스카	453
▁필터	453
▁때문이	453
마트	453
▁전원이	453
▁비율은	453
▁학교폭력	453
푸드	453
매번	453
▁펜션	453
▁들이받	453
▁지각	453
더불어민주당	453
세출	453
▁3∼4	453
▁욕	453
▁VR	453
▁때문이라는	453
작품	453
▁유니폼	452
디지털	452
▁깊어	452
▁엄청나	452
▁다음으로	452
▁감동을	452
▁겪었다	452
갑니다	452
형이	452
층으로	452
▁불확실성	452
위원장이	452
▁달린	452
▁68	452
▁민감한	452
▁부르는	452
꼬	452
▁간단	452
▁온전	452
▁서해안	452
▁금속	452
▁반박했다	452
▁정보통신	452
▁이어지면서	452
▁다툼	452
조에서	452
▁산소	451
주거	451
▁맡는다	451
▁체중	451
▁김해	451
여름	451
▁개인적으로	451
소에서	451
▁욕설	451
▁염색	451
ed	451
명씩	451
▁참석자들	451
백만	451
▁그들에게	451
▁멘토	451
▁떠나는	451
쇼핑	451
▁효력	451
▁개발해	451
군과	451
▁참여자	451
▁당대표	451
▁낙태	451
▁총액	451
▁주문이	451
▁교역	451
▁넘지	451
▁추진된다	451
▁벤처기업	451
▁늘리	451
▁한전	450
▁동원해	450
▁성공할	450
▁애로사항	450
▁와중에	450
▁실용	450
렸는데	450
▁성동구	450
여년	450
▁굳	450
-3	450
▁차등	450
사법	450
▁연령대	450
회에서	450
▁기업체	450
▁편이다	450
▁몰라	450
▁거지	450
▁송치	450
▁꽉	450
냥	450
퇴직	450
자들에게	450
흡	450
라이트	449
▁‘1	449
▁역사가	449
▁블로그	449
▁과징금	449
▁팝	449
▁정유	449
이면서	449
▁신선	449
▁신고했다	449
헬	449
첫	449
설치	449
▁기간으로	449
▁회장을	449
▁다행	449
지역을	449
▁주거환경	449
▁항소심	448
▁막고	448
▁관중	448
▁없는지	448
되었으며	448
▁흰	448
▁당당	448
▁모르고	448
▁요금제	448
▁배송이	448
▁생애	448
▁경기도농업기술원	448
▁줬	448
▁두려워	448
▁빼고	448
▁리조트	448
▁걸음	448
▁문화의	448
▁김경	448
▁하나다	448
▁물러	448
▁다양성	448
해드리겠습니다	448
▁활동하는	448
▁도박	448
▁애니메이션	447
▁SUV	447
▁주문했다	447
▁혁명	447
▁일주일에	447
오르	447
▁요원	447
▁할까요	447
나가는	447
▁기후	447
▁맞다	447
터미널	447
탐	447
▁임직원들	447
▁홍역	447
용지	447
론을	447
▁편리	447
▁마크	447
∼10	447
▁계란	447
▁싸움	447
▁유료	447
▁신고한	447
▁대치	447
▁제한적	447
정말	447
▁얼굴에	447
▁대관	447
▁지방보조금	447
▁척추	447
▁청주시	447
▁서울중앙지검	446
▁우리도	446
▁김현	446
▁설명하고	446
▁사항과	446
▁배후	446
세의	446
▁판로	446
뼈	446
▁수립하고	446
자들	446
현직	446
▁분야를	446
▁프로세스	446
▁보호하기	446
▁전년도	446
▁참조	446
▁있으므로	446
ation	446
▁전력이	446
사회복지	446
▁진심	446
▁공기청정기	446
▁천안	445
구에	445
▁투자자들이	445
▁유지하기	445
▁기다리는	445
▁보증금	445
▁찍고	445
▁범인	445
▁세수	445
▁중장기	445
▁구원	445
▁곳곳	445
▁저가	445
▁올라온	445
해외	445
▁영국의	445
▁부의장	445
▁넘어가	445
봄	445
문화를	445
▁물리적	445
▁죽은	445
▁중구가	445
▁라인업	445
▁치러	445
▁건강관리	445
▁기억에	445
자기	445
▁사업주	445
▁뉴질랜드	445
▁1980	444
▁여러분들	444
잎	444
▁독립운동	444
▁고마워	444
▁소방서	444
▁식재료	444
딸	444
텀	444
▁조성에	444
▁안쪽	444
▁84	444
▁노동조합	444
[	444
뷰	444
▁타이어	444
보조금	444
▁묘사	444
▁사형	444
▁사안이	443
피해자	443
▁정상적인	443
▁이견이	443
▁평화와	443
사고가	443
▁믿어	443
▁적용한	443
공간을	443
▁방송에서	443
짝	443
▁쌓여	443
▁한창	443
곧	443
▁강화할	443
▁서비스에	443
73	443
▁규격	443
▁영상에	443
▁디저트	443
▁등장하는	443
▁몽골	443
▁화이트	443
▁접근성이	442
꿈	442
▁발명	442
듬	442
▁상속	442
단과	442
수와	442
자녀	442
▁가속화	442
▁로버트	442
통계	442
Z	442
릅니다	442
▁겨	442
농장	442
▁배우들	442
클라	442
▁코미디	442
▁것인데	442
▁맞았다	442
▁북구	442
]	442
▁매출을	442
▁출신인	442
▁부작용이	442
▁접종	442
라이프	442
▁이끈	441
▁보내준	441
▁인턴	441
▁안팎에서	441
▁대응이	441
등이	441
▁활	441
▁김모	441
▁인명	441
▁고객사	441
▁판단하고	441
▁요청하는	441
▁관계에	441
▁은행들	441
회로	441
▁참석한다	441
▁속이	441
▁시점에서	441
▁기지	441
정도	441
했었	441
리티	440
부품	440
▁보류	440
수급	440
▁제출했다	440
재단이	440
정상회담	440
▁초미세먼지	440
▁겉	440
▁연장할	440
▁반발하고	440
▁출시한	440
▁갤러리	440
끔	440
▁개발사업	440
▁슬픔	440
▁개가	440
▁앓고	440
▁노인들	440
▁남는	440
▁가르	439
▁부서장	439
▁내로	439
▁바가	439
봅	439
▁명소	439
울산	439
▁챙기	439
▁착수했다	439
▁거기서	439
▁편의성	439
미사일	439
▁실감	439
▁흉	439
▁골든	439
▁신분으로	439
▁피할	439
▁푸른	439
▁이마트	439
▁소모	439
▁취소할	439
지점	439
▁임시정부	439
홈	439
▁당첨	439
▁처음부터	439
▁침입	439
▁실질적으로	439
요인	439
▁고난	439
▁김영철	439
해져	438
약을	438
▁현금으로	438
동부	438
▁표현을	438
공사는	438
▁모듈	438
▁72	438
▁이뤄져야	438
▁발길	438
▁식약처	438
▁렌즈	438
▁펼친다	438
▁소셜미디어	438
▁장미	438
▁다저스	438
보유	438
▁공연장	438
▁조속히	438
미국이	438
▁강조하는	438
▁문법	438
▁통신사	438
▁명확한	438
▁법령에	438
일수록	437
▁뜻으로	437
할수록	437
▁간접	437
87	437
▁회전	437
▁관점	437
▁기능성	437
▁동북아	437
▁품격	437
▁사원	437
▁예약이	437
▁지원센터	437
▁개원	437
▁민원인	437
우진	437
다시피	437
▁미국으로	437
▁모금	436
▁레알	436
▁협력업체	436
▁데에	436
▁꿈꾸는	436
▁흔적이	436
▁무엇입니까	436
▁박차	436
농협	436
▁대법원이	436
▁어린이들	436
지회	436
▁돌아왔다	436
▁지나가	436
▁수산	436
마일	436
▁토큰	436
▁잠재	436
▁타협	436
▁들었어	436
▁줄고	436
▁안다	435
▁아세안	435
▁호조	435
시스	435
오픈	435
▁한진그룹	435
▁노회찬	435
▁다짐	435
기준에	435
▁맑은	435
▁판단에	435
▁대표로	435
▁의미로	434
▁확보해	434
▁정전	434
자유한국당	434
혜택	434
▁미쳤다	434
▁논의할	434
▁뽑아	434
▁갱신	434
켓	434
▁팔아	434
▁MC	434
▁로고	434
▁부위원장이	434
▁놀라운	434
찜	434
안내	434
▁채우	434
▁답답	434
▁해소를	434
정책에	434
▁달라진	434
돔	434
취소	434
▁안정적	434
▁낮다	434
주사	434
▁원장이	434
▁높다고	434
▁비서	434
▁남겼다	434
▁분석하고	434
▁불가피한	434
▁소원	434
▁LA	434
파이	433
회복	433
뜰	433
▁받고자	433
▁개최하고	433
▁진압	433
▁세월	433
▁잃고	433
▁산다	433
향상	433
▁전시장	433
▁지냈	433
▁57	433
▁당국자	433
▁가볍게	433
▁멜	433
▁실시해	433
▁처리하는	433
PA	433
▁무효	433
디스	433
▁110	433
▁일과	433
변화	433
▁인센티브	433
▁위탁하여	433
▁공천	433
▁마침	432
▁헤드	432
▁평가하는	432
▁나경원	432
▁부산광역시	432
is	432
(18	432
▁식량	432
▁살해한	432
▁컨디션	432
강에	432
▁사역	432
십니다	432
▁회장과	432
▁운동이	432
▁발언은	432
▁말이야	432
류를	432
인치	432
▁관람객들	432
밸리	432
물로	432
▁요청에	432
▁지배구조	432
소방서	432
▁출생	432
렸어요	432
▁확진	432
▁스피커	432
사업으로	431
▁수탁기관	431
▁차별화	431
IN	431
이러한	431
▁재학생	431
▁확보에	431
제조	431
섞	431
▁FC	431
▁58	431
▁업무가	431
▁제동	431
▁요금이	431
▁사우디아라비아	431
시간은	431
▁않았기	431
하므로	431
만원에	431
▁보기에	431
▁연구기관	431
위반	431
▁침묵	431
수업	431
▁정하지	431
▁있었을	431
▁그리스	431
▁사립	431
▁만났다	431
하진	431
▁너랑	430
공인	430
곰	430
▁현대중공업	430
전력	430
▁약정	430
▁말아	430
▁법이	430
▁지붕	430
운행	430
▁아카데미	430
▁중소벤처기업부	430
았던	430
▁도시계획	430
▁장소에서	430
▁시간당	430
▁6·13	430
▁가족들과	430
▁영동	430
▁기록해	430
드림	430
▁조성하고	430
▁이념	430
▁이해하기	430
영어	430
▁유가족	430
▁케이티	430
컴	430
▁기아차	430
독일	430
▁지향	430
▁키우고	429
세상	429
▁63	429
▁물놀이	429
▁지원대상자	429
드로	429
▁영혼	429
▁존재하는	429
▁배제할	429
▁불안감	429
▁수납	429
▁확보가	429
▁쪽이	429
MC	429
▁녹아	429
▁새끼	429
▁로드맵	429
▁면밀	429
▁앓	429
계획서	429
▁울산시	429
▁금호	428
▁검토할	428
▁가시면	428
▁논쟁	428
▁마드리드	428
▁폭넓	428
▁벗	428
왜	428
▁진단을	428
조치를	428
▁IP	428
표시	428
군사	428
▁일본과	428
▁관광객들이	428
▁구성하되	428
▁접대	428
▁주인이	428
▁군사적	428
∼8	428
▁감안	428
▁금강산	428
▁에이스	428
▁디자인이	428
▁않았는데	428
운영위원회	428
▁우편	428
주와	428
▁로드	428
뚜	428
▁여성은	427
▁존재한다	427
점에	427
지원사업	427
▁가해	427
▁교육장	427
▁강화해	427
▁수험생	427
거든	427
▁어선	427
▁집중할	427
▁명백	427
▁나오면서	427
패를	427
▁카풀	427
▁발라	427
드릴	427
▁확정됐다	427
▁구비	427
심판	427
▁겨울에	427
▁나눈	427
▁토양	427
▁시급한	427
행사를	427
▁예상하고	427
▁아닐까	426
▁경기력	426
▁아나운서	426
▁인용	426
▁통역	426
▁늘어나면서	426
▁벼	426
점은	426
산업이	426
▁포털	426
▁불안정	426
대리	426
▁벚꽃	426
기관으로	426
▁캠핑	426
▁신뢰도	426
▁세우고	426
밴드	426
▁더블	426
▁희생자	426
▁과다	426
▁그러한	426
법안	426
▁존재감	425
▁교육부가	425
▁대주주	425
▁던지	425
▁전남도	425
▁촉발	425
▁인사청문회	425
▁도대체	425
▁힐	425
▁근접	425
▁한파	425
▁기자들과	425
▁무대에서	425
▁예정돼	425
배출	425
▁비닐	425
▁김씨의	425
▁원하지	425
▁연루	425
▁질문이	425
긋	425
▁단말기	425
디아	425
▁화요일	424
42	424
▁방송되는	424
▁티셔츠	424
단체가	424
▁64	424
▁작아	424
그리고	424
한반도	424
▁내달	424
모집	424
▁감자	424
▁공무원으로	424
▁한우	424
경험	424
센터에	424
▁사람에	424
▁예정이	424
▁빚어	424
▁몽	424
▁회식	424
▁평년	424
▁도보	424
공업	424
▁잡았	424
▁등산	424
만으로도	423
유치	423
▁필요해	423
▁이렇다	423
▁고립	423
el	423
참가	423
반을	423
▁많았	423
▁적었다	423
킷	423
us	423
▁신부	423
▁나라에	423
▁친절	423
▁"「	423
▁야기	423
러스	423
▁원으로	423
▁곱	423
▁주민과	423
▁버튼을	423
▁주인공이	423
▁진전이	423
▁구직	423
▁도발	423
▁넥슨	422
▁특성에	422
로서는	422
▁선정돼	422
▁광범위	422
▁흔	422
객들	422
▁연말까지	422
▁대응할	422
▁돌아갈	422
▁보여줬다	422
김씨	422
▁당국의	422
▁1·2	422
▁조성하는	422
▁기대할	422
▁메이크업	422
▁태권도	422
▁행정처분	422
▁불구속	422
고교	422
83	422
통상	422
▁85	421
▁대형마트	421
SNS	421
▁동해안	421
▁삭감	421
▁민감	421
▁아웃	421
서로	421
▁시설에	421
▁반려견	421
▁유로	421
띄	421
▁오토바이	421
역을	421
▁체험할	421
▁소극적	421
▁던진	421
▁112	421
▁살이	421
▁괜찮아	421
▁계속되는	421
▁탑	421
▁전문의	421
▁규정함으로써	421
▁정신이	421
▁재미를	421
▁공주	421
았어요	421
전시	421
▁설문	421
무기	421
▁한하여	421
▁대학에서	420
▁흑자	420
▁일대에서	420
▁수수	420
▁연초	420
▁쓰여	420
▁이종	420
대형	420
▁밝히고	420
▁연이어	420
주었습니다	420
기본계획	420
▁중개	420
▁이어갔다	420
전남	420
86	420
▁들어오	420
▁표본	420
▁나서야	419
효율	419
빌딩	419
▁재임	419
▁이룰	419
▁생선	419
콘서트	419
서도	419
▁해설	419
조리	419
▁중대	419
▁신학	419
실로	419
▁포도	419
▁코레일	419
▁채용비리	419
▁전기요금	419
▁생각하면	419
▁위대한	419
유출	419
▁61	419
▁마련하기	418
▁보다는	418
▁불어넣	418
▁이루는	418
▁외무상	418
ck	418
특별위원회	418
▁데리고	418
▁개선될	418
▁인천국제공항	418
▁늘어났다	418
뇨	418
▁판단되는	418
▁보이지만	418
▁멋	418
▁후배	418
▁증폭	418
계를	418
▁안방극장	418
▁돌입했다	418
비리	418
▁남산	418
돌봄	418
▁걸어가	418
▁피우	418
▁메신저	418
▁소진	418
▁거주자	418
▁우연히	418
앞으로도	418
▁오브	418
▁돌아올	418
▁문화적	418
▁납치	417
문이	417
▁소금	417
▁발전소	417
▁위기가	417
▁마시는	417
▁과정은	417
물량	417
▁유니	417
▁남다른	417
▁출시된	417
시와	417
부르크	417
la	417
▁뒤에는	417
▁시급	417
▁케어	417
▁탓이다	417
▁폴리	416
▁수단으로	416
▁출품	416
▁나타난다	416
▁위헌	416
▁이미지가	416
▁놓은	416
▁띈다	416
▁않거나	416
바로	416
▁아쉬움	416
열차	416
▁매칭	416
끈	416
창호	416
달라	416
▁흔적	416
PI	416
▁물의	416
▁어떨까요	416
▁각오	416
▁귀여운	416
▁결성	416
▁대학생들	416
▁찬반	416
▁메이저리그	416
▁외환	415
▁금융당국이	415
대사관	415
▁나타	415
▁반기	415
▁딸기	415
▁소문	415
▁찾아온	415
캡	415
경찰이	415
▁한자리에	415
▁일기	415
▁키우	415
▁체납	415
트레이	415
▁운영해	415
▁성립	415
▁사면	414
▁증액	414
▁중간에	414
▁현저	414
내일	414
▁인계	414
성폭력	414
▁액수	414
회째	414
▁짝	414
측은	414
▁모릅니다	414
▁목적지	414
카메라	414
▁그라운드	414
▁흥미	414
옷	414
▁원본	414
▁좁은	414
▁주변에서	414
작은	414
▁등장한	413
▁영화관	413
▁나누	413
▁외국어	413
▁과태료를	413
분양	413
▁상봉	413
▁작용했다	413
▁좋아지	413
주의보	413
▁길어	413
▁언론사	413
▁찾아보	413
▁국무위원장과	413
▁번씩	413
금융지주	413
제공	413
▁프리미어리그	413
평가를	413
휴가	413
받지	413
▁보훈	413
ST	413
▁사생활	413
▁웨	413
▁의한다	413
▁바꾸고	412
▁맡겨	412
▁남았	412
커피	412
▁인정했다	412
년차	412
▁클러스터	412
▁대미	412
▁떨어지	412
▁시스템에	412
▁동대문	412
▁다할	412
▁안정화	412
주요	412
센트	412
▁연락처	412
면허	412
▁벤	412
▁이사장이	412
▁과잉	412
▁계속될	412
추천	412
▁같지	412
늘	412
▁속하는	412
간접	412
▁학식	412
화한	412
영역	412
스틱	412
▁맞추	412
▁구의회	412
▁문이	412
스텔	412
수지	411
판에	411
거리가	411
▁의무가	411
▁어우러진	411
▁때와	411
▁주장에	411
▁도로를	411
▁마이너스	411
▁멀어	411
되었을	411
▁됐습니다	411
▁증가에	411
▁양도	411
▁변형	411
▁자정	411
▁프레임	411
▁맘	411
▁출연한	411
엑스	410
▁바꾼	410
▁소식에	410
▁했는지	410
▁수준이다	410
▁보이기	410
▁한마디	410
▁땅에	410
듀	410
인프라	410
▁발전할	410
▁장난	410
▁설치한다	410
▁신곡	410
▁방송사	410
▁계곡	410
▁예우	410
맹	410
받았	410
점수	410
▁진행을	410
▁버티	410
▁빠르고	410
곽	409
였어	409
▁박용	409
천원	409
▁주한	409
▁화폐	409
▁공급을	409
쏟	409
▁찰	409
냐고	409
▁자활	409
▁아동학대	409
▁66	409
▁반해	409
체육회	409
단체의	409
▁흘리	409
▁공간에	409
문제를	409
▁나와서	409
▁축제가	409
호기	409
▁상승했다	409
비행	408
멜	408
▁겨냥한	408
▁농사	408
▁선고받	408
편이	408
▁하기로	408
▁캔	408
▁구매를	408
▁이산가족	408
직업	408
색이	408
▁비교하면	408
▁산림청	408
▁의안	408
▁국민적	408
▁연결된	408
▁배수	408
▁제시하는	408
▁때로	408
▁강구	408
▁경향	407
AT	407
▁마스터	407
▁160	407
▁이룬	407
▁단식	407
벅	407
▁잔디	407
▁중앙은행	407
대기	407
▁모두에게	407
막이	407
▁융자금	407
▁줄기	407
▁기금운용	407
▁선점	407
▁검색어	407
킴	407
▁춤을	407
▁그다음	407
▁지키	407
▁눈으로	407
▁KIA	407
▁경제활동	407
진흥법	407
펄	407
▁털	407
▁오찬	406
▁한눈에	406
▁풀려	406
▁막혀	406
∼7	406
▁소독	406
▁적발된	406
▁지키고	406
햄	406
▁피드백	406
▁슈팅	406
▁눌러	406
▁가지는	406
수도권	406
▁셧다운	406
▁창원시	406
식으로	406
▁띠	406
▁훈	406
종목	406
▁듯하다	406
해보세요	406
▁기록할	406
▁신입생	406
▁해상에서	406
좁	405
준이	405
▁드림	405
▁방지하기	405
▁조언했다	405
화재	405
박근혜	405
MI	405
패션	405
▁고려대	405
▁비영리	405
▁꾸려	405
색다른	405
▁은폐	405
▁부진한	405
▁활용하여	405
▁맛볼	405
▁정책실장	405
▁핀	405
타임	405
▁작성하고	405
▁위원회에서	405
▁놀이터	405
국장이	405
▁적극적	405
▁반려	404
▁금융사	404
▁않기로	404
▁공공시설	404
작전	404
▁심하게	404
▁걷는	404
▁몸매	404
▁들었는데	404
▁소각	404
▁공개된다	404
▁기울	404
▁15%	404
륜	404
현지	404
▁실물	404
▁예고했다	404
유기	404
▁정무	404
넘	404
통을	404
▁타이틀	404
▁높아지	404
▁다루는	403
▁말하며	403
워크	403
▁추위	403
▁나고	403
앨	403
▁가짜뉴스	403
▁보인다고	403
브라	403
실험	403
▁되었어요	403
▁헬	403
▁사업과	403
▁동대문구	403
▁다닐	403
검토	403
▁흐르는	403
▁유동성	403
▁최우수상	403
▁의심되는	403
▁보내주신	403
띤	403
▁합성	403
베르	403
▁알선	403
▁염려	403
▁안된다	403
▁자매	403
▁구에	403
▁부른	403
BA	403
▁분열	402
▁들어서는	402
▁준비할	402
되기를	402
공모	402
▁보충	402
▁감찰	402
업체의	402
SS	402
▁신한은행	402
▁결론이	402
▁흐르	402
▁패러다임	402
▁맡게	402
▁공간에서	402
중공업	402
▁가능할까	402
▁맞을	402
▁동맹	402
▁정답	402
격차	402
계가	402
관리자	402
▁상위권	402
거리는	402
▁임산부	402
▁내려진	402
▁표명	402
▁인연	402
▁씻	402
▁쌍둥이	402
▁본질	402
김혜	402
실천	401
▁대응하기	401
▁그것에	401
▁구조적	401
▁방송에	401
▁자에	401
성분	401
MO	401
▁공식적으로	401
▁공이	401
▁오렌지	401
▁분량	401
계획에	401
▁소개해	401
▁떠올랐다	401
▁좌절	401
영향평가	401
▁알레르기	401
▁달이	400
▁치안	400
▁구직자	400
▁낯선	400
▁재미있게	400
▁영업이익이	400
▁연평균	400
▁돌아보	400
▁불필요한	400
▁재적위원	400
(11	400
▁외국인이	400
▁해외여행	400
거래소	400
▁하겠다는	400
▁줄어	400
시설에	400
▁개발자	400
GM	400
▁막히	400
아야	400
▁관하여는	400
▁다릅니다	400
▁술에	400
▁주시	399
▁대표단	399
▁우려했다	399
▁경남도	399
▁시간도	399
▁위탁기간	399
▁기부금	399
▁곰	399
▁대출이	399
위권	399
▁웹툰	399
단원	399
▁대두	399
교섭	399
▁경상	399
▁단독주택	399
▁안에는	399
▁자로	399
승을	399
자들을	399
▁집값이	399
▁들지	399
▁겪어	399
▁주장한다	399
수용	398
▁설치돼	398
▁발달장애인	398
지역은	398
▁함께한	398
확보	398
상승	398
▁누구보다	398
▁성황리	398
▁메모	398
▁앞세워	398
▁내각	398
▁감정이	398
타를	398
▁효과적	398
▁사무실에	398
업을	398
▁CNN	398
▁권한이	398
▁신념	398
▁제출된	398
▁형이	398
▁한참	398
▁채취	398
▁조지	398
▁“‘	398
▁먹방	398
▁양념	397
이었어	397
▁발전과	397
▁르	397
체육관에서	397
▁이어갈	397
사태	397
▁개막식	397
▁기록이	397
강남	397
▁제천	397
손실	397
▁늦었	397
화로	397
▁기운	397
▁나만	397
▁결실	397
▁있겠다	397
▁기술력	396
이어야	396
분과	396
어떤	396
▁황의조	396
과제	396
▁시중	396
▁자신과	396
▁느끼	396
▁일들이	396
▁지역별	396
▁합산	396
▁추천하는	396
▁우산	396
갱	396
▁적성	396
▁경호	396
AN	396
▁국가주석	396
▁이루어	396
▁걸친	396
베트남	396
▁물론이고	396
▁서비스의	396
문화예술	396
▁되자	396
▁그러면서	396
▁믿는다	395
하니까	395
▁여정	395
적이다	395
▁수준인	395
능력이	395
증후군	395
▁고쳐	395
지대	395
▁개편안	395
포장	395
▁공부하고	395
▁출석한	395
▁나흘	395
▁균형발전	395
▁넘어섰다	395
95	395
▁농민	395
▁지금부터	395
▁여기에서	395
여기에	395
▁끝이	395
경기도와	395
▁대우	395
▁관리하고	395
▁사업자가	395
동과	395
▁인정하고	395
뿜	395
▁룸	395
잇	395
▁사라지	394
극장	394
▁방위	394
▁허브	394
▁무역전쟁이	394
▁징	394
▁갖	394
거야	394
팝	394
강원	394
▁장기적으로	394
▁주목할	394
아버지	394
▁돌아와	394
▁시행을	394
소상공인	394
노동조합	394
결과를	394
▁은혜	394
▁거다	394
장기	394
▁기준은	394
▁가뭄	394
▁매운	394
▁따지	394
▁분명한	394
▁없었어요	394
정상	393
▁업체와	393
▁마당	393
▁때문인	393
▁친서	393
▁변경이	393
▁코트	393
▁전철	393
▁응모	393
▁연계한	393
위인	393
용기	393
▁교육기관	393
금융투자	393
쿼터	393
▁넓어	393
▁김수	393
▁학교급식	393
▁프로야구	393
▁포천	393
▁신형	393
▁살아가	393
▁아르바이트	393
▁관련해서는	393
▁간주	393
▁거주하고	393
사항에	393
▁퍼지	393
이었다는	393
▁들면	393
주지	393
▁유산	393
▁평택시	393
▁실수로	393
▁소위원회	393
▁소아	393
▁쉼터	393
▁없으니	393
▁감사드린다	392
▁음식물류	392
레인	392
진료	392
am	392
만으로는	392
▁다녔	392
▁남성의	392
전선	392
토리	392
▁증설	392
▁광주광역시	392
▁건네	392
▁떠올리	392
∼4	392
▁대행한다	392
뤘	392
관리하여야	392
▁됐	392
▁와이파이	392
했나요	392
깁	392
▁급하게	392
▁받아서	392
▁들어있	392
▁원에	392
▁구축하고	392
▁성장하고	392
▁가구가	392
▁그랜드	392
▁부를	392
▁우선순위	392
ay	392
▁않으면서	392
▁예방접종	392
▁연체	392
면세점	392
산단	392
▁경로당	391
▁삼성이	391
계열	391
▁정권이	391
▁적용하는	391
▁경쟁률을	391
로봇	391
▁악영향	391
부담금	391
▁서비스로	391
▁녹화	391
줘야	391
▁가능해요	391
공학과	391
▁여행사	391
▁보일러	391
▁목격자	391
SI	391
▁무게를	391
▁들어올	391
▁움직이	391
▁신청했다	391
▁개최를	391
▁거액	391
은행이	391
▁상황이라	390
▁국악	390
▁혈관	390
이들	390
선정	390
▁만만치	390
▁목회자	390
▁사실에	390
.4%)	390
▁검토한	390
함께	390
교육부	390
캐슬	390
층의	390
플랫폼	390
이전	390
▁노력해	390
측정	390
▁속초	390
▁이용하고	390
▁부탁합니다	390
▁현실적으로	390
▁떠났다	390
▁제발	390
▁브라	389
▁추운	389
쓰레기	389
▁소외	389
▁배경이	389
▁치른	389
▁승점	389
▁수감	389
▁주식시장	389
출산	389
▁역사상	389
▁환자를	389
▁내놓	389
▁갔	389
SR	389
▁구제	389
▁효율	389
으므로	389
▁조카	389
▁우수사례	389
▁제도개선	389
▁젊	389
▁신산업	389
▁인문학	389
▁경협	389
▁세우	389
큼	389
십니까	389
▁화재로	389
▁시속	389
▁주저	389
▁있겠지만	389
▁공문	389
▁끊어	389
촬영	389
▁불법행위	389
타이	389
▁네티즌들	388
▁경기는	388
정은	388
▁참가할	388
▁해소하기	388
▁우체국	388
▁진동	388
▁카페에서	388
▁열풍	388
▁오가는	388
스턴	388
▁진상규명	388
▁양극화	388
▁영웅	388
▁남을	388
▁착한	388
▁전달하는	388
▁전통적인	388
▁메달	388
▁투자하는	388
▁승차	388
▁이어지	388
▁귀하	388
흔	388
▁봤어요	388
▁설명해	388
▁이바지	388
▁기념해	388
문화재	388
▁실장은	387
아프리카	387
지방법원	387
▁가도	387
▁처우	387
▁생산이	387
▁개발과	387
시위	387
▁사업체	387
미국의	387
▁집중력	387
▁기술로	387
▁거래처	387
▁서양	387
▁성장하는	387
▁충청	387
▁재고가	387
▁내놓을	387
▁작용할	387
▁사례로	386
혁명	386
▁선진	386
▁지정하여	386
▁받아들일	386
▁초기에	386
▁140	386
▁상임	386
▁대도시	386
▁발표하는	386
▁무거운	386
▁융	386
데도	386
▁비밀번호	386
▁일어났다	386
▁심정	386
졌던	386
▁배부	386
▁운영비	386
6000	386
▁욕심	386
▁만성	386
높	386
▁자동화	386
드루킹	386
▁살펴보고	386
▁기르	386
▁헌재	386
분기에	385
▁컨퍼런스	385
▁국공립	385
▁저작권	385
워치	385
아무	385
으셨	385
▁공부할	385
▁대안을	385
▁자치법규	385
답니다	385
으려고	385
해상	385
▁세웠다	385
▁사망했다	385
권역	385
▁맛집	385
해달라는	385
▁진열	385
▁지키기	385
▁공장이	385
▁이뤄지	385
▁급한	385
61	385
▁있는지를	385
▁컨소시엄	385
맘	385
▁난이도	385
▁도의원	385
페스티벌	385
▁2001	385
▁박정	384
얻	384
▁찬양	384
▁사업화	384
▁강화에	384
▁위촉된	384
▁이뤘다	384
▁청정	384
▁매력적인	384
▁일체	384
▁조치로	384
▁저해	384
영화제	384
되길	384
▁동양	384
▁프로젝트에	384
법과	384
▁기대되는	384
▁야권	384
▁연차	384
▁받았어요	384
시켜야	384
▁언론인	384
비용이	384
▁적고	384
▁전하는	384
넣	384
▁이루어지	384
▁똑같이	384
레이터	384
▁일부는	384
관세	384
▁기법	384
▁양의	384
▁말아야	384
▁듣	384
▁저축은행	384
▁트리	384
▁산재	384
▁정화	384
▁인허가	383
▁정문	383
학을	383
▁조현	383
51	383
▁시선이	383
▁나서기	383
▁통화정책	383
▁가능하다고	383
AD	383
▁일일이	383
여야	383
▁원단	383
장님	383
▁구체화	383
▁표결	383
▁용량	383
위성	383
▁안심하고	383
▁국기	383
▁증진을	383
▁시골	383
▁전망하고	383
▁진주	383
▁다문화가족	383
커스	383
구리	383
▁경선	383
▁지진이	382
▁수산물	382
▁수급자	382
▁소개하는	382
조로	382
▁은행권	382
용수	382
▁무산	382
▁재검토	382
▁전국이	382
▁들어왔	382
▁내놓고	382
▁다르	382
▁미성년자	382
▁세상이	382
년생	382
실은	382
▁대신해	382
▁느끼게	382
▁청구서	382
경력	382
뱃	382
▁남양주	382
▁가평	382
금액을	382
▁분배	382
평균	382
▁쉽다	382
▁밀집	382
도민	382
의학	382
▁이재용	382
▁차관이	382
▁칩	382
▁비극	381
es	381
▁경제성	381
▁베테랑	381
드리고	381
▁싶은데요	381
▁손잡고	381
▁요청합니다	381
라니	381
▁주도권	381
96	381
폭행	381
▁어르신들	381
▁지키지	381
지킴이	381
업체에	381
▁우려되는	381
▁인재를	381
▁생활에	381
▁간절	381
▁합격자	381
°	380
▁자치회관	380
되게	380
컴퍼니	380
▁돌보	380
▁깊게	380
▁역을	380
▁마련에	380
▁농기원	380
▁벌금형	380
▁경신	380
▁이상은	380
스토리	380
▁했기	380
▁미달	380
▁넘은	380
▁담겨있다	380
▁마켓	380
▁삼성물산	380
▁바뀔	380
항에서	380
▁동물보호	380
▁충남도	380
정권	380
▁평등	380
▁연중	380
▁조업	380
▁모를	380
▁채로	379
컸	379
▁방문이	379
▁과열	379
네가	379
▁박성	379
플러스	379
연장	379
▁송환	379
▁남구	379
▁있었으면	379
▁면모	379
▁외에는	379
▁불편이	379
▁자리잡	379
▁하락했다	379
듭니다	379
▁무상으로	379
▁공통	379
▁발판	379
▁만하다	379
▁수신	379
▁민정수석	379
▁선언했다	379
팀의	379
▁통영	379
▁가져올	379
정리	379
상과	378
해드릴게요	378
▁경제성장	378
맥주	378
▁익명	378
신청서	378
▁세일	378
슴	378
▁있으니까	378
▁것이기	378
▁시스템은	378
▁따져	378
▁박탈	378
▁대기오염	378
▁후기	378
스쿨	378
▁조례안	377
▁각별한	377
▁개소	377
▁생활이	377
었는지	377
▁푹	377
▁당원	377
공원에서	377
▁하였다	377
▁퇴원	377
항목	377
코인	377
▁모습에	377
부적절한	377
▁공무원들	377
▁있죠	377
보존	377
▁설치가	377
▁탐	377
▁지난주에	377
▁공개모집	377
본부는	377
▁흥미를	376
체인	376
협의	376
▁터널	376
▁날개	376
▁닦	376
▁나눌	376
▁소재로	376
영은	376
▁대상에서	376
▁고조	376
▁싶었	376
▁현실이	376
▁기승	376
자로서	376
지현	376
스퀘어	376
▁직원에게	376
▁마련이	376
▁경쟁사	376
▁참관	376
▁드려	376
▁판사들	376
as	376
국은	375
▁시달	375
▁세관	375
▁더욱더	375
해야만	375
▁보도자료	375
▁간담회에서	375
독립	375
▁정점	375
▁중형	375
컷	375
▁불고	375
∼1	375
▁조직을	375
』	375
풋	375
▁스틸	375
▁효율성을	375
▁해운대	375
권리	375
지식	375
재정적	375
GB	375
▁농림축산식품부	375
▁둘이	375
수소	375
▁다큐멘터리	375
▁러시아월드컵	375
▁예방하기	375
∼5	375
▁펼쳐질	375
▁드릴까요	375
▁발의한	375
▁잔류	375
▁낮게	375
▁돌아오는	375
▁주연	375
▁합의문	375
▁형상	375
▁없거나	374
▁약국	374
하겠지만	374
▁공직선거법	374
▁꾀	374
산림	374
▁지지층	374
▁67	374
▁발걸음	374
엄마	374
▁납세자	374
▁지적에	374
▁적용된다	374
▁노력하는	374
▁여사가	374
▁은행이	374
▁SW	374
▁의결권	374
▁높아지면서	374
억원대	374
▁마실	374
대표팀	374
▁폭락	374
▁일대에	374
▁73	374
▁열매	374
▁어업	374
▁엄마는	374
▁애국	374
▁사업추진	374
▁실정	373
▁실질	373
▁영역을	373
▁펼치	373
▁실증	373
▁편안하게	373
▁가려면	373
▁확정되면	373
▁낮춰	373
▁청와대와	373
리움	373
▁중요하다는	373
▁이끌었다	373
▁알려줘	373
▁상태였다	373
▁출전한	373
▁재계	373
▁곤충	373
▁주장도	373
▁키움	373
▁총리와	373
▁통과한	373
▁일정으로	373
▁부천시	373
관리시스템	373
▁플라	373
81	373
▁신혼부부	373
▁당의	373
대화	373
건수	373
▁포기하지	372
▁이견	372
▁회사와	372
▁돼지고기	372
▁고치	372
▁핵무기	372
정책이	372
▁신청하면	372
▁위험도	372
▁샐러드	372
▁식당에서	372
▁보았	372
▁기업인들	372
▁고객은	372
▁법조계	372
선교	372
▁공용	372
▁건강하게	372
친구	372
▁버려	372
였다는	372
▁못했다는	372
▁보냈습니다	372
▁근무시간	372
▁줄줄	372
▁고령자	372
연구원은	372
▁1,2	372
▁세균	372
▁관리와	372
▁느껴지는	372
▁위험에	372
▁세상에서	372
▁지역화폐	372
시설물	372
▁이윤	372
어스	372
이사장	372
▁지하철역	372
▁입건	372
▁높을	371
▁익숙	371
▁주관한	371
▁대조	371
▁당선인	371
▁호재	371
시께	371
▁트랙	371
▁컴백	371
▁3.1	371
▁이루어질	371
▁350	371
▁보시면	371
▁연결해	371
▁신라	371
▁빈곤	371
그러므로	371
금액이	371
뮤	371
▁아닌데	371
▁강하다	371
▁표출	371
▁주무	371
▁틀어	371
▁불편함	371
▁마셔	371
▁생생	371
기준은	370
▁세심	370
▁글자	370
▁미국인	370
▁소주	370
▁교직원	370
▁파도	370
▁몰고	370
▁정교	370
▁살던	370
했음에도	370
PM	370
▁주유소	370
▁변상	370
▁규탄	370
낸다	370
▁말했다고	370
▁정관	370
▁때만	370
▁도자	370
▁택	370
사용자	370
▁62	370
▁그렇지만	370
준호	370
▁생각은	370
▁팀에	370
▁유력한	370
공부	370
▁동굴	370
▁지고	370
▁임박	369
▁시험이	369
▁응용	369
▁공립	369
▁번영	369
▁금리인상	369
▁반찬	369
▁연준	369
▁정보기술	369
▁도와줄	369
▁선거에	369
▁리드	369
▁터치	369
▁지난해에	369
▁모형	369
깜	369
▁설교	369
▁납부하여야	369
▁소위	369
법관	369
▁표지	369
▁AP	369
▁높아진다	369
▁총무	369
▁실체	369
닛	369
▁준비되어	369
결혼	369
▁주어진	369
에게서	369
BI	369
▁지역과	368
환이	368
▁어렵	368
▁투자자들의	368
연한	368
제도가	368
▁분포	368
▁대한민국이	368
▁이듬해	368
▁징역형	368
▁고사	368
뭉	368
▁올라왔다	368
르기	368
기아차	368
▁병력	368
▁인식하고	368
가격이	368
▁탐사	368
싶	368
▁씨와	368
▁지속되고	368
▁따라야	368
▁잇따르고	368
▁완성도	368
▁줄어들고	368
셔도	368
▁영향력이	368
전시회	368
블리	368
▁보유세	367
▁구매하는	367
혈관	367
▁놓여	367
▁물러나	367
(24	367
▁부합	367
▁이겨	367
▁바른	367
▁장소는	367
▁서점	367
▁어두운	367
▁이유에서다	367
▁근로자가	367
▁넉넉	367
▁투자에	367
재원	367
▁파악할	367
▁실거래가	367
▁전달할	367
므로	367
▁알려야	367
▁부모님이	367
▁안전에	367
▁지시한	367
▁바깥	367
동성	367
았고	367
▁많다고	367
팀에	367
▁달라질	366
▁원주	366
▁수행한다	366
했거나	366
▁벨기에	366
이라면서	366
▁없애	366
▁하려는	366
▁걸린다	366
▁덧	366
▁홍수	366
▁봤는데	366
▁방제	366
▁범위가	366
놨	366
▁패소	366
▁약속이	366
▁찾는다	366
▁바뀌었다	366
▁명목으로	366
▁위치에	366
▁배웠	366
▁스페셜	366
▁꼬리	366
▁미래가	366
쇠	366
▁상승한	366
▁원화	366
▁엿	366
▁동료들	366
▁천장	366
살인	366
▁갔었	366
옴	366
▁목표는	365
▁조경	365
▁없었고	365
▁국정감사	365
매출	365
▁휴대	365
흘	365
▁잠이	365
▁국가와	365
▁소속팀	365
가치가	365
▁트위터에	365
▁늘리고	365
특례	365
(15	365
야당	365
▁다니고	365
았지만	365
아이들	365
▁착각	365
▁연탄	365
▁마이클	365
▁더해져	365
▁신상	365
수요가	365
▁증정	364
▁공개해	364
야만	364
▁중요하게	364
▁크레	364
▁쏟아졌다	364
▁무엇	364
버렸다	364
▁방화	364
▁선보이고	364
▁간호	364
▁맛과	364
▁남양주시	364
▁노력해야	364
사리	364
더스	364
▁지원하겠다	364
▁공개돼	364
▁장의	364
▁교수와	364
들로부터	364
▁누나	364
▁홍보대사	364
▁날은	364
▁캠페인을	364
▁상식	364
▁의향	364
▁떠오른	363
lo	363
▁조치에	363
▁마침내	363
▁파장이	363
▁결핵	363
▁들리	363
▁아산	363
인데요	363
▁도로에서	363
▁구름이	363
▁여부와	363
∼19	363
94	363
▁영남	363
터널	363
▁위탁운영	363
▁김선	363
감리	363
▁교섭단체	363
▁청춘	363
▁내놓았다	363
▁항공권	363
▁들어선	363
▁시장과	363
▁솔직히	363
▁이용에	363
▁답변이	363
해주시면	363
▁연루된	363
지수가	363
표가	363
▁제한이	363
오프	363
▁뒤에도	363
▁용서	363
▁우리와	363
▁분과위원회	363
▁드레스	363
▁심어	363
▁사용량	362
▁브랜드가	362
▁대세	362
▁저렴	362
▁추진하겠다	362
▁경감	362
▁박수	362
닷	362
▁조선일보	362
▁돌리	362
잡이	362
경기장	362
팽	362
훈이	362
▁셰프	362
해주실	362
▁출범한	362
▁s	362
연령	362
▁메시	362
보통	362
싸움	362
▁성접대	362
▁김학의	362
김정은	362
▁제도적	362
▁도착했다	362
▁미드필더	362
▁개발하는	362
▁문제들	362
▁같다고	361
▁심해	361
▁미지수	361
▁위의	361
▁그리워	361
▁가지가	361
▁아래에	361
▁돈으로	361
▁학년	361
▁권유	361
▁오르고	361
▁생산자	361
▁미안해	361
▁뛰어들	361
▁아동의	361
섬유	361
톨	361
자전거	361
▁예상치	361
▁버섯	361
실시	361
및	361
▁서울역	361
▁통관	361
▁알림	361
▁바뀌는	361
▁바뀌었	361
얀	361
▁재취업	361
▁재편	361
▁잡혀	361
▁발견돼	361
▁구성되어	360
보급	360
▁내놓는	360
▁일본군	360
▁주춤	360
▁간이	360
▁정통	360
▁맛있게	360
웃	360
▁않으려	360
▁선정한다	360
홈런	360
▁빠질	360
▁함정	360
▁공기가	360
▁없지	360
▁기획예산과장	360
▁선순환	360
▁노동자들이	360
하였	360
▁줘야	360
쌍	360
▁판매자	360
▁차려	360
(12	360
▁방향이	360
시에는	360
▁친구들은	360
▁선택하는	360
▁구속된	360
▁증거인멸	360
▁대응에	360
▁항소	360
구획	359
긍	359
▁북부지역	359
▁제한하는	359
▁결과적으로	359
▁한유총	359
ON	359
짙	359
▁용기를	359
▁양주	359
▁춘	359
▁빨간	359
매매	359
▁김재	359
▁들어설	359
▁즐기고	359
▁작용한	359
SA	359
▁창의적	359
▁그런지	359
주신	359
▁상품에	359
▁무사히	359
▁단체의	359
ICT	359
▁형평성	359
▁드리고	359
▁재질	359
▁재판에서	359
▁증가해	359
▁주도적	359
▁크루즈	359
▁작곡	359
▁의석	359
물가	359
▁상황과	359
▁장애인의	359
▁예쁘	358
▁혼잡	358
▁서쪽	358
▁생산량	358
▁픽업	358
대체	358
▁피하기	358
▁엄격한	358
▁주축	358
사전	358
▁거라는	358
▁1998	358
팜	358
▁영위	358
▁국제유가	358
▁핵시설	358
▁작은도서관	358
▁선택이	358
▁태풍이	358
미스터	358
▁미치	358
▁그림이	358
▁성형	358
▁거니	358
▁판매하고	358
▁알리기	358
▁깔려	358
▁두루	358
▁상당수가	358
▁노동자가	358
▁운반	357
▁정신건강	357
회말	357
▁방식은	357
행사에	357
어업	357
▁고혈압	357
▁확대가	357
▁대면	357
▁아우	357
구단	357
▁종사	357
▁평양에서	357
▁명문	357
▁참여하여	357
보도	357
▁판결했다	357
▁고액	357
▁입대	357
(0	357
신한	357
▁모기	357
ow	357
▁메가	356
▁읽기	356
▁받았다는	356
인데도	356
2,000	356
▁목격	356
▁은행에	356
하수	356
▁말부터	356
▁위장	356
▁평가에서	356
님들	356
▁차트	356
▁단절	356
▁마련하는	356
곳은	356
▁붐	356
▁복지부	356
▁잠시만	356
▁동물들	356
▁사로잡는다	356
▁국민일보	356
SK	356
▁읽을	356
▁전자상거래	356
사람들	356
▁비례	356
▁안동	356
▁엔터테인먼트	356
▁호소했다	356
셨습니다	356
▁권한대행	356
▁명단에	355
▁작가들	355
▁b	355
▁행복해	355
▁삼성생명	355
지연	355
중지	355
한국당	355
▁축산물	355
▁광주형	355
▁업무상	355
▁그중에서	355
▁1:1	355
▁IS	355
▁매장에	355
▁체인	355
▁구할	355
▁해리	355
▁두며	355
9000	355
맙	355
▁걸었다	355
▁찍는	355
▁높지	355
▁생각하기	355
▁미용	355
▁맥락	355
▁스타디움에서	355
▁자부심	355
▁날씨에	355
돼서	355
정책의	355
▁나간	355
▁다음주	355
신고를	355
▁협상의	355
리안	355
▁선발된	355
▁정국	355
포스	354
▁개선과	354
그의	354
▁거센	354
▁여파	354
관계를	354
▁걷어	354
▁엘지	354
▁도시농업	354
였	354
CE	354
▁문자를	354
국수	354
▁미추홀구	354
든지	354
▁이야기는	354
▁필수적	354
▁잔액	354
▁전진	354
▁제안이	354
▁조성된	354
▁수목	354
▁성격을	354
량은	354
품질	354
▁여신	354
기에는	354
▁띄는	354
▁나왔습니다	354
펑	354
▁불과한	354
▁문제도	354
형사	354
▁먹으러	354
▁마련한다	353
이렇게	353
▁내세우	353
▁영상은	353
▁숨기	353
씬	353
투쟁	353
▁행위에	353
▁공개할	353
▁겁니까	353
▁확대와	353
쿼	353
▁키울	353
▁사실관계	353
▁부산지역	353
▁손학규	353
절차를	353
클리	353
진화	353
그간	353
▁면세	353
▁도마	353
▁대비한	353
▁사측	353
모바일	353
▁킹	353
▁접근성	353
▁정정	353
부스	353
기초	353
▁다가온	353
가공	353
▁검거	353
▁같았	353
▁보니까	353
▁모아지	352
▁하수	352
▁기관과	352
▁이동하는	352
▁향이	352
▁최종적으로	352
개발원	352
▁택시기사	352
카드를	352
▁소중	352
▁과자	352
▁시야	352
했다며	352
▁내려오	352
▁아쉬운	352
▁그렇다	352
▁사람이에요	352
▁과천	352
연구원이	352
동아리	352
▁규정하는	352
▁분양가	352
타임스	352
▁수익이	352
빨리	352
생태	352
▁있었으나	352
▁희귀	352
▁조양호	352
▁장병	352
▁동물을	352
▁있으세요	352
부처	352
▁비대위	352
▁검토해	352
시죠	352
▁국민에게	352
▁친한	352
등에	351
운영을	351
▁해결해	351
▁시트	351
▁보내드리겠습니다	351
▁신분증	351
▁사드	351
▁발탁	351
▁죽어	351
▁풀리	351
▁하락한	351
▁자아냈다	351
▁보내기	351
▁하실	351
▁제반	351
▁때문이었다	351
관절	351
▁달간	351
▁이동할	351
▁말라	351
▁남아있는	351
셜	351
▁보좌	351
▁깔끔	351
▁교섭	351
▁이용하면	351
▁되돌아	351
▁처리에	351
▁떠날	351
▁상임위	351
▁결승전	351
▁거품	351
▁끓	351
▁다량	351
SO	351
▁제시할	351
▁종로	351
화하는	351
▁넘긴	350
공화국	350
▁도울	350
▁1500	350
▁경기침체	350
▁적혀	350
▁게시판	350
형태	350
슬라	350
▁밝히지	350
▁강화된	350
▁오세요	350
리조트	350
▁이동이	350
번의	350
▁게이트	350
▁조용히	350
▁공감을	350
▁것임을	350
▁보람	350
▁고충	350
▁동서	350
▁고도화	350
EX	350
▁월세	350
▁돌아가는	350
▁년간	350
▁감수	350
▁팔리	350
▁치는	350
었으면	350
▁묶어	350
▁도입에	350
▁공공기관이	350
돼지	350
▁온다	349
겠죠	349
▁과거와	349
▁개헌	349
▁나가야	349
되었던	349
▁노동시장	349
▁혼합	349
▁시행된	349
기업과	349
▁돕는다	349
▁투자자들	349
▁격리	349
▁다운로드	349
▁싸우	349
▁구성하며	349
▁논의하는	349
주의자	349
▁경제성장률	349
▁이관	349
▁없네요	349
려서	349
▁초청해	349
비상	349
▁해외로	349
▁연정	349
▁콘퍼런스	349
de	349
▁커지자	349
▁농작물	349
▁여겨	349
▁햄버거	349
▁문턱	349
명에서	349
▁그해	349
▁선고했다	348
▁시달리	348
▁요구된다	348
연구회	348
렴	348
▁얻었	348
▁주민들에게	348
▁일각	348
▁적정한	348
▁사무관	348
IP	348
▁신재생에너지	348
▁프로젝트가	348
▁박상	348
▁동쪽	348
▁침투	348
▁항공편	348
▁이집트	348
▁역사와	348
▁맞물려	348
▁그만두	348
▁야근	348
병이	348
▁양자	348
▁다가가	348
93	348
▁표현한	348
자신	348
▁돌파구	348
녕	348
▁정차	348
▁차종	348
▁믿는	348
▁이르기까지	348
FA	348
▁모습과	348
▁낙찰	348
▁지능	348
▁당연	348
LG	348
캠	347
▁냉동	347
▁산하기관	347
▁드물	347
▁무더기	347
▁필리핀에	347
▁부족하다는	347
▁확대한다	347
▁기준치	347
▁길어지	347
▁바르셀로나	347
지진	347
▁놓치	347
▁사진으로	347
검진	347
▁왕복	347
▁열흘	347
▁정책으로	347
▁심야	347
▁지도부가	347
▁아닌가요	347
▁큐	347
▁소문이	347
▁의정부시	347
방송통신	347
지난달	347
▁늘어난다	347
▁모집에	347
(21	347
▁민사	347
▁느낀다	347
시키려	347
▁영원히	347
둬	347
▁첨부된	347
▁일었다	347
▁입안	346
▁읽었	346
▁주역	346
▁검토하여	346
▁레드	346
▁식중독	346
▁문화관광	346
▁짧게	346
▁옷이	346
▁멋있	346
▁없다며	346
정수	346
▁주도한	346
▁되게	346
▁교회에	346
영장	346
▁도면	346
▁기다려야	346
▁국가를	346
답게	346
바닥	346
▁소액	346
▁캘리포니아	346
▁시작했습니다	346
▁일감	346
도널드	346
▁참석하고	346
▁명분	346
▁모이는	346
당신은	346
리더	346
▁나빠	346
▁상반기에	346
▁수천	346
▁뭐라고	345
▁톡톡	345
▁알바	345
▁서울로	345
▁한잔	345
▁협치	345
민정	345
▁드러낸	345
▁기념품	345
▁호선	345
▁진정성	345
▁수입이	345
▁아이디어가	345
▁정도에	345
형으로	345
▁실전	345
다보니	345
▁나눴다	345
▁말했어요	345
▁실업	345
▁저렴하게	345
▁터미널	345
▁두번째	345
▁내장	345
▁친구에게	345
▁일련	345
▁가라앉	345
ET	345
▁공무원과	345
▁갖추어	345
▁특색	345
TF	344
▁과시	344
▁신차	344
청에서	344
▁교육감이	344
크림	344
▁다양	344
유형	344
▁의원실	344
▁초과하는	344
▁강진	344
▁로이터통신	344
효과를	344
활용	344
▁운동장	344
▁활발히	344
▁일간	344
▁이해하는	344
▁부유	344
▁벌어지고	344
▁살리기	344
명예	344
▁들여다보	344
▁쉬고	344
▁구멍	344
▁포함되지	344
▁여섯	344
▁향기	344
▁판단할	344
▁도로가	344
점포	344
▁응답이	344
▁서서히	344
▁압류	344
▁유기농	344
▁있음에도	344
계산	344
기독교	343
▁멈추	343
▁바탕	343
▁해법	343
▁잎	343
▁길로	343
겠습니까	343
월말까지	343
▁예방에	343
되더라도	343
▁접할	343
▁환기	343
▁어우러져	343
▁문의가	343
다시	343
주실	343
▁등장해	343
▁추진될	343
▁회부	343
▁기반이	343
(22	343
▁치우	343
▁직권	343
▁울리	343
▁상임위원회	343
▁시행하고	343
▁추정하고	343
▁꼬집었	343
▁생산한	343
▁주름	343
▁갈아	343
▁린	343
▁학문	343
▁유럽의	343
▁상륙	343
▁바로잡	343
▁구조물	343
▁직원들에게	343
부족	343
▁여성과	343
▁적도	343
▁학생부	343
▁연락해	343
▁스테이크	342
▁이유도	342
▁구로	342
▁개념을	342
▁노인복지	342
렐	342
▁학력	342
▁영변	342
▁교차	342
▁장씨	342
▁도민이	342
▁지난해까지	342
▁운영이	342
감과	342
얹	342
마음껏	342
▁학교생활	342
▁브리	342
▁토로했다	342
▁찾아내	342
▁습득	342
▁부결	342
죄송합니다	342
▁잘라	342
교환	342
플렉스	342
▁관련해서	342
▁라돈	342
슈퍼	342
벨트	342
▁다치	342
▁추출	342
▁날로	342
▁품고	342
파일	342
▁76	342
▁재생에너지	341
▁조직이	341
▁만남이	341
▁사랑에	341
▁베스트	341
▁개학	341
▁전복	341
▁부모와	341
했더니	341
▁NH	341
▁교육생	341
▁필요시	341
▁배워	341
▁아이콘	341
▁선물로	341
▁국군	341
▁지속해서	341
▁완화를	341
▁방영	341
본다	341
▁고리	341
▁퍼져	341
적이지	341
▁동물원	341
▁문항	341
▁위안화	341
번지	341
권과	341
▁임차	341
▁없었지만	341
▁$	341
▁게스트	340
▁베이스	340
▁협력이	340
▁약자	340
도교육청	340
▁귀농	340
▁전문가와	340
II	340
▁비주얼	340
패스	340
▁빈소	340
▁자율주행차	340
▁사양	340
▁세션	340
▁단일팀	340
▁개선하기	340
▁걸맞	340
▁총기	340
▁즉석	340
▁식의	340
▁밀리	340
▁대학원	340
▁좋아해	340
▁왔어	340
▁휘발유	340
▁진도	340
▁없었다는	340
보험료	340
▁관여한	340
▁진출에	340
▁담당부서	340
▁명의로	340
투자자	340
ou	340
▁나서서	339
▁본래	339
▁브리핑에서	339
▁특징이	339
▁유세	339
그래서	339
▁제시하고	339
지휘	339
▁됩니까	339
▁한국노총	339
▁어쩌면	339
▁가능하다면	339
▁합작	339
▁가속	339
자산운용	339
공고	339
▁연동형	339
▁어려웠다	339
씨에	339
▁기념촬영	339
▁포착됐다	339
▁주둔	339
호에서	339
▁공개하지	339
▁민심	339
▁언급하며	339
▁불펜	339
▁주먹	339
▁해결에	339
▁자식	338
판이	338
▁숭	338
▁구가	338
▁사냥	338
▁일시적으로	338
▁하신	338
▁88	338
▁착륙	338
▁단일화	338
▁연구에	338
▁전체회의	338
▁펼친	338
▁고집	338
깐	338
▁재계약	338
▁정직	338
▁단계적으로	338
▁과제가	338
▁정보와	338
▁빛나는	338
▁2.5	338
▁찾아야	338
크스	338
▁알려지	338
▁누르	338
▁크라	338
▁신뢰성	338
▁이뤄져	338
▁느꼈다	338
▁빅뱅	338
▁찾아와	338
경찰서에	338
▁말하지	338
▁누워	338
▁분과	338
하십시오	338
으로서는	338
되었	337
▁해당되는	337
▁상품으로	337
▁낙동강	337
▁일본어	337
▁20∼30	337
▁후보와	337
기업인	337
▁부족으로	337
▁러시아의	337
정부의	337
▁사이트에	337
▁케미	337
▁기관장	337
▁끌어올리	337
▁이식	337
▁오바마	337
부채	337
종합지원센터	337
▁다운	337
▁기다릴	337
재생	337
▁한국전쟁	337
▁지원금을	337
▁영예	337
▁필요하면	337
▁깎아	337
▁LH	337
▁분야가	337
▁블룸버그	337
▁제안서	337
▁도시락	337
아침	337
▁하차	337
▁까닭	337
▁영역에서	337
▁미션	336
▁건강이	336
▁목에	336
▁화물차	336
▁보편적	336
▁가톨릭	336
▁직종	336
두고	336
▁발굴해	336
▁하려면	336
▁낮고	336
▁밭	336
▁축복	336
▁알아요	336
▁번째는	336
▁당선자	336
▁부검	336
▁피어	336
정보시스템	336
▁뛰는	336
▁사무실에서	336
▁캄보디아	336
▁규칙에	336
▁버리	336
▁콜롬비아	336
▁보컬	336
▁기내식	336
보자	336
▁그쪽	336
▁공공기관의	336
쉽	336
켈	336
▁선보이며	336
꽁	336
▁전례	335
시오	335
▁요새	335
잤	335
▁접근할	335
토론회	335
1000	335
▁도래	335
▁가정에서	335
추가	335
▁미안해요	335
수립	335
해보고	335
▁순방	335
97	335
▁적법	335
국토부	335
▁동일하게	335
▁것이라며	335
(23	335
향후	335
유로	335
▁사안에	335
▁감싸	335
▁접경지역	335
▁데서	335
▁결정하고	335
▁비로	335
▁인문	335
!"	335
▁하나씩	335
▁쓰이는	335
▁임명한다	335
▁십자가	335
▁않으며	335
지금까지	335
08	335
▁신체적	335
룬	335
▁지도자들	335
▁관심도	335
▁이별	335
토지	335
▁뜨겁게	334
숨	334
▁필요성	334
▁토대	334
▁계엄	334
국방부	334
ter	334
▁실종된	334
대법원	334
점검을	334
▁정책은	334
▁교단	334
▁단어를	334
▁해당한다	334
▁참고인	334
▁관람객이	334
▁깔	334
▁골문	334
무엇보다	334
셰	334
▁강북	334
▁전선	334
▁후원금	334
▁정비사업	334
▁계엄령	334
▁정년	334
▁억울	334
▁의문이	334
멀	334
▁말하면	334
▁날에	334
▁확보하는	334
▁항소심에서	334
▁차분	334
불법	334
▁살펴	334
탬	334
▁노선을	334
됐으면	334
▁참가했다	333
▁연천	333
위에서	333
복지센터	333
▁안개	333
▁사업계획서	333
이것은	333
▁이외에도	333
▁인삼	333
교육과	333
▁권역	333
▁미투	333
▁부적합	333
▁과반수	333
▁헬스케어	333
▁여행지	333
▁택지	333
▁이득	333
▁잠재적	333
▁조직의	333
▁연안	333
▁새우	333
찔	333
▁불합리	333
▁건강과	333
▁상징하는	333
▁성장과	333
함은	333
▁개그맨	333
보건소	333
▁오피스	333
▁챔피언십	333
VR	333
▁싶다고	332
▁밝히면서	332
▁업계가	332
▁불쾌	332
▁포지션	332
▁않겠	332
▁전액을	332
▁자리로	332
▁다리가	332
▁마련해야	332
▁그린벨트	332
▁죽을	332
▁부임	332
▁모터	332
수학	332
▁넘는다	332
▁압수	332
▁자영업	332
▁논평	332
▁산불이	332
▁성취	332
▁타깃	332
▁이용료	332
▁일입니다	332
7000	332
▁다스	332
▁p	332
▁확정했다	332
▁커지	331
▁초안	331
▁불에	331
▁직권남용	331
▁낮아지	331
▁전쟁을	331
3000	331
요리	331
▁흥미로운	331
▁가늠	331
▁호전	331
▁턱	331
품목	331
▁수익률이	331
▁도입된	331
▁계승	331
▁성금	331
▁커서	331
▁담합	331
▁걸어서	331
▁뽑는	331
▁즐거움을	331
▁거주지	331
AC	331
▁a	331
실과	331
▁생각했어요	331
▁경남지사	331
개정안	331
▁규정은	331
공개된	331
▁기류	330
▁추진하여야	330
▁정씨	330
▁준비해야	330
▁색이	330
▁훌륭	330
▁잡힌	330
▁바다에	330
▁관할구역	330
▁구보	330
커머스	330
▁공존	330
▁하나하나	330
▁배우들이	330
▁조성하기	330
▁라벨	330
▁한두	330
보증금	330
▁진상	330
▁차가운	330
▁계류	330
냅니다	330
▁요구하며	330
▁낫다	330
금융그룹	330
함으로	330
▁소비자에게	330
▁농약	330
KT	330
▁도시로	330
▁오염물질	330
라스	330
▁욕망	330
시청	330
타자	330
▁뮤직비디오	330
만명에	330
식에서	330
▁털어놨다	330
▁장애가	329
▁제공되는	329
장려금	329
개씩	329
▁발견한	329
▁드러	329
▁운수	329
▁향하는	329
▁지목된	329
신탁	329
▁안착	329
▁2%	329
사령관	329
▁자질	329
▁카타르	329
▁71	329
ct	329
회초	329
▁굿	329
▁연쇄	329
▁사용하면	329
감소	329
땅	329
▁보이면서	329
▁아름답	329
▁분해	329
▁경험한	329
▁실패한	329
▁후보지	329
▁3·4	328
▁이러	328
▁전체에	328
▁접수됐다	328
▁위조	328
▁기술적	328
창조	328
▁출시했다	328
▁은평구	328
▁여름방학	328
▁성장에	328
▁다뤄	328
▁클릭	328
▁북한산	328
▁기종	328
▁과제로	328
▁시작될	328
▁취하	328
으론	328
▁악기	328
▁비영리법인	328
▁정리해	328
▁적정성	328
버섯	328
▁깨지	328
▁장자연	328
▁오시	328
▁약점	328
▁고마워요	328
▁집어	328
▁심도	328
▁최고치	328
▁포용	328
▁물어봐	328
증명서	328
그램	328
하죠	328
▁자료는	328
▁기성용	328
▁스키	328
▁초에	328
중이다	328
팀과	328
팡	328
라이언	327
▁을지로	327
▁장면은	327
요건	327
▁밝히는	327
▁지원계획	327
▁질이	327
▁물었다	327
인간	327
▁몰라요	327
▁폭언	327
▁맞는지	327
▁우버	327
▁선수로	327
▁도입해	327
▁유권자	327
▁인정될	327
짐에	327
▁농성	327
오염	327
▁통학	327
▁수소차	327
▁청와대에서	327
▁함양	327
▁기리	327
▁포트폴리오	327
▁강조하고	327
▁끄는	327
▁만인	327
▁출석해	327
▁몰린	327
불편	327
동원	327
▁세부사항	327
▁조정이	327
▁될까	327
개편	327
▁표현이	327
▁거래량	327
▁표했다	327
▁싶을	327
요즘	327
▁불황	327
▁이길	327
▁떡볶이	327
▁국제적	327
▁보건의료	327
집에	327
▁알고리즘	327
▁사라졌다	326
▁시력	326
▁보이는데	326
셨다	326
▁국무장관이	326
▁응급실	326
▁신작	326
▁유튜버	326
▁‘2017	326
▁그분	326
▁족	326
▁수량을	326
▁산업에	326
파운드	326
▁자신감이	326
▁아이는	326
댐	326
▁경제학	326
갈등	326
▁셔틀버스	326
▁스파	326
▁명예훼손	326
▁우세	326
숍	326
▁소속공무원	326
▁리얼	326
해봐야	326
▁사실과	326
▁tvN	326
▁리버풀	326
▁거실	326
▁갈라	326
▁이틀간	325
▁블랙리스트	325
▁고온	325
납부	325
▁투자한	325
▁새마을	325
하나은행	325
▁홍영표	325
▁다친	325
▁손이	325
▁인체	325
▁나아	325
▁주관으로	325
▁레이저	325
▁유네스코	325
▁보육교사	325
▁부인했다	325
▁어려워지	325
▁95	325
▁설명할	325
92	325
▁내세운	325
▁증명서	325
▁길거리	325
▁전수조사	325
예비	324
▁충주	324
▁본관	324
▁부진이	324
▁없었다고	324
▁커뮤니케이션	324
▁쌍용차	324
▁보내줄	324
▁존재하지	324
▁귀찮	324
▁미안하지만	324
▁어색	324
▁전투기	324
라이브	324
▁골자	324
▁저희에게	324
스톤	324
▁넘쳐	324
▁빛이	324
값이	324
▁알려지지	324
▁맞대결	324
▁프레	324
▁현실이다	324
▁다산	324
친다	324
▁문화와	324
▁배출량	324
▁비결	324
▁아니기	324
▁걷고	324
▁키즈	324
▁대체할	324
▁구축해	324
▁중견	324
제재	324
▁산업부	324
▁공무원에게	324
▁잊어	324
▁설탕	324
▁만들어낸	324
부진	324
▁영문	324
정기	324
▁안타까운	324
▁쌓인	324
호흡	324
배에	323
▁샷	323
▁분야로	323
▁효과는	323
▁다가오는	323
▁평가하고	323
해줘서	323
8000	323
and	323
주셨으면	323
▁재난관리	323
민과	323
혜진	323
▁적당한	323
▁건설공사	323
▁시카고	323
▁뉴욕타임스	323
▁조항이	323
▁공유할	323
▁잠들	323
▁네티즌	323
▁교황	323
▁비핵화에	323
CB	323
▁일회용	323
엉	323
학부	323
▁사이로	323
▁개수	323
▁ICO	323
▁양해	323
▁확인해야	323
▁빠져나가	323
▁신입사원	323
▁노란	323
▁권고했다	323
▁오일	323
주문	323
▁강제로	323
소음	323
▁못합니다	323
▁아니하는	323
▁방문하여	323
러닝	323
▁그친	322
▁됐어요	322
▁“1	322
WSJ	322
▁톤	322
업체들	322
여러	322
있습니다	322
셉	322
▁끄	322
▁단계에	322
업체와	322
▁하겠다고	322
▁뿌	322
변동	322
▁방식에	322
영향	322
▁보았습니다	322
▁기반시설	322
▁하니까	322
윤석	322
▁확률	322
▁안전과	322
빈이	322
방울	322
그룹의	322
▁복제	322
▁수사기관	322
▁올라와	322
년만에	322
▁파트	322
▁필름	322
▁라이프	322
▁서서	321
▁원작	321
광역	321
82	321
▁실무협상	321
▁시민들에게	321
▁여학생	321
▁시흥	321
▁전주시	321
▁선언한	321
▁처리한다	321
국인	321
▁흑인	321
▁이의신청	321
▁전달한	321
▁전설	321
▁규제개혁	321
▁인정하지	321
달러를	321
▁키워드	321
▁사각지대	321
▁퇴장	321
▁유럽에서	321
▁헛	321
▁재정지원	321
▁중요하지만	321
▁회화	321
▁소외계층	321
현안	321
▁맞았	321
검증	321
▁창의적인	321
▁생각한	321
4000	321
충전	321
▁사물	321
하기에는	321
▁톰	321
▁비용으로	321
▁설명하는	321
▁향상과	321
▁절실	321
스러웠	321
▁조사는	321
화해	321
▁기록하는	321
주셨다	321
▁오케스트라	321
▁다녀오	321
▁3%	320
경제적	320
▁설렘	320
▁아파서	320
▁전보다	320
▁잘하고	320
▁온몸	320
▁충	320
▁케인	320
국토교통부	320
▁추진하기로	320
역이	320
▁나타났	320
▁화산	320
▁엔지니어	320
▁꽂	320
▁운임	320
▁북한이탈주민	320
▁보유자	320
▁기내	320
▁국고	320
▁훌쩍	320
▁롯데백화점	320
▁불행	320
최고	320
▁해방	320
▁에스케이	320
▁뜨겁다	320
▁자궁	320
▁퀴즈	320
▁이라크	320
▁선거운동	320
▁내부의	320
▁가까	320
판결	320
문제가	320
▁흘러나	320
▁당연한	320
▁나오자	320
▁게임이	320
▁열정	320
▁증가율	320
단체에	320
▁야채	320
▁동상	320
제출	319
현상	319
▁받았지만	319
▁도입이	319
선수권대회	319
▁들어왔다	319
임용	319
내려	319
▁운행이	319
▁공작	319
협회는	319
▁소통하는	319
▁제외하면	319
넬	319
▁미비	319
▁대변인이	319
▁기여함	319
▁증가하면서	319
산화	319
LPGA	319
▁적시	319
▁나갔	319
▁결정적	319
상대	319
▁머무르	319
▁삽입	319
▁국가에서	319
▁첩보	319
▁연고	319
▁진술했다	319
▁쇄신	319
▁청소년의	319
▁치러진	319
▁사진들	319
▁무혐의	319
▁좋았다	319
▁구속됐다	319
해주시고	319
▁담당하고	319
▁부담으로	319
▁반송	319
▁대통령에	319
▁마음의	319
▁하시	319
▁진출한	319
▁주주총회	319
▁셰	319
▁대리점	319
▁이산화탄소	319
혐의	319
▁투자해	318
▁도착해	318
▁넘어선	318
연습	318
▁국민연금이	318
▁변경된	318
동에서	318
▁겁	318
▁명확하게	318
▁전문가의	318
북미	318
▁돌파했다	318
받고자	318
과정에	318
▁소유권	318
선택	318
▁조짐	318
▁주택시장	318
허브	318
▁법규	318
▁상징적	318
▁불균형	318
▁댓글을	318
▁종업원	318
▁벽에	318
▁힘쓰	318
▁발이	318
▁표정으로	318
▁온갖	318
▁책에	318
▁방과	318
▁일정은	317
▁바위	317
▁만들겠다	317
▁달할	317
▁긍정	317
▁위력	317
칩니다	317
▁도모하기	317
▁방송이	317
▁기울이	317
▁없어도	317
통이	317
▁조사해	317
▁민주당의	317
▁전락	317
▁구성원들	317
▁전화로	317
분쟁	317
즉	317
▁멘토링	317
▁도시철도	317
▁계약에	317
▁동생이	317
본명	317
▁심해지	317
▁일어나고	317
▁퇴출	317
▁신년	317
▁때려	317
▁하나만	317
구청장이	317
▁빨간색	317
▁상설	316
▁토종	316
첼	316
▁지난번	316
▁더했다	316
▁청년층	316
▁우려하는	316
엎	316
▁불거졌다	316
▁플레이오프	316
툼	316
과장이	316
장인	316
▁각지	316
해양수산	316
▁밀착	316
▁늘릴	316
▁창의	316
▁정부서울청사	316
▁개념이	316
▁못했지만	316
▁못해요	316
앞	316
▁주시고	316
되나요	316
▁초대형	316
활동이	316
▁이재민	316
▁도와주는	316
▁역사의	316
▁추워	316
그리	315
▁원형	315
상공회의소	315
환경이	315
▁실무자	315
▁집중하고	315
▁마라톤	315
감치	315
칩	315
▁시민사회	315
▁도로에	315
▁시신이	315
▁꿀	315
▁사이트를	315
▁통화에서	315
▁미국산	315
퉁	315
펫	315
유아	315
▁정신과	315
▁채팅	315
▁of	315
▁붓	315
▁대접	315
▁나가서	315
▁업황	315
▁이승우	315
해왔던	315
▁신입	315
▁청문	315
▁금품을	315
▁가로막	315
▁말씀이	315
▁군의	315
▁홈페이지에서	314
▁줘서	314
▁마비	314
▁미생물	314
▁민간기업	314
수정	314
▁예정이어서	314
▁아이들과	314
▁제한할	314
▁인연이	314
▁소속된	314
▁폰	314
▁사본	314
▁문제점이	314
▁대리인	314
▁일행	314
▁직급	314
▁시점이	314
▁일으키	314
▁회계처리	314
띠	314
알겠습니다	314
▁우호	314
▁방사선	314
▁소홀	314
▁유무	314
▁조현우	314
▁건강하고	314
▁투자할	314
▁사운드	314
▁인성	314
주민들	314
이었다고	314
▁개체	314
▁총력을	314
▁부친	313
OT	313
▁좋아하고	313
올해는	313
ir	313
▁연방준비제도	313
▁국방장관	313
▁호황	313
▁지우	313
▁기세	313
▁불로	313
▁당이	313
▁양심	313
▁충당	313
재료	313
▁지친	313
▁참가자들이	313
▁노숙인	313
늑	313
▁달콤한	313
▁생각해보	313
▁해결해야	313
▁진출이	313
▁삼성전자와	313
FIFA	313
▁군이	313
▁확대로	313
▁외상	313
▁먹어야	313
선물	312
▁판매할	312
▁영감	312
▁뒤인	312
▁장로	312
개시	312
솜	312
춥	312
▁위반행위	312
▁유선	312
▁아이스	312
구호	312
▁필요한데	312
▁멤버들이	312
▁걸립니	312
▁이불	312
▁사령관	312
▁평가에	312
▁샘	312
▁지나지	312
져야	312
▁도착하면	312
▁알코올	312
▁일으킬	312
▁많았던	312
동욱	312
조사단	312
▁쓰레기를	312
▁OLED	312
▁경품	312
▁에코	312
팩트	312
끄	312
▁지지율이	312
▁개입한	312
▁가평군	312
▁자사고	312
▁취소하고	312
하자고	312
▁읽으	312
위와	312
종사자	312
대강	312
였기	312
즘	311
▁성숙	311
▁출발해	311
▁경기도교육청	311
▁노화	311
▁수년간	311
▁폭염으로	311
▁의학	311
▁풍성한	311
▁계좌로	311
썩	311
▁향수	311
▁사로잡았다	311
어제	311
▁허위사실	311
▁인터넷에	311
▁의전	311
▁이하인	311
구글	311
버릴	311
▁장례	311
▁사실도	311
재배	311
▁셋째	311
▁선거제	311
뷰티	311
먹는	311
주셔야	311
▁식감	311
▁단속에	311
▁공고하여야	311
▁냉각	311
▁아들의	311
▁사후관리	311
▁기본법	311
▁참모	311
▁몰리는	311
춤	311
▁이용자들	311
내륙	311
▁마다	311
진우	311
▁단정	311
▁고창	311
▁받아들이지	311
임대주택	310
▁우수성	310
▁차는	310
▁나타내는	310
▁증가가	310
입법	310
▁히어로즈	310
▁종부세	310
▁내정	310
자에게는	310
▁지켜야	310
▁순찰	310
▁델	310
▁사귀	310
▁해온	310
창구	310
침대	310
▁기밀	310
▁개개인	310
▁송장	310
해드릴	310
▁가르치	310
▁김병준	310
▁양평	310
▁습	310
▁대화방	310
▁햇빛	310
▁파란색	310
▁나름	310
▁방으로	310
▁유진	310
▁고기압	309
▁부상자	309
▁유나이티드	309
St	309
▁앉아서	309
▁지역에서는	309
▁에피소드	309
▁조종	309
▁쏟아져	309
▁있으시면	309
▁4000	309
▁장인	309
▁동남아시아	309
회와	309
▁칭	309
▁독재	309
▁믿지	309
▁아파	309
▁삶과	309
닷컴	309
▁곤란	309
▁해양수산부	309
▁지형	309
▁찍을	309
집회	309
▁과기정통부	309
굵	309
▁배송비	309
▁국무총리가	309
▁그녀와	309
▁국정감사에서	309
▁조속	309
양식	309
버그	309
▁여성가족부	309
▁인물들	309
▁업무와	309
▁출납	309
▁듣지	308
▁협의해	308
▁뜻하는	308
▁아쉬워	308
▁시기는	308
▁가치관	308
하천	308
▁민주화	308
▁마찰	308
▁사용된	308
▁모르겠지만	308
▁외무성	308
▁청년이	308
배송	308
합창단	308
▁조문	308
▁공수처	308
▁익숙한	308
▁국영	308
▁답이	308
육아	308
▁제공했다	308
부부	308
원칙	308
▁분비	308
체로	308
시절	308
▁77	308
웠던	308
주면	308
▁주차요금	308
▁제주도에	308
낚	308
▁낮에	308
▁남북한	308
▁김주	308
▁발언에	308
▁실리	308
▁숙련	308
▁선택해	308
정책과	308
▁LNG	307
▁시장으로	307
부정	307
▁여력이	307
▁막걸리	307
▁범위는	307
▁월스트리트저널	307
태세	307
▁학점	307
▁78	307
▁장으로	307
집이	307
▁가는데	307
▁맛있	307
▁인디	307
▁뜻한다	307
연준	307
금고	307
▁바라보고	307
무대	307
▁오스트리아	307
▁넘었다	307
▁푸드	307
▁마케팅을	307
▁폭을	307
▁전문가로	307
디스플레이	307
셨는데	307
▁창출에	307
▁인상과	307
의료원	307
▁그러니	307
▁예술가	307
▁촉구하고	307
▁TF	307
▁공인중개사	307
▁실린	307
▁필요하지	307
▁괜찮아요	307
인들은	307
▁중요성이	307
FT	307
▁경사	307
▁학생들과	307
딪	307
▁견디	307
▁저축	307
사업과	307
▁창설	307
천여명	307
▁마두로	307
▁아토피	307
회사가	307
주변	307
▁69	307
생태계	307
▁의미하는	306
▁구입할	306
▁친근	306
▁요트	306
▁가정에	306
여고	306
%	306
▁상장사	306
▁체크아웃	306
▁강경화	306
오리	306
음식점	306
▁샌프란시스코	306
▁지역주민들	306
▁가져왔	306
▁수량이	306
▁넓혀	306
▁기관은	306
▁독거노인	306
차라리	306
▁사정으로	306
▁대원	306
회의는	306
▁입법예고	306
▁이루어진	306
보트	306
▁삼성의	306
▁소유한	306
▁캐스팅	306
▁장거리	306
▁1,0	306
▁이뤄지면	306
이었으나	306
▁남동생	306
▁바뀌	306
▁제주시	306
▁메리	306
▁영토	306
계약서	306
▁책자	306
▁선거법	306
조달	306
▁상습	306
▁건설사	306
▁세로	306
정보화	306
▁교육지원청	305
투기	305
▁던져	305
▁편한	305
▁구워	305
▁거세지	305
간담회	305
▁전문기업	305
▁텍사스	305
반대	305
▁지하수	305
분위	305
리오	305
▁투자와	305
깎	305
▁누군가가	305
▁모레	305
▁않은데	305
장터	305
▁의존도	305
▁보여요	305
▁성평등	305
▁좋지만	305
▁챙긴	305
비율이	305
▁예고한	305
하늘	305
▁거제	305
추진단	305
▁예의	305
▁여당이	305
프로젝트	305
▁겪을	305
심과	305
▁바다를	305
▁개막전	305
머신	305
▁숫자가	305
▁받으면서	305
아주	305
▁출원	305
▁것이어서	305
▁온천	305
▁갯벌	305
▁남기고	305
▁생중계	305
재현	305
▁훈훈	305
▁홍준표	305
▁한국전력	305
공정위	305
전공	305
▁해외시장	304
▁국정농단	304
▁테니까	304
비핵화	304
▁인권침해	304
▁계양구	304
▁논술	304
▁이웃들	304
▁경기도시공사	304
▁자아낸다	304
EM	304
▁돌연	304
RI	304
▁견줘	304
▁알려주는	304
▁가죽	304
▁구성돼	304
▁되었고	304
공간으로	304
▁출신으로	304
▁퇴진	304
▁이끌어내	304
▁정상회담에	304
▁사외이사	304
▁사회복지시설	304
모토	304
▁관건이	304
▁공범	304
▁주문할	304
▁참가한다	304
▁가져야	304
분까지	304
▁의식이	304
▁물건들	304
▁주총	304
▁발전시키	304
▁변화와	304
▁지식과	304
▁책무	304
▁유류	304
▁운전면허	304
▁도장	303
▁행동에	303
▁상승에	303
▁하에	303
▁노란색	303
▁확실하게	303
▁친분	303
▁자연환경	303
이행	303
▁대지	303
중에서	303
▁딴	303
정책과장	303
경기에서	303
▁전달해	303
▁전달하고	303
빌리	303
▁눈물이	303
▁반영할	303
▁광장에서	303
▁작사	303
▁에릭	303
▁김창	303
▁원심	303
▁셋	303
▁기여하고	303
▁체감할	303
▁항구	303
▁탄소	303
▁1999	303
▁빈번	302
▁테니스	302
복음	302
▁모르겠습니다	302
▁받았을	302
▁괜찮을	302
▁사무실을	302
▁차고	302
▁조성할	302
▁군부대	302
▁덕에	302
주시고	302
상황이	302
모두	302
▁국감	302
▁장례식장	302
▁쉬워	302
방에서	302
언더파	302
▁포괄적	302
▁평가전	302
▁증선위	302
▁4∼5	302
▁뭔지	302
▁82	302
▁장병들	302
▁지난번에	302
▁저질렀다	302
▁어른들	302
▁여배우	302
▁정계	302
▁갓	302
▁인접한	302
위해	302
▁이해하지	302
▁표지판	302
테크노밸리	302
▁깨어	302
아르	302
▁불복	302
▁이바지함	302
▁구름	302
▁짙은	301
(17	301
였으며	301
해주기	301
아트센터	301
▁김준	301
▁알린	301
▁러시아와	301
▁돌아다니	301
▁머리카락	301
▁했으며	301
▁읍	301
▁떠오르고	301
▁연관성	301
가구가	301
▁마포	301
▁컨셉	301
밋	301
▁부분도	301
감정	301
▁적기	301
▁직거래	301
▁쭉	301
▁74	301
▁속으로	301
▁우수상	301
▁원하시는	301
▁비난을	301
▁맨체스터	301
▁옆에서	301
센터와	301
▁높인다	301
불안	301
▁부상이	301
▁승객들	301
▁업적	301
▁불과했다	301
▁작품에	301
▁인상으로	301
완화	301
▁관문	301
▁그렇다고	301
RP	301
십시오	301
▁레저	301
▁중증장애인	301
▁중인데	301
있게	301
▁베이비	301
▁유공자	301
뚱	301
▁생각했습니다	300
▁결집	300
▁텃밭	300
▁다가오	300
▁못한다는	300
▁독자적	300
만큼은	300
노트	300
▁관료	300
▁꾸며	300
▁느끼지	300
축산	300
▁가꾸	300
휩	300
▁본사에서	300
▁랭킹	300
저런	300
▁이루기	300
뒤	300
화성	300
▁감옥	300
쌈	300
▁잃어	300
▁보호하고	300
▁수익성이	300
▁함으로써	300
▁상황에서도	300
▁해법을	300
CI	300
▁요양	300
▁YG	300
조원에	300
▁2025	300
소스	300
뿐이에요	300
▁시각장애인	300
핏	300
조와	300
▁자생	300
▁생활체육	300
▁공매도	300
▁목표가	300
▁나이에	300
하셨나요	300
▁위원장에게	300
▁펼쳐지는	300
▁입주기업	300
▁나서면서	300
감시	300
▁처벌이	299
▁쓰러져	299
07	299
그림	299
재단은	299
▁하시면	299
중기	299
▁받던	299
▁한식	299
▁반사	299
▁시작했어요	299
▁해병대	299
▁유휴	299
▁이행하지	299
▁래퍼	299
중간	299
▁다녀온	299
▁유동	299
▁라운드	299
▁의외	299
전문가들	299
▁악성	299
▁드라이브	299
▁김승	299
▁일어나지	299
▁상생협력	299
▁조씨	299
군에서	299
▁1,500	299
재활	299
▁말라고	299
▁무소속	299
▁요약	299
오던	299
▁외관	299
▁출판사	299
진보	299
▁인터	299
▁종료된	299
여러분	299
▁표정이	299
▁사물인터넷	299
▁행보에	299
▁최저임금이	299
시간대	299
me	299
▁지킬	299
▁사진에	299
▁베를린	299
▁고발한	299
▁앞당	298
▁주문했는데	298
▁사야	298
▁물질이	298
졸	298
▁국가안보	298
▁못했다고	298
▁파장	298
▁구분하여	298
TI	298
▁서민들	298
▁심각	298
▁실기	298
▁탐구	298
▁육상	298
▁희망이	298
▁오르면서	298
▁탈바꿈	298
▁장점은	298
플라	298
▁집중호우	298
▁부담금	298
▁대출금리	298
▁나가고	298
▁각기	298
▁동아	298
▁프로필	298
건설이	298
▁공영	298
▁경기북부지역	298
권한	298
▁발휘할	298
중단	298
▁레벨	298
▁흡입	298
TC	298
▁조치는	298
▁졸업생	298
▁오른다	298
▁99	298
▁국가에	298
▁적용이	298
▁반짝	298
호수	298
▁부가가치	297
둥이	297
상황실	297
▁상용	297
▁것입니까	297
▁쿠키	297
▁지원된다	297
봤는데	297
▁실려	297
▁관리주체	297
공사를	297
▁하우스	297
▁행운	297
▁산모	297
▁지상파	297
▁되었	297
었다고	297
떼	297
▁승리의	297
▁끌어내	297
▁지급하지	297
▁운영되는	297
▁진행돼	297
▁갖췄다	297
▁유학생	297
▁하와이	297
▁부구청장이	297
▁붙을	297
▁수용할	297
하셨	297
▁하반기부터	297
▁업체인	297
▁신년사	297
▁이보다	297
The	297
륨	297
▁받았는데	297
▁사상자	297
▁정책적	297
▁자르	297
TE	297
▁적용될	297
▁두드러	297
지청	297
▁혼인	297
▁철저하게	297
▁파악해	297
▁터라	297
공기	297
만여명	297
지방재정법	296
다르	296
입장	296
▁겹쳐	296
여건이	296
▁들어오면	296
닙	296
▁개발된	296
▁모욕	296
ver	296
벼	296
워서	296
▁교훈	296
▁브라운	296
▁동아시아	296
▁시민과	296
▁개최됐다	296
▁팔당	296
▁초부터	296
▁동등	296
▁다짐했다	296
▁밝혔지만	296
▁높기	296
해주면	296
▁경질	296
대부분	296
▁휠체어	296
▁발급받	296
▁찾아볼	296
▁떠났	296
▁발굴하고	296
▁내일까지	296
▁이씨	296
▁개선하고	296
융자	296
▁얻어야	296
배당	296
▁상표	296
▁여객	296
▁카라	296
▁논의하기	296
회의에	296
▁고민하고	296
드래곤	296
▁믿	296
▁어떻	295
▁현대모비스	295
▁인하대	295
조절	295
절감	295
▁어렵지	295
▁IoT	295
▁하는데요	295
통지서	295
화력발전소	295
▁넣는	295
▁헝가리	295
▁근처에서	295
▁잔여	295
▁태평양	295
▁건물에	295
▁둘러보	295
US	295
분리	295
▁난항	295
작업이	295
▁독보적	295
▁장군	295
▁프로듀서	295
▁서정	295
공제	295
▁기념행사	295
업계가	295
▁농담	295
▁부지에	295
▁세력이	295
사정	295
스토어	295
▁방향에	295
위원이	295
연구기관	295
뜩이	295
▁회원이	295
특보	295
▁부시	295
▁소요될	295
▁기술력을	295
▁불발	295
볶음	295
▁표창을	295
출장	295
가능성	294
▁우즈베키스탄	294
▁연천군	294
▁가난한	294
스카이	294
▁연구는	294
▁급증하고	294
▁회담에서	294
▁c	294
▁일으키는	294
▁벤치	294
▁드러났	294
▁싶었다	294
▁있기에	294
im	294
▁주석이	294
▁슬로건	294
▁탕	294
전반	294
필드	294
▁공룡	294
▁성장한	294
▁위험성이	294
▁사례도	294
▁작품들	294
▁김정숙	294
석유	294
▁거듭나	294
▁압축	294
▁잠재력	294
▁유치에	294
▁유리하다	294
▁경사노위	294
▁미얀마	294
▁움직일	294
▁건물주	294
▁시흥시	294
▁있네요	294
▁관제	294
▁비상저감조치	294
▁가져온	294
▁마을공동체	294
▁혼란이	294
센서	294
▁살피	294
▁탈세	294
▁전하고	294
▁역할에	294
▁연상	293
▁자세로	293
▁국가인권위원회	293
▁페널티킥	293
관계가	293
▁오페라	293
▁누구에게	293
▁도지사에게	293
▁모델은	293
▁포토	293
▁다쳤다	293
▁예외로	293
사용료	293
▁총격	293
▁현실에	293
▁일원에서	293
업체들이	293
▁금지하는	293
▁시장에게	293
▁산업계	293
슛	293
▁PO	293
▁대중화	293
▁기울이고	293
ad	293
치유	293
버드	293
▁미만인	293
▁업무수행	293
▁교감	293
부산시	293
▁토끼	293
▁앞당겨	293
▁실장이	293
대원	293
▁민속	293
▁빠	293
실점	293
▁전쟁이	293
▁170	293
리프	293
▁제로페이	293
▁노선이	293
▁계획하고	293
▁강화한다	293
대회를	293
▁구하기	292
▁소정	292
▁보고서에서	292
측이	292
▁무분별	292
버려	292
신경	292
▁주어야	292
▁장수	292
수목원	292
▁지급한	292
▁납부한	292
연기	292
▁광명	292
▁행안부	292
▁마술	292
(16	292
▁시공사	292
▁강사로	292
▁달리는	292
한화	292
였다고	292
▁파란	292
▁새만금	292
▁위안	292
▁타면	292
수급자	292
광주시	292
너무	292
▁자매결연	292
▁포함하는	292
▁판결에	292
▁낭독	292
▁의구심	292
▁낡은	292
▁작성하여야	292
ent	292
▁성차별	292
▁가맹	292
▁알았다	292
▁예치	292
▁테슬라	292
너는	292
▁오늘부터	292
▁동주민센터	292
▁기둥	292
▁작품이다	292
▁동성애	292
▁순회	292
▁대안이	291
리브	291
진행	291
▁유래	291
▁해커	291
▁아랍에미리트	291
▁1970	291
▁거치지	291
▁절반이	291
▁기초연금	291
▁주시겠습니까	291
기관은	291
▁업로드	291
▁되기도	291
▁육아휴직	291
업체인	291
농촌	291
▁품질이	291
▁핑크	291
▁공헌	291
▁정보통신기술	291
테라	291
▁의하면	291
예배	291
▁아파트가	291
▁리뷰	291
밀리	291
▁희망한다	291
▁호흡기	291
▁포함된다	291
개방	291
특수	291
IM	291
▁회사로	291
▁소통이	291
▁살인사건	291
▁방출	291
▁유명하다	290
하십니다	290
는데도	290
▁데에는	290
▁털어놓	290
▁밑에	290
▁준비에	290
▁합계	290
▁도교육청	290
▁튼튼	290
▁아파트에서	290
▁요구되는	290
▁기대하기	290
▁주장하며	290
수당을	290
▁퇴임	290
했듯	290
소연	290
▁여럿	290
▁극단적	290
▁형성된	290
▁고무	290
▁애로	290
▁공개하고	290
▁화보	290
이기에	290
찍	290
▁행방	290
▁생생한	290
▁롱	290
▁태어났	290
프랑스	290
▁견학	290
▁절망	290
개팀	290
▁환경과	290
▁1·4	290
방위	290
▁부모님은	290
▁활용하고	290
▁작곡가	290
▁갖기	290
▁화면에	290
▁취소된	290
▁돌풍	290
▁강조한다	290
▁전두환	290
▁가산	290
▁효능	290
▁전문지식	290
▁이용해서	290
▁빚을	290
▁장학	290
▁그려진	289
▁뜬	289
▁꽃이	289
▁부산항	289
시설과	289
▁박수를	289
빗	289
현실	289
▁엇갈	289
▁싱가포르에서	289
▁공분	289
▁주기적	289
▁블라디미르	289
묘지	289
RS	289
9,000	289
▁의원에	289
▁김포시	289
손해보험	289
CS	289
운영하는	289
▁뒀다	289
▁걸리지	289
▁카톡	289
갯	289
수역	289
▁바뀌고	289
▁구리	289
▁시행한	289
맞이	289
▁파열	289
▁매립	289
▁내비쳤다	289
▁좋을까요	289
▁있어서는	289
자율	289
▁알려줄	289
▁닿지	289
▁샌드위치	289
파리	289
레저	289
▁본문	288
▁봤어	288
▁써서	288
FI	288
▁힙합	288
▁진료비	288
▁꿈과	288
▁사업시행자	288
▁분명하다	288
▁성수기	288
▁노래가	288
미국은	288
▁득	288
▁론칭	288
졌기	288
▁재산세	288
▁공소시효	288
▁복장	288
▁사무국장	288
▁검증된	288
▁우즈	288
▁중단된	288
미투	288
▁위해서라	288
▁교사들	288
▁원칙에	288
▁열정을	288
소녀	288
클린	288
▁과거사	288
▁주중	288
기존에	288
▁900	288
▁공개한다	288
▁손실이	288
▁버리고	288
▁페이스	288
▁참여하지	288
▁건강증진	288
▁기능은	288
▁조성해	288
▁제압	288
테르	288
▁79	288
▁하얀	288
▁노래방	288
▁각계	288
▁제도로	287
▁끔찍	287
안과	287
▁레이더	287
▁식탁	287
해준	287
▁구청장과	287
▁확산될	287
아카데미	287
▁일찌	287
▁출석위원	287
번호를	287
성공	287
▁역세권	287
▁농축	287
중독	287
▁상대가	287
▁입구에	287
▁명에	287
▁운전기사	287
▁레이스	287
▁당신들	287
▁폐기물을	287
▁회의실	287
▁가능했다	287
‘	287
▁언제부터	287
▁부과하는	287
▁보내지	287
TA	287
었기	287
▁불허	287
▁단계별	287
▁후퇴	287
▁일당	287
▁북상	287
▁주소로	287
ss	287
줘서	287
▁파스타	287
▁의료비	287
▁감소하는	287
▁평가결과	287
MW	287
▁활짝	286
지훈	286
▁연구자	286
2018	286
홈쇼핑	286
▁전망치	286
DA	286
▁가지로	286
▁불안감이	286
▁다행이	286
▁경주시	286
남자	286
요양	286
▁들어가면	286
▁지배적이	286
▁성령	286
나마	286
▁과학적	286
▁단단	286
▁스마트시티	286
▁불안한	286
됨	286
▁개인별	286
농산물	286
사이버	286
일째	286
▁새벽에	286
est	286
▁다변화	286
ul	286
국립	286
주소	286
되어서	286
▁거둘	286
디움	286
▁근무를	286
▁한발	286
▁가입한	286
▁가만	286
▁표적	286
▁찍었	286
▁갑작스러운	286
▁밝히기	285
▁오로	285
▁마이크로	285
▁절실하다	285
주시겠습니까	285
직장	285
▁현수막	285
▁가슴이	285
▁주민에게	285
▁장성	285
▁확인해보	285
▁도자기	285
OC	285
▁퇴사	285
▁교육훈련	285
키스	285
▁입수	285
정함을	285
▁업계에	285
물론	285
▁상승이	285
현금	285
▁준비했다	285
▁경험할	285
▁태안	285
▁CBS	285
기까지	285
▁이밖에	285
테크노파크	285
▁f	285
▁구미시	285
▁무겁	285
▁코팅	285
▁처음에	285
▁개선하는	285
▁마라	285
▁간직	285
▁감사결과	285
▁다쳐	285
▁개선할	285
선거관리위원회	285
▁펼쳐졌다	285
선발	284
▁시험에	284
▁만점	284
▁감소할	284
▁포르투갈	284
▁금액으로	284
▁벌인다	284
꿨	284
볶	284
▁뚝	284
▁감소하고	284
▁국물	284
▁쉐	284
블록체인	284
▁자외선	284
▁반영하여야	284
렉스	284
▁인도적	284
▁역량이	284
▁유족들	284
▁MOU	284
▁다양하고	284
▁내전	284
▁농식품	284
▁균	284
▁인터넷으로	284
(13	284
▁평가는	284
▁대안으로	284
▁공동대표	284
▁기침	284
▁콘크리트	284
▁권리가	284
▁주머니	284
▁실패했다	284
▁으	284
▁당했다고	284
낱	284
▁넘겼다	284
출판	284
▁더운	284
▁충분하다	284
▁발견해	284
현장에서	284
동맹	284
▁무사	284
▁점유	283
▁전방	283
▁웃고	283
▁수락	283
▁등장한다	283
▁맞벌이	283
▁막바지	283
▁태블릿	283
▁불가능합니	283
▁유지관리	283
▁발생했을	283
헬기	283
▁보트	283
▁가깝	283
대회에서	283
▁신용등급	283
▁일한	283
▁한양대	283
충남	283
▁진출할	283
▁시의회	283
▁소상공인들	283
▁양호한	283
▁그래픽	283
▁지적한	283
▁총괄부서	283
▁되풀이	283
툴	283
▁플레이어	283
▁불리한	283
▁광양	283
▁재난안전	283
지도자	283
▁섰다	283
▁약관	283
▁국도	283
▁감면할	283
▁업무추진비	283
▁뒤쪽	283
티스	283
▁유용한	283
▁1994	283
▁있길	283
▁국가정보원	283
▁절대적	283
▁사고에	283
▁동선	282
양성	282
▁작고	282
원전	282
▁손목	282
엣	282
▁살면서	282
▁삼고	282
▁뛰어나다	282
▁마음은	282
협회장	282
(14	282
놈	282
시키며	282
▁큽니	282
▁법제	282
▁구축할	282
특성	282
▁공개하는	282
▁가세	282
▁교육비	282
▁인터넷전문은행	282
to	282
▁대학과	282
행정기관	282
▁전라남도	282
▁소화기	282
▁점과	282
▁쉽	282
▁수행하고	282
김지사	282
했음을	282
▁드리는	282
▁월평균	282
하곤	282
▁번식	282
▁남학생	282
▁깨고	282
▁구하라	282
갔던	282
RE	282
▁반영될	282
먼트	282
해지면	282
▁애플이	282
▁잇따른	282
▁발로	282
▁안녕하세요	281
▁전화해	281
▁짐작	281
▁개인에게	281
▁스피드	281
베드	281
▁견적서	281
팠	281
▁제출해야	281
▁대기업이	281
▁86	281
보라	281
속에서	281
합시다	281
한국의	281
▁신청인에게	281
반장	281
▁취득한	281
▁연기력	281
▁손님들	281
공간이	281
▁많아지	281
▁김대	281
▁선거가	281
EA	281
블루	281
▁팔고	281
▁전환이	281
▁위탁받은	281
유플러스	281
▁하네요	281
▁변동성이	281
▁라오스	281
▁살아나	281
▁촉촉	281
팟	281
▁당뇨병	281
▁방향성	281
▁청구한	281
▁거동	281
스터디	281
▁공공부문	281
▁지적한다	281
▁이루어지는	281
음료	281
▁거울	281
통행	281
▁투여	281
창고	281
폈	281
카르	281
▁엘리	281
▁주민참여	281
되었는데	280
▁자아	280
▁선정하고	280
▁조류	280
보고서는	280
스틴	280
헌법	280
▁차주	280
▁맡는	280
▁무엇인가	280
연구소가	280
▁관광객들	280
▁종사하는	280
▁암시	280
▁오너	280
▁간격	280
▁인스타그램에	280
▁이민자	280
▁1997	280
▁표현하는	280
▁낮추는	280
▁마크롱	280
li	280
▁발산	280
▁생기고	280
▁휩쓸	280
▁폴더블폰	280
전망	280
▁독립성	280
겁	280
▁비례대표제	280
▁마을에	280
▁대신에	280
▁호우	280
▁근본적으로	280
▁산사태	280
▁수준에서	280
▁나타나지	280
▁집주인	280
▁비판하는	280
▁설레	280
흑	280
▁성도	280
뱅	280
▁댐	280
▁집무실	280
▁들어요	280
▁모스크바	280
▁감사해요	280
▁한겨레	280
▁다주택자	280
▁경총	280
▁목회	280
▁선착순	279
▁토마토	279
만원씩	279
▁부구청장	279
아서	279
▁감소세	279
▁제품이다	279
▁구실	279
정식	279
▁몰랐다	279
▁따뜻하게	279
▁학교와	279
▁곤란한	279
▁느껴지	279
▁IC	279
▁게스트하우스	279
▁덥	279
▁없음을	279
op	279
▁이것들	279
▁앞장	279
▁생체	279
▁원만	279
▁경비원	279
▁규칙에서	279
▁알아서	279
▁활용이	279
▁신청인	279
질병	279
▁실비	279
▁문제없	278
▁버튼	278
단기	278
▁수입차	278
▁진화에	278
교육청이	278
샷	278
▁비트	278
▁내어	278
소득이	278
▁활용도	278
▁계시는	278
▁그루	278
▁극복하고	278
▁상무부	278
▁흥미롭	278
입찰	278
으실	278
▁기자간담회	278
▁평화체제	278
▁마신	278
▁없을까요	278
▁이병	278
FTA	278
▁짜증	278
주주	278
▁포천시	278
주기를	278
전통	278
종교	278
▁지방자치	278
SE	278
특허	278
집에서	278
▁부지사	278
▁심경	278
문제는	278
▁상승으로	278
▁안타깝게	278
▁고객과	278
였으나	278
▁쇠	278
▁구의원	278
▁뿌려	278
▁클래스	278
▁탐색	278
▁지내는	278
▁농림	278
▁창의성	277
▁검정	277
▁입에	277
▁김관영	277
▁아르	277
▁충원	277
▁찾아오	277
▁지체없	277
▁삶은	277
▁실업률	277
틱스	277
▁생겨서	277
▁지역별로	277
▁분쟁이	277
▁특별회계	277
대책본부	277
이밖에	277
▁만들었습니	277
소위	277
▁협력체계	277
▁달러로	277
▁작성해	277
▁싶지만	277
총괄	277
▁강릉시	277
▁변화는	277
▁자존심	277
획기적으로	277
▁온라인으로	277
▁임차인	277
▁직무수행	277
▁민주화운동	277
▁지방공무원	277
분야에	277
섹	277
▁의견에	277
천억	277
▁만일	277
지영	277
▁집중하는	277
▁온종일	277
▁매트리스	277
▁시설과	277
▁점심시간	277
▁포수	277
▁않더라도	277
▁빚은	277
▁첨가	277
▁엉	277
▁스킨	277
▁전방위	277
▁단체는	277
▁한옥	276
러브	276
▁주도하고	276
▁나갔다	276
▁사무소	276
▁제작사	276
▁단체장	276
▁킨텍스	276
▁자아내	276
▁내구성	276
▁갔을	276
▁전까지는	276
▁환자들이	276
▁고려해야	276
뮤직	276
8,000	276
▁떨어뜨	276
▁있는데요	276
▁오산	276
▁구축에	276
거주	276
▁근무하고	276
LA	276
▁배석	276
단체장	276
▁이용객	276
▁생리	276
도시로	276
▁엄정	276
▁나쁘지	276
▁아우르	276
개교	276
▁검경	276
▁전제로	276
▁할까	276
▁몰라서	276
▁모험	276
▁근본	276
작물	276
▁연구자들	276
▁안보리	276
▁글씨	276
▁고취	276
▁확대하기	275
▁셔츠	275
▁방문하고	275
▁구성한	275
▁개선방안	275
팀에서	275
▁옹호	275
▁커진다	275
ID	275
▁원칙이	275
니스트	275
폭탄	275
▁나서지	275
▁허용하는	275
▁기득권	275
귀촌	275
▁전해진다	275
▁주의해야	275
분야의	275
-4	275
▁자리는	275
▁접점	275
▁직선	275
바이러스	275
▁타선	275
▁가시화	275
▁공사비	275
▁상습적	275
▁본회의에서	275
▁다투	275
봇	275
▁음악회	275
▁차례에	275
▁횡단보도	275
▁렌터카	275
대책위원회	275
▁직장인들	275
▁올리기	275
▁지지하는	275
블랙	275
ut	275
▁사이트에서	275
조류	275
▁검출됐다	275
▁해소하고	275
▁쇼케이스	275
등급을	275
▁탈모	275
▁87	275
치킨	275
▁탱크	275
▁가시적	275
▁넘을	275
▁안희정	275
▁중부지방	275
뉘	275
▁성당	275
▁북극	274
▁창출과	274
▁송파	274
리라	274
콜라	274
▁활동과	274
▁가족에게	274
▁뚫고	274
그때	274
▁깨달았	274
▁가계부채	274
▁소방공무원	274
▁서산	274
▁되겠다	274
▁업무담당	274
▁기다려주세요	274
▁영종	274
▁예약하고	274
▁수사단	274
▁무력	274
▁이해와	274
▁되지만	274
▁잦아	274
▁국토부가	274
▁사자	274
▁발생하기	274
▁들러	274
▁재정적	274
▁상상력	274
화장실	274
▁세입자	274
▁US	274
중소	274
▁그치지	274
▁엄마와	274
▁불씨	274
▁빈도	274
ig	274
▁호소하는	273
▁이름과	273
▁덴마크	273
▁남았다	273
▁원안	273
▁짧아	273
▁꿈에	273
▁대중의	273
▁부통령	273
▁있긴	273
MB	273
▁해준다	273
▁없었어	273
▁임금이	273
▁소속기관	273
▁창업기업	273
▁받거나	273
주택자	273
예수	273
▁내부적으로	273
원입니다	273
▁감사담당관	273
▁궁금증이	273
마루	273
▁먹어도	273
▁감당	273
즙	273
▁아파트에	273
▁개정안에	273
▁극단	273
경관	273
업계에서	273
수령	273
RO	273
▁납기	273
▁어차피	273
▁방문객	273
▁체결하고	273
▁참전	273
화폐	273
▁설사	273
민호	273
▁바뀌어	273
▁어쩌	273
▁놀랐	273
스타일	273
▁기대에	273
▁정례	273
▁생활환경	273
▁불편함이	273
▁영등포	273
▁현실에서	273
▁놀랍	273
▁못했고	273
▁흐름에	273
ER	273
▁장비가	273
▁대강당에서	273
▁매체들	273
▁웨딩	273
▁글로	272
▁알겠습니다	272
▁가리지	272
뺀	272
▁방범	272
▁문자메시지	272
▁시급하다	272
최대	272
▁기각했다	272
▁골드	272
후보자	272
▁독립운동가	272
▁르노삼성	272
젓	272
▁경진대회	272
▁유통기한	272
▁마무리했다	272
붓	272
▁구매하고	272
보지	272
▁맵	272
▁민중	272
▁위치가	272
▁천재	272
▁테마파크	272
상생	272
PE	272
협약을	272
▁저자는	272
▁은행에서	272
▁스마트공장	272
비엔날레	272
▁의무적	272
▁거두고	272
▁이번주	272
▁때면	272
▁아쉽다	272
해보면	272
▁예상됩니다	272
▁총장이	272
▁방문한다	272
ne	272
증가	272
▁높아져	272
▁로그인	272
▁근황	272
▁나들이	272
▁바보	271
▁가난	271
봉사단	271
▁구별	271
대중	271
▁등록한	271
▁판매한	271
▁직속	271
되므로	271
관리관	271
▁왔던	271
대장에	271
Fed	271
▁보직	271
▁해왔다	271
▁모르지만	271
▁통산	271
▁공산	271
▁사령탑	271
▁안무	271
선생님	271
▁잃지	271
▁액체	271
▁느껴진다	271
▁감사관	271
▁침몰	271
▁학교장	271
젤리	271
▁예정으로	271
▁QR	271
▁복도	271
▁가정폭력	271
▁양상이	271
노총	271
▁부탁드려요	271
▁날카로운	271
바른미래당	271
▁맺었다	271
▁당뇨	271
▁박정희	271
▁지지부진	271
▁사용한다	271
▁협약에	271
착륙	271
▁성산	271
▁부하	271
▁원칙적으로	271
성향	271
▁고품질	271
비밀	271
▁구사	271
▁육박	271
▁뽐내	271
▁수강생	271
▁공정거래법	271
▁대책본부	271
▁이색	271
▁참석자	271
▁커뮤니티에	271
▁잃었다	271
루수	271
구장	271
▁시까지	271
▁의정활동	271
안산	270
▁사용해야	270
▁인센티브를	270
▁선수와	270
▁킬	270
▁인종	270
▁여자들	270
▁싫어하는	270
타점	270
군수가	270
▁사적	270
수상	270
▁비무장지대	270
▁길은	270
닉스	270
▁호텔은	270
▁서비스업	270
▁영농	270
넌	270
▁타율	270
▁팁	270
▁알아보고	270
▁수요일에	270
병원에서	270
▁예로	270
▁대기업과	270
▁사라지고	270
▁품위	270
▁서울시교육청	270
췄	270
▁들어선다	270
▁학부모들이	270
▁내려놓	270
▁조종사	270
▁고조되고	270
▁전시관	270
▁건물은	270
찮	270
▁지인들	270
되었어요	270
여권	270
▁끝내고	270
▁휴가철	270
▁진다	270
▁대본	270
마이크	270
▁브루	270
▁골목길	270
▁왕세자	270
▁사명	270
▁쏟아지고	270
쩍	270
퀴	270
리바운드	270
▁취지에	270
▁세금이	270
▁쿨	269
▁유서	269
PT	269
▁소속기관의	269
숭	269
▁아마추어	269
▁연구진	269
리얼	269
▁지역이다	269
될지	269
▁현대화	269
지원단	269
식이다	269
▁세우는	269
▁가급적	269
▁예산편성	269
▁좋겠	269
똘	269
▁주스	269
되는지	269
▁안건에	269
▁순식간	269
험	269
▁만들어서	269
▁강타	269
▁토론이	269
니깐	269
▁원조	269
▁사랑과	269
▁진상조사	269
출연	269
▁상승률	269
▁조사하는	269
▁무서워	269
경제자유구역	269
▁양주시	269
지자체	269
▁강동	269
웰	269
▁상공	269
사소한	269
▁크리에이터	269
▁브랜드로	269
▁그렇기	269
▁확연	269
▁이제부터	269
놓았	269
▁학위	269
▁탈원전	269
▁있나	269
온라인	269
▁판단에서	269
오름	269
광역시	269
▁여행객	269
▁당신께	269
▁갔다가	269
▁발음	269
▁무섭	269
특산물	269
▁부당하다	268
▁출발한	268
▁디테일	268
▁수험생들	268
▁만지	268
▁당권	268
▁왔을	268
▁하남	268
동네	268
91	268
▁국내총생산	268
GDP	268
▁미처	268
▁사직	268
▁커졌	268
닭	268
기관인	268
▁뜯어	268
▁주거지	268
▁가맹점주	268
▁구성하여	268
▁구성하는	268
▁지휘자	268
찾아가는	268
▁여기까지	268
부시장	268
▁같고	268
중앙회	268
▁나섰지만	268
▁웰	268
걀	268
▁수사하고	268
▁놓치지	268
곡동	268
▁무한돌봄	268
▁위함	268
▁고충민원	268
▁예약한	268
▁중기센터	268
▁봤습니다	268
페어	268
▁농지	268
연승	268
▁평가할	268
▁고래	268
▁땅이	268
▁광주시가	268
▁사업성	268
▁체납자	268
방역	268
▁첨예	268
▁번만	268
법령	268
▁염원	268
▁머물렀	267
▁줄어든다	267
▁기쁩니다	267
역과	267
▁이용자들이	267
▁심각하게	267
▁사랑하고	267
▁풍성	267
▁행렬	267
하셨다	267
펙	267
미국과	267
▁됐지만	267
▁분기별	267
▁수술이	267
▁필자	267
▁부산시가	267
못	267
▁감안하여	267
▁종합계획	267
▁다르지	267
▁평가한	267
▁설득력	267
▁촬영이	267
▁쓰이	267
하셨습니다	267
▁창단	267
▁골고루	267
▁농식품부	267
▁롯데그룹	267
▁시작하기	267
▁보험료를	267
▁부문에	267
▁증여	267
금속	267
▁독자들	267
금감원	267
▁전문점	267
저장	267
▁강씨	267
▁군데	267
▁넣었	267
∼12	267
▁닛산	267
▁못하다	267
▁의욕	267
▁똑같	267
▁원한다면	267
▁멋지	267
▁&	267
▁좋은데	267
▁잡혔다	267
▁선명	267
대회에	267
▁벨트	267
▁시간표	267
해보는	266
주시기	266
▁사회보장	266
▁묻자	266
▁수돗물	266
동맥	266
▁플러스	266
▁2023	266
▁익히	266
▁원룸	266
귤	266
▁같았다	266
▁박사는	266
▁방송에서는	266
연구센터	266
▁아일랜드	266
했었는데	266
▁죄송	266
자원봉사	266
▁지역발전	266
▁전반을	266
▁놓아	266
책임관	266
▁강조하며	266
▁키운	266
▁마셨	266
▁막상	266
마음	266
(27	266
해보자	266
▁정상회담의	266
▁고맙습니다	266
결산	266
▁가치와	266
사업본부	266
▁좋아해서	266
인데다	266
하자마자	266
▁가로수	266
▁지표가	266
▁작동하지	266
▁반지	266
▁구축하는	266
▁보도한	266
▁소나무	265
▁동점	265
▁그리는	265
AS	265
▁부위에	265
▁꿈꾸	265
▁능력과	265
▁81	265
▁나아갈	265
▁주문하고	265
▁뉴욕에서	265
▁초계기	265
▁동탄	265
소매	265
▁달성했다	265
아래	265
되려면	265
위치	265
▁벌어질	265
있던	265
▁마법	265
▁대우조선해양	265
▁경기장에서	265
시설로	265
▁하단	265
▁폴란드	265
겔	265
06	265
▁경제적으로	265
▁경남도지사	265
▁안양시	265
▁목적에	265
곳으로	265
▁꺼리	265
▁공급할	265
차례에	265
▁건조한	265
▁포부	265
▁보이스피싱	265
▁소고기	265
실적이	265
▁탄탄	265
어느	265
▁독감	265
▁두통	265
▁성장동력	265
▁포스트	264
▁94	264
▁쌓은	264
▁해치	264
▁해보고	264
▁누구인지	264
▁그래야	264
▁야당의	264
밸	264
▁조성한	264
왼쪽	264
▁지속되는	264
▁드문	264
재무	264
▁극적	264
교육지원청	264
+	264
▁활용될	264
난민	264
써	264
▁대국민	264
▁현실적인	264
▁리듬	264
▁변동이	264
해보니	264
들었다	264
연계	264
▁83	264
▁빈집	264
님과	264
구속	264
▁보내야	264
옛	264
▁엄격	264
▁음악이	264
▁징후	264
▁개정이	264
▁룰	264
▁나뉘어	264
▁도덕적	264
▁가르치는	264
▁하동	264
▁법인세	264
공구	264
▁극단적인	264
▁할리우드	264
▁비난했다	264
▁단풍	264
다양한	264
주실래요	264
▁공격적인	264
▁심문	264
▁카테고리	264
▁록	264
씹	263
▁동전	263
▁Z	263
▁해산물	263
▁데이비드	263
▁얼마인가요	263
▁주주권	263
▁장학금을	263
블록	263
▁초반에	263
▁두바이	263
▁무리하게	263
상자	263
프트	263
▁구형	263
▁치료에	263
▁최첨단	263
▁입상	263
▁혁신도시	263
▁전년보다	263
▁다문화가정	263
▁주목하고	263
뎌	263
▁경찰청장	263
▁갔어	263
▁기관에서	263
노스	263
봐도	263
3,000	263
▁심각하다	263
▁애도	263
▁중간고사	263
▁도저	263
▁위험성	263
▁남북경협	263
나쁨	263
▁순차적으로	263
▁외화	263
시키면	263
▁IB	263
▁범죄가	263
▁노후화	263
▁호텔로	263
▁세정	263
▁궤도	263
▁변하지	263
명당	263
▁타야	263
▁진한	263
뽀	263
시키지	262
▁힘들게	262
▁장학생	262
▁유대인	262
유공자	262
▁상기	262
▁나타내	262
▁그칠	262
▁보건복지	262
위원들	262
UN	262
▁판단하는	262
▁먹었어요	262
▁풍경이	262
▁부드럽게	262
랍	262
▁묻고	262
▁부서에	262
▁끝났다	262
▁무역갈등	262
▁보내주시면	262
▁관계인	262
▁유소년	262
NC	262
경기장에서	262
▁구세	262
▁언덕	262
걱	262
쥬	262
▁듭니다	262
직무	262
정동	262
▁지나는	262
▁투자금	262
▁버거	262
겠다며	262
▁나아지	262
▁괜찮습니다	262
게이트	262
횟	262
▁구조로	262
▁신청하는	262
▁샌드박스	262
▁않았으면	262
▁거론되고	262
▁외부에	262
▁임종헌	262
▁통신장비	262
툰	262
▁보름	262
▁2·4	262
▁이씨가	262
▁선제	262
▁더불어민주당이	261
▁폐수	261
방식을	261
▁마련되어	261
일전까지	261
▁맡길	261
▁그러니까	261
▁상황으로	261
▁아빠가	261
4,000	261
▁사람으로서	261
▁외래	261
▁정상에	261
▁발사체	261
▁콜라	261
머스	261
해주지	261
▁친절한	261
▁순조롭	261
소속	261
▁폭풍	261
▁황씨	261
▁동반한	261
▁핵심인	261
▁남해	261
▁특보	261
▁환상	261
▁친인척	261
▁지반	261
정희	261
▁벌어졌	261
보좌관	261
▁동두천	261
▁확대되는	261
뚝	261
▁집착	261
▁얻게	261
꼽	261
클리닉	261
▁98	261
▁0.2	261
▁빗물	261
▁미스	261
호까지	261
▁소개할	261
▁실시하기	261
▁96	261
▁카자흐스탄	260
소설	260
▁영원	260
▁거론된다	260
세븐	260
단독	260
▁백인	260
줘요	260
▁중점적	260
▁무상급식	260
달라는	260
▁사용하고자	260
▁아동수당	260
▁인접	260
▁태워	260
▁만들어졌다	260
▁『	260
▁석유화학	260
관람	260
05	260
NYT	260
▁특이	260
맞아	260
▁파격적인	260
▁개조	260
▁벗어	260
▁편익	260
▁기쁘다	260
▁구에서	260
▁분주	260
▁재능기부	260
▁알릴	260
▁그릴	260
▁들어가서	260
분만	260
▁이륙	260
▁신경전	260
엇	260
보단	260
▁말았다	260
퍼드	260
▁In	260
하나님	260
▁남한산성	260
▁오후부터	260
▁남편과	260
▁전해져	260
▁복지서비스	260
썸	260
▁투입된	260
▁개표	260
▁장애물	260
▁말해주	260
▁적혀있	260
방해	260
▁로이터	260
주관	259
권력	259
▁그쳤	259
▁작품으로	259
▁일반적	259
당했다	259
정보통신	259
▁빨대	259
▁찢어	259
(-0.	259
▁무대가	259
▁단기간에	259
체험관	259
덱스	259
▁도시환경	259
▁야당이	259
▁서비스와	259
▁엄중	259
▁구글이	259
▁365	259
▁갖다	259
시리즈	259
▁검찰총장	259
▁스펙	259
▁스튜어드십	259
▁4,000	259
▁다르기	259
순간	259
▁세척	259
신가요	259
▁가세요	259
▁돌려받	259
▁오른쪽으로	259
▁연결돼	259
▁교류협력	259
할까요	259
▁구석	259
▁GTX	259
▁윗	259
▁중소형	259
▁의정	259
▁관리한다	259
▁뿌듯	259
▁팀원들	259
▁수요자	259
▁범죄자	259
▁서울시와	259
▁만취	259
▁남해안	259
▁내실	259
백화점	259
▁봐서	259
▁경우에만	259
▁열정이	258
▁시가총액	258
▁즐거웠	258
▁오버	258
▁대진	258
▁끌어들	258
▁위촉하는	258
▁근무제	258
▁중소기업과	258
▁요가	258
▁관계부처	258
도시공사	258
▁사주	258
▁의뢰할	258
깔	258
▁시도한	258
▁잡히	258
▁좁혀	258
북한의	258
▁레전드	258
▁관계로	258
▁윤곽	258
챔	258
구축	258
복무	258
▁찾아서	258
▁되었으면	258
▁현안을	258
▁지금보다	258
▁기자간담회에서	258
▁취직	258
▁마약류	258
▁술집	258
▁단계로	258
▁셈	258
AP	258
▁자연재해	258
▁목이	258
▁늦춰	258
▁빠지는	258
공무원은	258
▁힘들어요	258
▁1995	258
▁반영됐다	258
▁유재	258
▁상황이었다	258
전북	258
▁고객들에게	258
▁상원의원	258
▁노리는	258
▁김명수	258
▁구입한	258
▁산업용	258
▁행사다	258
홀딩스	258
▁떠오르는	257
▁문화유산	257
▁벽면	257
아울러	257
▁그림자	257
▁식품의약품안전처	257
▁안방	257
▁초보	257
국제공항	257
▁고율	257
믹스	257
▁부담하는	257
▁해소될	257
TS	257
▁보습	257
▁매출액이	257
▁이례적으로	257
▁넣을	257
메일	257
▁감정평가	257
▁도비	257
▁교내	257
▁엑스	257
▁살아있는	257
▁고심	257
▁남미	257
▁가정이	257
보호구역	257
▁괜찮을까요	257
폴리	257
▁신촌	257
▁구급차	257
▁선거구	257
▁정신질환자	257
▁수요에	257
▁관련기관	257
양육	257
DI	257
▁체온	257
▁촘촘	257
▁김대중	257
체조	257
김치	257
유산	257
▁디즈니	257
▁불법촬영	257
▁중이야	257
▁근로자들	257
▁일반고	257
▁풍부	257
▁일조	257
▁입맛	256
▁역설	256
▁보조금의	256
▁내몰	256
▁후배들	256
▁시사했다	256
▁의결한다	256
사상	256
▁파키스탄	256
▁않을까요	256
▁학회	256
▁주민자치회	256
▁우호적	256
▁예산으로	256
▁밝힐	256
▁뵙	256
▁조합원들	256
▁달해	256
▁바닷가	256
철학	256
차별	256
▁포털사이트	256
쁜	256
▁침착	256
▁유의해야	256
▁법원행정처가	256
▁특징은	256
▁조상	256
▁벗어나지	256
▁간섭	256
▁뜻깊	256
▁경쟁자	256
▁사설	256
▁석면	256
▁머무는	256
▁구성이	256
파울루	256
▁탐지	256
▁말씀하시는	256
▁교수팀	256
▁무서운	256
▁열대야	256
▁맞붙	256
▁항암	256
▁지정하고	256
▁리서치	256
▁산악	256
▁카지노	256
▁트로피	256
▁벌일	256
▁의심하고	256
혁이	255
▁늘리기	255
▁가상화폐	255
▁병원이	255
▁않겠다고	255
뤼	255
▁호텔이	255
▁꼴	255
▁오리지널	255
스런	255
▁비하	255
▁달려가	255
▁법적으로	255
▁벗어난	255
▁소포	255
LC	255
▁별명	255
▁리포트	255
▁수출입	255
▁코오롱	255
▁이르렀다	255
▁추이	255
▁분임	255
아일랜드	255
▁것만으로도	255
▁구성됐다	255
▁알아볼	255
▁오게	255
▁힘으로	255
▁경연	255
▁협상에서	255
▁엮	255
녔	255
▁나간다	255
▁음란물	255
▁마땅	255
두산	255
상황에	255
▁담판	255
▁방에서	255
▁만나면	255
▁좋아할	255
지금은	255
▁의장의	255
▁청결	255
▁직접적으로	255
▁발족	255
거점	255
▁매몰	255
설립	255
▁발전이	255
▁경기도지사와	255
▁선제적	255
▁장래	255
IoT	255
▁여인	255
합동	254
▁국립공원	254
▁규제완화	254
▁측근	254
▁식민지	254
만원까지	254
관장	254
▁지급된다	254
었으나	254
▁여왕	254
▁실어	254
▁아니라면	254
않	254
▁대개	254
▁농업기술원	254
▁배관	254
▁한방	254
▁해주고	254
▁부분이다	254
▁관련자	254
▁컨트롤	254
▁꼽혔다	254
▁일어	254
▁대회의실에서	254
▁여성에게	254
▁1,3	254
▁선보여	254
▁열연	254
▁도모하고	254
▁활동으로	254
▁최소화하기	254
▁의원에게	254
닥터	254
▁관계법령	254
▁밝고	254
▁전면에	254
▁부과된다	254
▁파악하기	254
▁재조명	254
채무	254
▁안락사	254
▁바라보	253
▁어르신들이	253
▁취임식	253
▁새누리당	253
▁차이점	253
▁트레이드	253
▁두께	253
상품권	253
기업들이	253
▁맡을	253
▁행위는	253
▁비대위원장	253
시키	253
▁만난다	253
▁자란	253
▁출발하는	253
공익	253
▁건설현장	253
▁조성한다	253
▁인터넷에서	253
시스템이	253
▁워싱턴포스트	253
무용	253
▁고소한	253
▁방대	253
▁상담이	253
▁지방선거에서	253
▁사거리	253
금융기관	253
▁주입	253
아무개	253
▁주시길	253
광장에서	253
▁대내외	253
▁초점이	253
▁변화하는	253
▁내밀	253
▁기여하는	253
▁펼쳐진	253
▁되었어	253
▁졸업식	253
▁전라북도	253
▁험	253
▁시험지	253
▁색깔이	253
▁양사	253
▁휴무	253
▁비례대표	253
▁보드	253
1,000	253
▁진행한다고	253
신호	253
▁북방	253
요법	253
취약계층	253
웹	253
▁도시에서	253
▁발행한	253
▁산책로	253
문화원	253
겠느냐	252
▁출연한다	252
▁스쿨	252
▁아쉽게	252
▁투자심리	252
▁내세워	252
▁위기감	252
▁저변	252
간사	252
벌레	252
▁녹색성장	252
▁사회문제	252
▁흠	252
핸	252
▁한숨	252
가령	252
▁세율	252
▁AS	252
팍	252
▁협의회의	252
쉐	252
▁보장하는	252
▁타격이	252
▁때에도	252
▁소품	252
▁파산	252
▁들려주	252
▁매출은	252
▁법무법인	252
▁대표팀이	252
▁어촌	252
▁강호	252
▁지시에	252
▁국회의원들	252
▁응답했다	252
▁호르몬	252
▁국군기무사령부	252
▁갇혀	252
별히	252
접촉	252
쁠	252
클러스터	252
▁제공받	252
▁한창이	252
▁6000	252
▁고농도	252
▁달부터	252
▁쾌	252
▁벌어지	252
마리가	252
PGA	252
▁올라가는	252
▁베트남에서	252
▁화장실에	252
▁우려해	252
▁사단법인	252
▁컸던	252
▁측과	252
▁조장	252
▁단거리	252
▁고시원	252
▁바빠서	252
▁점령	252
▁기념일	252
▁지나친	252
▁충격이	251
▁관리비	251
지상	251
▁팬들에게	251
지하철	251
▁셀프	251
▁행정관	251
▁최근까지	251
▁밝혀지	251
▁유권자들	251
▁여겨지	251
▁성균관대	251
플리	251
▁디자인과	251
녹색	251
▁없음	251
▁음반	251
▁도입할	251
얼마든지	251
▁상여금	251
▁대통령도	251
▁문건에	251
▁표준화	251
▁결정된다	251
▁정확	251
▁상응하는	251
현동	251
▁급성장	251
▁사안을	251
▁노인의	251
▁어디까지	251
▁가처분	251
▁계파	251
교육과정	251
▁청구할	251
평론가	251
▁학생에게	251
▁재확인	251
▁기억하고	251
▁어둠	251
▁차액	251
▁실점	251
▁수익금	251
▁따복	251
▁중립	251
▁주민참여예산	251
▁직영	251
▁커져	251
▁사라져	251
▁웃는	251
▁공간정보	251
▁재수	250
▁포진	250
▁데려다	250
▁바꿨다	250
(25	250
▁노동력	250
▁강점이	250
KI	250
댄	250
▁완성된	250
강연	250
▁모였다	250
갤럭시	250
누구	250
▁세탁기	250
▁무너진	250
▁유도하는	250
▁0.1	250
▁흥분	250
▁아버지를	250
▁수도권에	250
▁필요하고	250
▁듀	250
▁안정된	250
▁후문이	250
한편	250
▁연결되는	250
▁지방이	250
▁여객기	250
▁경찰관이	250
기보다는	250
▁만연	250
▁예뻐	250
▁맞추어	250
▁김형	250
▁제작해	250
▁소동	250
구직	250
이니까	250
▁이룬다	250
▁잃었	250
▁요양병원	250
▁수수료는	250
▁풀고	250
부장판사	250
팥	250
▁살아갈	250
▁생각에는	250
▁홍대	250
▁분들은	250
▁뚜껑	250
현행	250
▁조사단	250
▁싶다면	250
▁구멍이	250
▁선원	250
▁샀는데	250
▁달리고	250
▁대응하는	250
▁생산된	250
당신	250
▁박종	249
(30	249
▁감량	249
▁쇼트트랙	249
▁만끽	249
▁헐	249
▁노래는	249
▁재킷	249
▁센터에	249
쟁이	249
▁가계대출	249
▁진술이	249
픈	249
▁컷	249
▁않던	249
PO	249
국민연금	249
페이지	249
▁학사	249
▁인정받아	249
▁건넨	249
▁국제기구	249
▁방중	249
▁책임지는	249
네스	249
IB	249
▁만들지	249
▁심폐소생술	249
▁달성하기	249
▁생전	249
▁퀸	249
▁내놓지	249
▁제출하는	249
▁생기지	249
▁국가대표팀	249
▁중견기업	249
상업	249
베스트	249
▁건의했다	249
▁감탄	249
▁총력	249
j	249
행사가	249
▁시군이	249
▁선정하여	249
▁신종	249
▁조성될	249
▁스타트업이	249
▁생각이다	249
▁채굴	249
▁방탄소년단이	249
▁밴	249
▁마음속	249
▁상하	249
▁기대하는	249
▁얼어붙	249
▁보물	248
▁발견하고	248
▁합시다	248
▁취업지원	248
▁시스템으로	248
녹지	248
사이드	248
신대	248
▁만드	248
▁통신망	248
▁하자는	248
▁어린이가	248
▁싸움을	248
▁값이	248
▁한반도에	248
안전관리	248
▁김원	248
▁수단이	248
▁발레	248
▁연구용역	248
하루	248
▁양형	248
야드	248
▁광복	248
이노베이션	248
▁수입금	248
▁내리기	248
▁퍼포먼스를	248
▁닮은	248
▁국무회의	248
▁환자에게	248
▁대상인	248
▁임원들	248
▁부담해야	248
▁총선에서	248
평가단	248
▁교차로	248
▁신속	248
▁카운터	248
▁카리스마	248
▁선사할	248
▁자본시장	248
▁토너먼트	248
▁아름답고	248
▁납세자보호관	248
▁호선한다	248
▁법원에서	248
▁설명한다	248
▁밝히	248
▁교대	247
▁끝나지	247
▁놀라게	247
▁짚어	247
▁사회적으로	247
▁사라질	247
▁지사와	247
▁담당관	247
▁입주민	247
▁지방의회	247
▁승격	247
▁92	247
▁교도소	247
▁유일하다	247
▁서로에게	247
▁소유주	247
▁인물로	247
▁주요국	247
▁작물	247
▁넣었다	247
▁다양화	247
▁던졌다	247
서울대	247
▁소련	247
▁생각으로	247
▁서류는	247
▁상관	247
▁하이브리드	247
▁근로기준법	247
▁규칙이	247
▁긴장감이	247
▁흐른	247
만건	247
경주	247
▁벌어	247
▁양대	247
▁의원도	247
▁적용돼	247
▁일제강점기	247
▁않았나	247
▁넘어지	247
▁받아들여지	247
▁불길	247
▁천막	247
▁다름	247
▁잔뜩	247
▁0.3	247
▁먹었습니다	246
▁푸는	246
▁연어	246
▁스프링	246
▁초과하지	246
▁엘리트	246
▁확대됐다	246
▁결의안	246
▁하므로	246
▁비상근무	246
ity	246
▁인격	246
2.5%	246
녹	246
▁특검팀	246
▁심각성	246
캘	246
▁예시	246
▁순천시	246
▁1996	246
프로그램을	246
▁로켓	246
▁배구	246
▁임시회	246
수집	246
▁적잖	246
▁내다보고	246
업자가	246
▁포함될	246
지방공무원	246
▁의혹으로	246
▁‘4	246
▁오토	246
기록을	246
▁주소지	246
▁전문성이	246
▁개인전	246
▁바꿔야	246
신청자	246
▁입장권	246
▁검찰과	246
▁어떠	246
땠	246
추진위원회	246
회관에서	246
▁위협이	246
▁내보	246
▁모색하는	246
▁개발제한구역	246
▁7∼8	246
▁젊은이들이	246
▁모순	246
신용평가	246
▁여긴	246
▁키스	246
딥	246
▁과반	246
판사	246
받아야	246
당국이	246
▁상황입니다	246
▁故	246
▁팽팽	245
▁보였던	245
▁제출하면	245
▁역임	245
▁펜스	245
▁의견서	245
▁페르	245
엔지니어링	245
▁사교육	245
▁규제로	245
WTO	245
▁주파수	245
▁공동성명	245
▁매티스	245
▁확인되면	245
▁공적이	245
▁공존하는	245
웠습니다	245
유리	245
co	245
▁이력서	245
▁제때	245
WP	245
▁체질	245
▁체육관	245
▁사연이	245
▁정장	245
쿠르	245
▁승객이	245
▁납니다	245
▁이양	245
▁모았	245
▁편안	245
지하	245
▁외국에서	245
골목	245
▁가격과	245
▁하락하는	245
▁DNA	245
ate	245
▁냉방	245
▁윤종	245
▁입술	245
▁서울시장이	245
생들	245
늄	245
▁감사하다	245
▁불안이	245
▁기재한	245
▁그늘	245
▁배움	245
▁믿었	245
뺏	245
▁살펴볼	245
텍스	245
▁발표한다	245
▁담당공무원	245
들만	245
▁정순균	245
▁성질	245
▁결합한	244
▁활약이	244
입주	244
낯	244
잣	244
중견기업	244
▁공격이	244
▁터뜨리	244
▁연예인들	244
적용	244
▁디젤	244
받기	244
맥스	244
▁되니	244
▁버린	244
▁반영하는	244
▁나왔지만	244
▁늘어났	244
▁삐	244
원자력	244
▁역점	244
▁선생님들	244
▁가능해진다	244
▁인물이다	244
▁구하는	244
라운드에서	244
▁전자담배	244
산동	244
▁누설	244
▁건강검진	244
▁거리에서	244
▁의회의	244
스마트폰	244
▁검토하는	244
▁1∼3	244
▁입자	244
▁이직	244
뉴욕	243
▁서브	243
▁김현미	243
정현	243
▁열사	243
▁막힌	243
▁상응	243
▁생활비	243
▁보호구역	243
방어	243
투명하게	243
▁안전진단	243
뜸	243
▁세련된	243
둑	243
▁이해해	243
▁가담	243
▁쏟아지	243
▁악순환	243
원씩	243
▁개선된	243
▁냉전	243
첨단	243
너스	243
▁이용하기	243
▁재무회계	243
▁국정조사	243
▁던지는	243
▁미용실	243
▁여러분께	243
▁비슷하다	243
▁많았지만	243
세탁	243
▁것이냐	243
게임즈	243
▁세기	243
할까	243
▁진지하게	243
▁지점에서	243
교부	243
되었다고	243
▁알았는데	243
▁투입돼	243
▁박경	243
▁골절	243
▁금감원이	243
하고있다	243
시길	243
▁간소화	243
▁잃어버린	243
▁위치하고	243
무대에서	242
▁못하면서	242
해줘야	242
▁아동이	242
▁유발하는	242
▁반출	242
▁인증서	242
▁테크	242
▁간단하게	242
캐피탈	242
▁추방	242
▁어렵지만	242
▁재건	242
▁배치된	242
▁파악한	242
영민	242
▁다르다는	242
▁소재지	242
▁구조대	242
번째로	242
GS	242
▁졸업한	242
▁경제지표	242
렵	242
▁AR	242
손님	242
▁원피스	242
트럭	242
▁생산과	242
▁따르는	242
▁왕자	242
▁제작된	242
▁무난	242
▁들어가지	242
▁액세서리	242
▁생명과	242
▁끊은	242
▁연방정부	242
▁않았으나	242
▁기말고사	242
▁정동	242
▁플랜	242
▁올라갈	242
▁탓이	242
▁했으면	242
▁시민사회단체	242
는데요	242
▁구성했다	242
배나	242
▁든든한	242
▁관서	242
보고회	242
▁별세	242
▁올리며	242
▁응급의료	242
▁낮추	242
▁고용창출	241
▁준우승	241
▁꼽히	241
▁곁에	241
적십자	241
▁김세	241
▁소방차	241
▁요구사항	241
반응	241
▁캐릭터가	241
▁갖지	241
강좌	241
▁친숙	241
▁복직	241
▁입성	241
▁식별	241
▁행정사무	241
조까지	241
▁가깝다	241
▁101	241
오피스	241
OECD	241
▁추천할	241
▁정치인들	241
무늬	241
개발사업	241
▁집중된	241
if	241
쓴	241
▁다중	241
▁경기지역	241
▁저조한	241
▁최상위	241
▁받아왔다	241
6,000	241
▁논의하고	241
▁쥐고	241
▁면적이	241
▁지었다	241
▁지니	241
▁마음대로	241
보훈	241
▁메뉴는	241
▁변동성	241
특정	241
믹	241
재판부	241
▁시민들은	241
▁예방하고	241
▁좁아	241
▁후유증	241
넛	241
▁소파	241
줌	241
▁연락할	241
▁중등	241
▁바이어들	241
▁드러나는	241
▁쏟아내	240
▁범죄예방	240
▁의도적으로	240
▁이루어져	240
▁공개하며	240
▁외교적	240
봤습니다	240
▁어찌	240
▁설치되어	240
자들과	240
▁높인	240
▁유전	240
▁말씀하신	240
▁단호	240
친구랑	240
▁91	240
▁의뢰한	240
▁내국인	240
▁조정안	240
▁파악하는	240
버닝썬	240
▁오르면	240
▁공방이	240
▁일으켜	240
▁토크	240
▁됐는데	240
▁시위대	240
▁치료법	240
▁칼럼	240
▁부속	240
▁센터는	240
설명	240
▁삽	240
▁특활비	240
▁시상식에서	240
▁국한	240
▁겨냥해	240
▁관측된다	240
담배	240
▁제약사	240
▁주재로	240
▁방안으로	240
▁나비	240
▁별개로	240
▁생산할	240
교육원	240
▁동계올림픽	240
긴급	240
▁온수	240
▁전임자	240
▁이전과	240
▁시교육청	240
▁지지자들	239
▁세계대전	239
▁박진	239
▁조치다	239
▁낮다는	239
하겠어요	239
▁식당이	239
▁사용자는	239
▁특수학교	239
▁기점으로	239
▁예상되고	239
몇	239
▁갑작스럽	239
▁것인가요	239
외부	239
남성	239
▁공식화	239
▁결선	239
▁나빠지	239
▁사무국	239
▁섞어	239
학력	239
메뉴	239
▁필요하지만	239
▁파급효과	239
조약	239
▁폐원	239
▁기다렸	239
▁불교	239
▁그러던	239
▁깨끗하게	239
저널	239
▁운이	239
▁벗고	239
▁사회서비스	239
참모	239
▁주부	239
▁금년	239
▁소통하고	239
▁알아봐	239
▁4·3	239
그건	239
산업기술	239
▁프린트	239
눌	239
▁믿음이	239
▁대항	239
▁옮기는	239
▁재판관	239
▁가습기	239
▁균등	239
앗	239
▁홈쇼핑	239
▁심사위원회	239
▁원스톱	239
▁도착하는	239
▁식생활	239
초기	239
▁의견으로	239
▁동문	239
▁시설물의	239
피부	239
▁광화문광장	239
▁담장	239
▁부모님께	239
▁멘	239
▁접한	239
▁첼시	238
▁성함	238
네이션	238
껴	238
▁저쪽	238
이었기	238
▁시작했고	238
▁학급	238
▁발언으로	238
▁개소식	238
▁개회	238
▁들어가기	238
보도록	238
▁순간이	238
▁블랙박스	238
▁얻지	238
RA	238
▁안성시	238
▁비용과	238
▁지식재산권	238
▁신동	238
내부	238
▁노동부	238
▁안철수	238
▁문희상	238
고등법원	238
▁넘겨졌다	238
▁떠오르	238
▁살리는	238
▁최후	238
▁유류세	238
▁보호하는	238
▁공모사업	238
▁동국대	238
▁개발할	238
▁선고됐다	238
▁집중된다	238
▁질병관리본부	238
▁일터	238
▁담임	238
▁화사	238
▁사회복지사	238
▁홍보물	238
▁생각나	238
▁산단	238
▁해운	238
▁않았다면	238
댔	238
▁평가된다	238
▁부담감	238
서점	238
▁소속으로	238
평소	238
▁특성이	238
▁360	238
탱	238
매우	238
▁끼어	238
▁신흥	237
ve	237
▁방류	237
▁사막	237
▁지식재산	237
▁여행자	237
▁자영업자들	237
감사관	237
용량	237
▁소개한다	237
▁제출하고	237
▁파티에	237
▁삼성그룹	237
▁말리	237
▁엉덩이	237
▁끼칠	237
▁베일	237
▁우려하고	237
▁빌린	237
▁용지	237
▁저조	237
작으로	237
▁먹었	237
▁인종차별	237
▁치밀	237
▁명으로	237
▁어울려	237
태영	237
▁무너져	237
▁빌라	237
▁않으니	237
▁사실로	237
▁있음	237
▁평가와	237
▁증가와	237
▁박사가	237
기술원	237
▁대동	237
▁증가율이	237
▁긴축	237
▁자이언츠	237
▁근무자	237
▁페이팔	237
▁캘리포니아주	237
문화체육관광	237
▁비상대책위원장	237
▁안겨	237
▁휴양	237
▁선장	237
▁뒷면	237
예컨대	237
▁어딘가	237
▁크로아티아	237
▁임의로	237
지방선거	237
▁마블	237
▁아쉬움이	237
그녀는	237
▁초래할	237
▁뿐입니다	237
▁은산분리	237
▁낮아진	237
▁사라졌	237
▁오시면	237
▁수료생	237
▁상수도	237
(26	237
DS	236
▁현관	236
▁심석희	236
▁영장전담	236
씌	236
▁선정하는	236
▁토론회에서	236
▁심층	236
신규	236
▁백두산	236
▁겨울방학	236
▁띄게	236
됐음	236
▁정해져	236
▁교회에서	236
▁민간위원	236
▁급성	236
▁가게에	236
▁끼친	236
▁경쟁에서	236
▁평가단	236
출입	236
▁음료수	236
▁화학물질	236
였을	236
▁관계자와	236
▁교통수단	236
▁정립	236
여만원	236
사업소	236
▁본점	236
▁특별대표	236
CP	236
▁인수한	236
▁전년대비	236
참사	236
▁조망	236
▁김태우	236
▁주택담보대출	236
▁터진	236
레이트	236
▁한중	236
▁강성	236
략	236
▁디자인으로	236
▁불분명	236
▁도서관에	236
▁김성수	236
▁향했다	236
▁만전	235
▁금액의	235
▁진척	235
샹	235
체육관	235
▁맞추는	235
▁실시된다	235
공예	235
디오	235
제조업	235
잦	235
▁조건에	235
▁보잉	235
▁이자율	235
▁줄게	235
▁제척	235
▁빨래	235
▁국회의원이	235
킵니다	235
▁조짐이	235
▁휴전	235
▁장터	235
▁발견되지	235
▁곡선	235
공격	235
연설	235
▁인생이	235
▁가진다	235
▁하여서	235
▁고른	235
파워	235
▁변환	235
▁먹어요	235
됐어요	235
▁코엑스	235
사찰	235
▁시설로	235
기능을	235
▁살린	235
▁쏟아지는	235
소방본부	235
▁화두	235
▁계약금	235
NE	235
▁논란으로	235
▁매치	235
▁국제회의	235
▁인정된다	235
▁데이터베이스	235
▁노점	235
▁놀고	235
▁관련법	235
▁헌혈	235
▁설비투자	235
▁테이블에	235
▁연수구	235
▁골이	235
▁상단	235
▁제안에	235
▁밝히며	234
장벽	234
▁지금처럼	234
▁선사했다	234
▁방위비	234
▁중기부	234
▁밤새	234
관광객	234
해수욕장	234
▁적격	234
▁동호회	234
▁파트너십	234
▁진통	234
▁보냈어요	234
▁2.0	234
▁이럴	234
▁맞습니다	234
▁지원했다	234
▁사회로	234
에이치	234
인실	234
▁뒤집어	234
플랜	234
▁갈래	234
▁주의보	234
▁사모펀드	234
▁회복이	234
▁미친다	234
▁광역교통	234
▁현저한	234
▁산업화	234
▁240	234
▁유씨	234
미니	234
▁관통	234
슬러	234
um	234
▁건전성	234
경미한	234
▁위협하는	234
▁명예교수	234
▁시작하면서	234
▁증진에	234
▁무실점	234
▁서귀포시	234
▁전역에서	234
▁격렬	234
▁조용한	234
▁생각엔	234
▁그림은	234
▁있었으며	234
▁고용노동부가	234
▁회계법인	234
▁유은혜	234
▁후반기	234
▁퇴직금	234
▁만들어내는	234
▁뮤직	234
▁특허청	234
▁감추지	234
▁바다로	234
▁협약식	234
▁정신질환	234
▁끊기	234
▁깊다	234
감사합니다	233
▁먹습니다	233
▁탔다	233
▁광역버스	233
대기업	233
▁초과한	233
▁OECD	233
▁임상시험	233
국내에서	233
▁몸싸움	233
▁봉쇄	233
당연직	233
▁줄게요	233
▁몰리	233
▁혼선	233
▁모아진다	233
▁국세	233
▁헌법재판관	233
수탁	233
▁자본금	233
사업단	233
▁유동인구	233
▁단골	233
▁황제	233
▁기호	233
▁실시된	233
▁감액	233
▁지급받	233
▁맞추기	233
▁올린다	233
케미칼	233
▁ABC	233
연패	233
카카오	233
▁휩싸인	233
▁탈당	233
포항	233
▁거리로	233
해제	233
싱가포르	233
▁충전기	233
테이블	233
▁표현할	233
▁친구들에게	233
▁심포지엄	233
RC	233
▁구축이	233
▁하드웨어	233
▁쓰면	233
▁후보들	233
궤	232
▁웃음이	232
▁문체부	232
▁김학	232
▁뮤지션	232
▁사이클	232
▁주시는	232
▁봄철	232
▁같지만	232
▁출동해	232
▁박찬	232
▁지워	232
▁텐트	232
여분	232
▁사과했다	232
▁신중하게	232
랫	232
▁버디	232
▁지르	232
▁테이프	232
▁돌려주	232
도매시장	232
▁장갑	232
현우	232
경원	232
교체	232
▁해본	232
▁동의하지	232
2017	232
▁제시됐다	232
▁안았다	232
▁해결될	232
달러로	232
붕	232
▁차장이	232
▁봄이	232
이용자	232
▁의료인	232
오후	232
▁재정비	232
▁활주로	232
▁낸다	232
▁투구	232
개소에	232
▁DB	232
▁해내	232
▁길고	232
▁종전의	232
▁어휘	232
▁93	232
▁영상으로	232
▁싸게	232
▁적합하다	232
비즈니스	232
▁사려고	232
사격	232
▁생활임금	232
발급	232
▁전입	232
▁제한된	232
▁복합적	232
▁워너원	232
▁강사가	232
▁과정과	232
IA	232
▁전용기	232
▁소송이	232
▁랜드마크	232
금액은	231
▁베어스	231
군수에게	231
▁근무한	231
▁지면	231
빔	231
▁현장조사	231
VC	231
▁참신	231
▁구성할	231
길래	231
▁주민들과	231
▁아내와	231
▁코딩	231
▁산타	231
▁공예	231
위안	231
▁스트레스가	231
▁전보	231
▁지정해	231
▁언론과	231
▁불투명	231
▁골드만삭스	231
▁임직원이	231
▁맞춰서	231
▁사법행정권	231
▁개선해	231
▁소방재난본부	231
▁입장에선	231
▁달러화	231
▁목요일에	231
▁관세청	231
▁택시업계	231
▁안내해	231
▁걸림돌이	231
줍	231
▁에버랜드	231
발달	231
▁출연자	231
▁현대차그룹	231
▁양재	231
▁97	231
▁대단한	231
▁강남권	231
▁이해도	231
RT	231
▁확인하지	231
사람이	231
졌는데	231
▁유혹	231
▁태아	231
▁목재	231
질문	231
_	231
▁옮긴	231
댁	231
▁일으켰다	231
▁잃어버렸	231
엑스포	231
▁복지증진	230
앵	230
▁점진적	230
▁특별감찰반	230
▁조선시대	230
싹	230
▁어젯밤에	230
▁89	230
▁현안에	230
▁가슴을	230
EC	230
▁끼고	230
훼	230
▁숨지는	230
▁시행된다	230
▁열대	230
민주주의	230
▁스트리밍	230
▁무엇보다도	230
▁서울교통공사	230
▁75%	230
▁둥지	230
▁협동	230
▁메이저	230
▁공석	230
▁in	230
▁시작돼	230
▁예상돼	230
▁부서에서	230
▁기본계획을	230
그들은	230
옌	230
▁원하고	230
▁판례	230
▁국가주석이	230
▁입었	230
▁접견	230
▁수치를	230
▁사촌	230
▁권역별	230
▁유수	230
▁직업이	230
▁법정에	230
▁내에서도	230
▁부합하는	230
▁쫓아	230
▁친일	230
▁덕분	230
▁인터넷은행	230
▁목적이다	230
▁국민은행	230
▁노원구청장	230
▁스리랑카	230
컴퓨터	230
▁확인해주세요	230
MR	230
솥	230
▁하려	230
▁추진계획	230
▁질적	230
▁핵실험	230
▁돋보인다	230
▁공산당	229
▁있더라도	229
▁원금	229
▁인출	229
이나마	229
▁남과	229
▁최전방	229
DMZ	229
ME	229
덜	229
▁있는데도	229
▁로스앤젤레스	229
▁시의원	229
▁모르게	229
▁총괄하는	229
▁일대일로	229
▁딱딱	229
▁어렵기	229
▁당면	229
▁주심	229
▁씨앗	229
스팅	229
팬들	229
▁식용	229
▁내일부터	229
WHO	229
▁높아졌	229
▁소통과	229
▁구간에	229
돼있다	229
▁극복하기	229
▁들어야	229
▁마련될	229
사망	229
▁안드로이드	229
▁앵커	229
▁고성능	229
▁가능하지만	229
▁위반으로	229
▁민간전문가	229
메르	229
▁갖춰져	229
▁유지했다	229
▁유익한	229
▁힘들고	229
▁6·25	229
▁월등	229
▁모빌리티	229
▁도입하는	229
▁기성	229
▁변경하는	229
대여	229
▁지니고	229
▁보스턴	229
빠	229
▁모멘텀	229
▁정례회	229
▁불거지	229
▁질타	229
▁활성화하기	229
▁시험장	229
▁슬퍼	229
인터내셔널	229
▁220	229
▁의결로	229
▁가상현실	229
▁주문하신	229
▁다름없	228
▁저수지	228
▁식단	228
▁설치하여	228
▁당선된	228
▁스윙	228
▁연구진이	228
화합	228
▁앉은	228
▁속옷	228
▁해결하고	228
▁민자	228
▁컬렉션	228
▁이례적인	228
▁요청하신	228
▁급증했다	228
▁부추	228
▁탄압	228
▁에드	228
▁충북도	228
▁영재	228
▁회관	228
아쿠아	228
▁부흥	228
AM	228
▁공학	228
▁GM	228
▁세웠	228
▁서류가	228
▁사칭	228
▁생활용품	228
▁단체로	228
▁할인된	228
직공무원	228
▁미안합니다	228
▁뛰어넘는	228
▁무산됐다	228
▁남짓	228
▁하부	228
해결	228
문화센터	228
릭스	228
맞아요	228
▁파행	228
투수	228
▁주도로	228
▁머물러	228
▁기업가치	228
▁겸직	228
▁됐을	228
유엔	228
▁대표단이	228
▁김구	228
NL	228
▁온라인에서	228
▁화답	228
▁소홀히	227
기온	227
▁개각	227
▁전후로	227
개국에서	227
뱅킹	227
▁뛰고	227
▁썩	227
▁탈피	227
▁차량으로	227
▁황사	227
▁가능해졌다	227
동화	227
▁역할은	227
▁보온	227
조회	227
▁신생	227
▁도난	227
좋	227
▁배신	227
▁재수사	227
▁눈여겨	227
▁멜로디	227
플라자	227
▁생존자	227
▁확고한	227
▁달성할	227
▁손혜원	227
▁한마당	227
▁삼진	227
▁사업장에	227
▁시작하고	227
▁있었다면	227
▁그러는데	227
안심	227
▁소득주도	227
▁젊은이들	227
▁등록금	227
▁이해관계인	227
▁맞이한	227
▁환경미화원	227
▁매력적	227
▁출현	227
▁돌봐	227
▁직후인	227
▁도매	227
▁구조다	227
▁바라고	227
운전자	227
▁특감반	227
콰	227
▁이상이면	227
▁필수적인	227
구장에서	227
ea	227
민주화운동	227
▁누출	227
▁맞는다	227
개입	227
▁쓴다	227
▁창업지원	227
▁묶여	227
▁목욕	227
▁유쾌한	227
▁성능이	227
각종	227
▁해결방안	227
▁사용될	227
느냐에	227
로이드	227
▁운행하는	226
처리시설	226
▁올라갔	226
▁사랑은	226
▁구민들	226
▁협력하여	226
폐쇄	226
▁문명	226
▁종량제봉투	226
▁지낼	226
하였으나	226
셨으면	226
세무	226
▁대한체육회	226
매입	226
엔진	226
▁취임한	226
▁눈높이에	226
▁개최해	226
▁예타	226
꼴	226
턱	226
▁열리지	226
삿	226
▁구독	226
▁경상남도	226
▁나타내고	226
▁농민들	226
▁비유	226
▁고층	226
▁주제에	226
▁갈아타	226
▁승마	226
하기보다는	226
▁건설업자	226
▁청원이	226
▁생명의	226
▁구성과	226
▁팬들과	226
▁머릿속	226
▁외교관	226
▁거부한	226
되었나요	226
▁전역에	226
▁많았습니다	226
▁주당	226
▁시간대에	226
대표이사	226
▁미모	226
▁지성	226
▁굳어	226
▁제품들이	226
▁운영하기	226
IMF	226
▁심상	226
▁플래	226
▁월별	226
똑	226
▁기장	226
▁체포됐다	226
▁번이나	226
으시면	226
▁결정될	226
▁기본소득	226
뿔	226
▁절실한	225
▁가지게	225
▁군인들	225
▁사표	225
▁밀도	225
▁생각하세요	225
▁국민권익위원회	225
▁키우기	225
▁만들어내	225
▁벤치마킹	225
▁출연하는	225
▁위탁하는	225
▁보내면	225
▁살아야	225
▁콜센터	225
▁꾸리	225
▁성동	225
▁추가해	225
▁자세가	225
▁투입되는	225
▁사회적경제기업	225
네이버	225
▁광주지역	225
▁만나러	225
차선	225
▁좁히	225
정체	225
▁성장했다	225
제거	225
▁적재	225
▁구동	225
썰	225
▁카슈끄지	225
▁GDP	225
▁비교할	225
커버	225
▁선사한다	225
▁한국형	225
▁브로커	225
▁부딪히	225
▁학살	225
▁금연구역	225
▁오해를	225
▁화면이	225
▁기자들에게	225
▁차지할	225
▁맺는	225
▁환불이	225
▁명세	225
▁논의될	225
승현	225
▁안타까움	225
지오	225
▁색상이	225
파스	225
▁주민자치	225
▁펼쳤	225
▁일들을	225
▁먹어보	225
▁단점이	225
▁수행한	225
▁보청기	225
▁기회로	225
▁르노	225
▁배틀	225
▁급속도	225
▁장마	225
0.2%	225
굶	225
▁노르웨이	225
▁남녀노소	225
트랙	224
▁세밀	224
▁정도만	224
▁추세가	224
기업으로	224
▁미스터리	224
▁노력한다	224
▁취하여야	224
▁게다가	224
▁지켜볼	224
▁교육청이	224
▁앉아있	224
▁일반인들	224
▁그려졌다	224
▁가능하면	224
▁부과할	224
▁생략	224
▁댄	224
∼2017	224
도우미	224
7,000	224
▁분석하는	224
▁지역아동센터	224
▁릴레이	224
▁저희도	224
특화	224
▁등극	224
노사	224
▁건축가	224
▁국가유공자	224
▁연도별	224
▁드러난다	224
▁말씀해주세요	224
▁5∼6	224
▁변하는	224
▁사랑스러운	224
▁순이익	224
▁시정명령	224
▁서울고법	224
▁직원들과	224
▁쟁점이	224
▁친선	224
▁강해	224
▁파격	224
▁피난	224
▁타워	224
▁무덤	224
▁워크	224
▁통보받	224
▁경상북도	224
▁절제	224
▁제설	224
▁당신한테	224
▁활용하기	224
흩	224
▁향토	224
▁팩	224
▁유기적	224
▁재조사	224
정훈	224
▁차지해	224
죄송하지만	224
▁인수합병	224
▁공기를	224
▁이쪽	224
▁확대된다	224
▁육지	224
▁질의응답	224
▁d	224
▁카메라에	223
▁타기	223
▁주목받	223
▁왕이	223
▁외신들	223
▁유적	223
▁생각했던	223
KO	223
▁사용되고	223
▁지대	223
▁공유경제	223
▁등으로부터	223
▁방수	223
▁지주회사	223
▁인제	223
▁붙인	223
SC	223
재욱	223
▁종사자들	223
쏜	223
거에요	223
국민의	223
▁네팔	223
▁마무리됐다	223
틈	223
▁있는데다	223
▁증시에	223
졌으며	223
▁알려주실	223
▁난동	223
스톱	223
▁성향이	223
거부	223
▁따르지	223
▁선풍기	223
▁재무부	223
▁심심	223
▁정당이	223
파트너스	223
▁향하고	223
0.3%	223
▁독립유공자	223
피고인	223
▁스파이	223
▁가게에서	223
▁홍보하고	223
야마	223
권익	223
▁하셨	223
▁추정했다	223
▁회원사	223
▁기아	223
▁대법관이	223
▁받으려	222
▁있냐	222
▁노력으로	222
▁북부청사	222
▁기울여	222
▁경우엔	222
▁스마트폰으로	222
▁일이에요	222
▁정도였다	222
▁105	222
구의회	222
▁하나님께	222
처장	222
▁벽화	222
▁머물고	222
생명과학	222
▁박모	222
▁차림	222
줬어요	222
▁지경	222
졌어	222
▁제자리	222
▁외치	222
▁경합	222
▁직격탄	222
선박	222
▁부수	222
▁국제대회	222
▁미팅을	222
융	222
▁북한군	222
칼리	222
▁호출	222
tion	222
▁물꼬	222
▁필립	222
단계로	222
▁알려주시기	222
▁보고하고	222
▁용품	222
▁선출된	222
축하	222
유해	222
▁관리하기	222
▁계급	222
▁독성	222
▁판매한다	222
▁홈플러스	222
▁축제로	222
▁이슈로	222
▁종자	222
▁오르며	222
▁깨달	222
원장은	222
▁면이	222
그렇게	222
▁멈추지	222
▁특이한	222
▁트리플	222
▁완주	222
▁충남지사	221
▁해소에	221
▁민족의	221
▁파울	221
▁하던데	221
용산	221
▁출입구	221
▁한부모	221
▁유지될	221
▁오디오	221
법규	221
워킹	221
봤지만	221
분들이	221
▁소변	221
▁답한	221
▁살림	221
▁승자	221
▁공연과	221
DB	221
▁선생이	221
▁일몰	221
▁의회가	221
▁올시즌	221
▁급증한	221
▁누리꾼들	221
앰	221
어르신	221
▁행정소송	221
조항	221
▁경희대	221
▁궁금해요	221
▁요청하고	221
▁증인으로	221
▁천국	221
상장	221
▁그레이	221
▁폭로한	221
▁운영하며	221
듭	221
▁만나볼	221
▁전한다	221
▁유력하다	221
해지기	221
스트리트	221
▁백업	221
여곳	221
▁구강	221
▁저지르	221
▁접전	221
오프라인	221
기법	221
만명으로	221
▁정현	221
혜경궁	221
▁가구에	221
▁당하는	221
▁물품관리	221
▁마쳤	221
최종	220
캄	220
아리랑	220
겠네	220
▁노예	220
▁분담금	220
▁차선	220
돼요	220
긁	220
▁폐사	220
▁아침부터	220
하냐	220
▁짠	220
▁만회	220
▁한결	220
▁나오는데	220
▁소중함	220
▁하강	220
▁모발	220
▁몰카	220
▁케이팝	220
리즘	220
▁본연	220
평택	220
▁주길	220
체결	220
▁마이크로닷	220
▁오전까지	220
▁동반성장	220
▁끼치는	220
▁서울지방경찰청	220
▁예비창업자	220
▁야생동물	220
▁신태용	220
▁가슴에	220
▁선수들에게	220
국토	220
▁비누	220
▁심신	220
▁구금고	220
저도	220
해봐	220
패드	220
▁남아있다	220
언어	220
▁합창단	220
이었으며	220
▁능동적	220
▁중심지	220
▁아름답게	220
▁교사들이	220
▁백성	220
▁2018’	220
▁왼발	220
▁기획한	220
▁의장에게	220
0.6%	220
얽	220
▁말입니다	219
▁최적화	219
▁사라지는	219
▁노무	219
▁활성	219
▁격화	219
▁유관	219
▁시절부터	219
줬으	219
▁어학	219
▁댓글조작	219
▁유지하면서	219
다퉈	219
해졌	219
▁거칠	219
▁샀다	219
되었는지	219
▁않아야	219
▁쇄도	219
▁자금조달	219
▁방사능	219
있고	219
▁득점을	219
▁헤이	219
▁돌발	219
▁구축한	219
▁노벨	219
▁태운	219
이냐	219
▁거부하고	219
▁학원에	219
▁가나	219
▁이강인	219
▁역으로	219
▁맨유	219
▁민주당과	219
MP	219
ab	219
▁사용하게	219
(28	219
▁조성과	219
▁현실과	219
공약	219
▁비추	219
▁합병증	219
▁높았고	219
▁자율성	219
▁그래요	219
가맹점	219
na	219
ive	219
▁솔릭	219
NBA	219
▁검출된	219
▁문화시설	219
▁호감	219
▁실버	219
▁한국어로	218
패로	218
▁즐거움	218
▁샌더스	218
사역	218
▁SM	218
▁CGV	218
▁본격화되	218
▁져야	218
▁낳고	218
▁저임금	218
▁합류한	218
▁출산율	218
▁즐거워	218
▁형편이	218
▁도착해서	218
▁않음	218
▁확인하여	218
박사	218
창작	218
▁후폭풍	218
▁공익신고	218
▁포스트시즌	218
사드	218
야겠다	218
▁행사할	218
▁정리하고	218
▁열망	218
▁입소	218
▁풍요	218
AA	218
▁영리	218
▁비치하고	218
▁안부	218
▁생겨나	218
스러움	218
뻤	218
▁있잖아	218
▁상임위원장	218
밌	218
▁다양해	218
▁불기소	218
▁투병	218
▁권고안	218
▁만두	218
▁야구장	218
▁다닌	218
▁느리	218
▁예정대로	218
아마	218
▁참여하게	218
▁방문객들	218
▁청중	218
▁수사관이	218
검찰이	218
▁수순	218
▁통과했다	218
사회복지공동모금회	218
▁넷마블	218
되기까지	218
▁논란과	218
▁평가해	218
▁찾아왔다	218
▁진행하며	218
▁섞여	218
소유자	218
▁포트	218
뛴	218
09	218
▁소신	218
▁대하는	218
▁반복되는	218
▁DJ	217
ac	217
▁공영주차장	217
▁양심적	217
기록물	217
▁여기저기	217
▁싣고	217
발주	217
▁쓰나미	217
딱	217
▁LPG	217
▁걱정하는	217
▁누르면	217
▁체력이	217
문자	217
▁쓰러진	217
▁회복세	217
▁사리	217
사업자가	217
귄	217
▁셀트리온	217
▁외국계	217
▁하청업체	217
▁무마	217
년도에	217
▁할부	217
▁물체	217
▁경기관광공사	217
▁좌파	217
방송이	217
▁귀엽	217
▁배우기	217
▁개인적	217
밀착형	217
▁재즈	217
▁재연	217
▁주범	217
▁맺어	217
▁항해	217
남녀	217
▁울려	217
▁남부지방	217
들끼리	217
▁환경보전	217
치매	217
룰	217
▁임시국회	217
▁대부분이다	217
작년	217
▁겪었	217
▁보호와	217
▁뮌헨	217
▁교량	217
▁사법개혁	217
▁친척	217
▁제약이	217
불리	217
▁지출원	217
대학생	217
▁질주	217
▁판타지	217
▁선물세트	217
▁서훈	217
해경	217
▁습도	216
운영한다	216
▁안되는	216
▁섞인	216
▁푼	216
▁삼성동	216
▁그것들	216
예금	216
▁특수활동비	216
엑	216
▁바라며	216
▁비롯하여	216
▁감안할	216
생각	216
▁막내	216
스페인	216
▁지급기준	216
▁퇴직연금	216
▁일정기간	216
▁오키나와	216
▁고비	216
수능	216
▁작성된	216
▁싸움이	216
▁갈색	216
▁숨어	216
▁자긍심	216
▁경기남부	216
해지자	216
▁상근	216
▁사무처장	216
▁채권단	216
▁탁구	216
▁입단	216
밖	216
▁눈앞에	216
▁부정한	216
▁찍힌	216
▁베르	216
덧	216
▁급수	216
▁때문이야	216
▁도입했다	216
▁청구인	216
고령사회	216
▁간편결제	216
친환경	216
▁날려	216
꼭	216
▁최대주주	216
▁지리적	215
▁수요자들	215
▁열광	215
쭉	215
▁통치	215
▁배임	215
▁반대편	215
▁받아들이	215
성훈	215
▁그러지	215
▁선배들	215
▁중진	215
▁만족할	215
▁한국인들	215
▁배양	215
▁까다롭	215
▁김부겸	215
조금	215
▁다가올	215
만원대	215
▁반대하고	215
▁사망률	215
▁강화한	215
▁요청해	215
▁법정에서	215
▁재무장관	215
▁칠레	215
oo	215
▁공안	215
▁출근길	215
▁기대와	215
깝	215
▁처리하고	215
▁프리랜서	215
▁마인드	215
▁청구했다	215
▁생활하는	215
▁장하성	215
▁갑작스	215
▁모텔	215
▁북미정상회담이	215
▁수의계약	215
▁주목받는	215
▁몸무게	215
독립선언	215
▁익산	215
▁알려드리겠	215
▁해설위원	215
▁저마다	215
▁파크	215
▁야심	215
▁선에서	215
▁긴장이	215
▁대수	215
농업인	215
▁정치권에서	215
▁논쟁이	215
짖	215
▁휩싸였다	215
▁야경	215
켄	215
▁190	215
▁어떤가요	215
비용은	215
▁흔들리	215
▁지나가는	215
▁다자	215
▁국민들에게	215
▁슬픈	215
독서	214
▁유해물질	214
▁1,200	214
▁찍었다	214
즌	214
보완	214
▁가루	214
퍼시픽	214
파크에서	214
▁장관에게	214
▁알파	214
▁상류	214
▁밝혀진	214
▁황희찬	214
▁인지하고	214
▁넓고	214
코트	214
▁풍미	214
▁깜빡	214
▁사태로	214
았는데	214
▁식구	214
▁산업은행	214
▁생방송	214
▁도움으로	214
▁서울대학교	214
▁조롱	214
▁기쁘게	214
▁좋아한다	214
▁노사정	214
▁시니어	214
오전	214
성능	214
▁외부에서	214
▁일상에서	214
▁북부청	214
▁인적사항	214
▁대검찰청	214
드려요	214
▁이력	214
▁입장문	214
▁시도했다	214
그다지	214
▁추억이	214
▁중남미	214
▁정치적으로	214
▁아파트값	214
▁신청해	214
▁판로개척	214
애플	214
▁말자	214
▁국가들이	214
▁표현했다	214
▁이해관계자	214
▁쌍방	214
▁국제공항	214
▁연달아	214
학술	214
▁신씨	214
▁물어봤	214
▁합의서	214
▁대상지	214
▁핸드	214
응답	214
탠	214
▁농부	214
▁삼각	214
▁박준	214
▁무대로	214
▁열리기	214
▁말해요	214
▁격려했다	214
▁판결문	214
▁임종석	214
▁누리집	214
▁합법적	214
본인	214
▁드셔	214
▁조건부	214
▁맞출	213
▁무엇이든	213
▁예상한다	213
▁경기둔화	213
▁평소보다	213
▁쓰인	213
▁자연스레	213
▁충돌이	213
▁융복합	213
▁겸손	213
▁거버넌스	213
▁서두르	213
(31)	213
▁창업주	213
▁국가적	213
▁털어	213
▁방송된다	213
▁정당성	213
▁주니어	213
▁팬이	213
▁간격으로	213
▁분장	213
▁문화재청	213
▁성도들	213
뱉	213
▁중시하는	213
▁가파른	213
이신가요	213
▁수립할	213
▁오셔서	213
▁김윤	213
▁메이커	213
화면	213
▁이야기하는	213
▁자문위원	213
계층	213
훼손	213
▁극중	213
▁일관성	213
▁뒤덮	213
▁어디서나	213
▁일하기	213
▁신진	213
▁아침까지	213
규정에	213
▁준비된	213
궈	213
▁경각심	213
▁회계사	213
▁모으는	213
▁불길이	213
▁소유하고	213
▁지나고	213
sh	213
▁아쉽	213
▁게양	213
▁폭등	213
▁지방재정	213
▁완료한	213
▁배추	213
▁속여	213
댓	213
▁돌아서	213
▁인권위	213
▁신속하고	213
▁우연	213
▁사회통합	212
▁외형	212
축산물	212
▁시제품	212
▁연면적	212
▁공모에	212
▁양당	212
▁부대시설	212
▁충분하지	212
▁필요했다	212
▁화살	212
▁짚	212
▁치명적인	212
ard	212
▁기탁	212
메이드	212
▁기관으로	212
▁친화적	212
▁준결승	212
▁민원실	212
▁집필	212
▁전환하는	212
▁재무제표	212
▁절정	212
▁골자로	212
▁페널티	212
▁절도	212
▁선제적으로	212
아메리카	212
▁훔친	212
▁거부했다	212
▁아시안게임에서	212
출연기관	212
▁멀다	212
▁추진해야	212
▁왔지만	212
▁판매되는	212
▁근원	212
▁돌며	212
평양	212
▁다르고	212
▁출입문	212
▁박항서	212
▁보여주기	212
▁대성	212
만큼이나	212
▁극도	212
▁암기	212
▁아르바이트를	212
▁치르는	212
01	212
▁이후부터	212
▁1988	212
▁오르기	212
▁프린터	212
▁히로	212
▁괴롭힘	212
▁도와드리겠습니다	212
▁급변하	212
▁상고법원	212
증서	212
짬	212
▁퍼레이드	211
▁숙지	211
▁포기하고	211
▁실수요자	211
▁날에는	211
세미나	211
▁길러	211
▁투수들	211
메이트	211
▁카트	211
▁오르지	211
▁드라이	211
▁끼치	211
▁우수하다	211
▁불편해	211
▁전작	211
▁특수성	211
▁동력이	211
좀	211
코프	211
기록부	211
▁나타낸	211
ca	211
▁늦추	211
▁부여하는	211
김문수	211
▁직면한	211
▁중저가	211
▁요소들	211
선수들	211
▁기동	211
클래스	211
기회를	211
▁짚었다	211
▁타이밍	211
▁너희들	211
▁역할과	211
▁CD	211
▁지속할	211
▁통계청이	211
기분	211
▁공평	211
▁윌	211
곱	211
탱크	211
교육기관	211
▁내사	211
▁인선	211
▁소견	211
▁가드	211
▁휴직	211
▁손님들이	211
▁또래	211
▁블라디보스토크	211
라이드	211
MLB	211
▁일삼	211
▁붉	211
▁박근혜정부	211
▁힘들다는	211
▁월드컵에서	211
▁공항으로	211
▁4·27	211
▁종양	211
▁일곱	211
▁치수	211
▁간담회에	211
▁니즈	211
▁알려지자	211
▁페어	211
▁양해각서	211
▁비정상적	210
▁지급하고	210
▁잉	210
▁교육환경	210
▁회색	210
▁신성	210
▁공업	210
▁보태	210
▁곡으로	210
▁완료될	210
▁같으니	210
▁초록	210
▁발생하였	210
▁내건	210
꿇	210
죄송해요	210
▁성장해	210
▁이력이	210
▁들기	210
▁거면	210
▁외벽	210
▁싹	210
▁보았다	210
▁소개한	210
UEFA	210
슐	210
▁성적표	210
▁국경장벽	210
▁지주사	210
금융권	210
▁그러고	210
▁실시하여	210
▁대담	210
▁최하위	210
젝	210
▁대사가	210
▁징수한다	210
▁소방청	210
취약	210
놔	210
▁방콕	210
▁해결되지	210
▁실종자	210
종합운동장	210
▁업주	210
▁남는다	210
▁찾아오는	210
ci	210
▁일자리창출	210
▁회생	210
▁포기할	210
청탁	210
▁자본주의	210
▁이슈에	210
▁강간	210
▁예측했다	210
▁스토리를	210
대신	210
억여원	210
▁착수한	210
▁구단이	210
가입자	210
▁모인다	210
▁건국	210
▁움직임에	210
공장에서	210
▁고구마	210
▁미만으로	210
▁색채	209
백만원	209
▁대북정책	209
▁우수기업	209
▁풀기	209
놨다	209
▁주었다	209
▁이전까지	209
▁생산량이	209
리서치	209
CA	209
▁만나지	209
차장	209
구성	209
▁협약은	209
▁이태원	209
▁정서적	209
▁분데스리가	209
▁라이벌	209
▁빌릴	209
▁임명된	209
줄래요	209
▁담기	209
▁유연성	209
▁떼어	209
▁유람선	209
▁망명	209
▁인파	209
호점	209
▁동거	209
기회	209
▁알리바바	209
▁운영될	209
▁고성군	209
▁페인트	209
▁거둬	209
▁바나나	209
▁구금	209
국민은행	209
▁모의고사	209
▁참석하여	209
▁에이전트	209
▁참패	209
▁무시하고	209
▁씨에게	209
▁러브	209
▁습지	209
하려다	209
▁중앙부처	209
▁일화	209
▁허익범	209
폼	209
▁사전투표	209
▁노출된	209
쑤	209
▁필요성에	209
징계	209
▁선량	209
▁1200	209
▁연예	209
▁체제로	209
주인공	209
▁숨은	209
▁이뤄지도록	209
▁여러분들이	209
▁방통위	209
▁옴부즈만	209
늙	209
▁박유천	209
▁관전	209
2.6%	209
▁보내겠습니다	208
▁지나서	208
보상금	208
보고서에	208
▁붕	208
▁동포	208
▁이튿날	208
▁부시장	208
▁주위에	208
뽕	208
▁조약	208
UAE	208
헷	208
▁기울어	208
▁촉매	208
▁정오	208
▁뇌물수수	208
▁원자재	208
▁가열	208
▁담겨있	208
▁않는데	208
▁오른발	208
▁무형문화재	208
4·4	208
복지재단	208
시간씩	208
▁가전제품	208
▁창출하는	208
▁손길이	208
국악	208
▁지급액	208
▁의회에서	208
▁추궁	208
▁막말	208
▁이루어지지	208
▁개별적으로	208
▁스무	208
▁가결	208
▁깊었	208
껍	208
▁군민	208
▁양호	208
▁재위탁	208
▁조선업	208
▁7000	208
▁생겼습니	208
▁헤어지	208
▁기해	208
▁협력사업	208
앙상블	208
▁다르지만	208
▁소비자들에게	208
▁낮았다	208
▁인력과	208
▁천사	208
▁맛있어	208
▁만드는데	208
꿰	208
▁초음파	208
▁투입된다	208
▁새겨진	208
▁대란	208
▁검수	208
▁스태프	208
▁폐쇄회로	207
▁VIP	207
▁우세하다	207
▁유가증권	207
▁부대행사	207
신남방	207
▁환율이	207
▁해소되	207
▁수상작	207
학생들	207
▁추돌	207
▁중산층	207
감염	207
▁여수시	207
주무부서	207
(29	207
▁정거장	207
▁즐기기	207
▁반감	207
5·18	207
▁BBC	207
▁추진되고	207
해줬다	207
▁까다로운	207
▁인사말을	207
▁참석하지	207
슬리	207
▁벤츠	207
▁김일성	207
▁제출하지	207
▁선관위	207
(30)	207
▁없어진	207
래요	207
▁정기국회	207
▁유효기간	207
▁무슬림	207
▁지급해야	207
사기	207
▁체내	207
▁스토어	207
▁획기적인	207
▁도둑	207
요령	207
▁선발투수	207
였는지	207
▁방법이다	207
▁대용량	207
▁양파	207
기업들	207
▁공개될	207
▁멸종위기	207
▁집적	207
▁협약식에	207
분야에서	207
드리는	207
▁충성	207
▁담당한다	207
▁근육이	207
국민기초생활	207
▁내리면서	207
▁전념	207
난방	207
LO	207
▁학자금	207
▁우크라이나	207
▁둘러싸	207
▁사립학교	207
고령	207
콕	207
▁박병호	207
▁편도	207
▁용돈	207
▁목동	207
핑크	206
증명	206
▁달라졌다	206
옮	206
▁추신수	206
▁환경개선	206
확장	206
그러게	206
▁이루어진다	206
해설사	206
▁넘어설	206
▁혈압	206
성남	206
▁공동조사	206
▁시도해	206
▁뭔가요	206
▁웃돌	206
▁마닐라	206
▁450	206
▁진리	206
▁GP	206
MD	206
▁개정으로	206
대부	206
▁폐암	206
▁아랍	206
2011	206
▁놀았	206
씽	206
▁방조	206
▁서울경제신문	206
▁내리지	206
▁폭스	206
▁복지시설	206
▁인체에	206
솔루션	206
▁달라지는	206
▁챙기는	206
▁가격대	206
▁하루하루	206
▁경제적인	206
▁지연되고	206
까봐	206
▁회의실에서	206
태풍	206
▁보스	206
▁들어서면	206
방법은	206
EV	206
▁달래	206
▁선택했다	206
▁선수들과	206
▁사회주의	206
▁총경	206
▁변경하고자	206
▁바디	206
▁마디	206
▁소방시설	206
▁주겠다	206
▁시작하면	206
▁발표될	206
▁생소	206
▁사용하던	206
▁각광받	206
▁오락	206
▁남북교류협력	206
▁1991	206
▁먹었다	206
▁바른정당	206
▁해피	206
▁어긋나	206
▁총파업	206
▁삼겹살	206
▁높지만	206
▁애써	206
노조는	205
루프	205
▁패권	205
▁신분증을	205
▁흔한	205
▁가져와	205
▁진흥원	205
▁라이트	205
상호	205
▁동성	205
▁지났지만	205
▁지자체와	205
▁자릿수	205
▁입장료	205
▁결정됐다	205
▁아프다	205
▁지켜봐야	205
▁결정하여야	205
▁비비	205
불량	205
▁얘기해	205
▁230	205
▁처리해	205
국제영화제	205
▁차지한다	205
분경	205
▁공언	205
▁떨어지면서	205
▁특성화	205
우회	205
▁낯설	205
▁모자라	205
▁사우스차이나모닝포스트	205
▁승리로	205
왜냐면	205
▁스캔	205
▁건너편	205
▁브레이크	205
▁강화될	205
▁시동을	205
▁웃었다	205
▁김모씨	205
▁8,000	205
▁송영무	205
갤	205
대장을	205
왓	205
▁성장률이	205
▁확인서	205
균형	205
▁풀어야	205
▁원상복구	205
▁기용	205
▁앞쪽	205
갔습니다	205
▁최적화된	205
▁자기소개서	205
▁청각	205
▁받습니다	205
▁투신	205
기능이	205
▁바람직한	205
SCMP	205
▁중단하고	205
PU	205
▁올리면	205
▁하느냐	205
▁특성화고	205
▁실리콘밸리	205
프로야구	205
▁접시	205
▁기자단	205
더라면	205
댄스	205
LP	205
▁갔는데	205
매년	205
▁실상	204
▁압박이	204
▁터뜨렸다	204
▁첫번째	204
art	204
▁교통카드	204
이야기	204
▁구직자들	204
▁1992	204
▁반영하지	204
▁조달청	204
▁상담회	204
▁전시회에	204
▁다정	204
쏘	204
▁미쳤	204
▁삼성화재	204
▁0.5	204
▁에세이	204
▁모르겠	204
▁실마리	204
해보겠습니다	204
▁맛보	204
▁보내세요	204
▁가져갈	204
▁시민참여	204
▁연기로	204
▁최영	204
▁영아	204
▁반영하여	204
▁물밑	204
▁팔레스타인	204
▁닮았	204
PP	204
괜찮	204
▁망언	204
▁존엄	204
옵니다	204
▁첨부파일	204
▁없었다면	204
▁하노이에서	204
▁스미스	204
▁용접	204
▁아라	204
▁연준이	204
아시안게임	204
▁유저	204
▁올려놓	204
▁시식	204
그런데	204
▁검역	204
▁빌려주	204
▁임시회의	204
▁때때로	204
▁출석했다	204
조선소	204
▁속출하	204
▁응급처치	204
▁가혹	203
▁채운	203
▁시차	203
쇼핑몰	203
▁좋겠네요	203
▁몰두	203
▁첨단기술	203
제주도	203
▁협의하여야	203
▁결합된	203
▁결정하기	203
▁올리브	203
▁득표	203
▁흔들리는	203
▁유통업체	203
▁소설가	203
▁어떡하	203
▁포화	203
▁로그	203
▁전략으로	203
▁만들어져	203
▁제작하는	203
▁풍선	203
▁지나면서	203
리터	203
▁지능형	203
▁럭셔리	203
▁이글스	203
▁백제	203
▁조선인	203
▁특례법	203
hi	203
▁기어	203
▁대체복무	203
▁엑소	203
▁미숙	203
▁소통할	203
▁이천시	203
▁8000	203
▁가성비	203
▁모색하기	203
▁갖춰야	203
테스트	203
▁지방분권	203
▁이야기하고	203
▁밟아	203
▁편입니다	203
▁정규리그	203
▁대학교에	203
▁극동	203
LS	203
라면서	203
▁조형물	203
▁병사	203
▁동메달	203
▁신사업	203
▁그러기	203
▁형량	203
▁탄생한	203
▁사이드	203
▁납세	203
▁강정호	203
▁관련주	203
▁고부가가치	203
▁이더리움	202
▁영국에서	202
▁치마	202
아들	202
▁패션쇼	202
▁판단된다	202
▁중단됐다	202
▁압력이	202
▁발열	202
▁출혈	202
▁가보고	202
▁자선	202
나드는	202
주십시오	202
▁재발급	202
▁부진으로	202
▁판문점선언	202
▁선인장	202
퇴근	202
▁거니까	202
▁직진	202
▁평정	202
▁참여하며	202
▁받아들인	202
▁레시피	202
▁색소	202
▁도시재생사업	202
▁출전해	202
겠냐	202
▁재산권	202
▁예술단	202
▁의견수렴	202
▁전달식	202
▁신당	202
▁인생에서	202
▁놓쳤	202
▁아크	202
▁마일리지	202
로이터	202
숙박	202
▁켈리	202
▁당첨자	202
강전	202
▁추진되는	202
▁계정에	202
▁조식	202
▁바빠	202
▁대법원에서	202
▁감상할	202
▁득표율	202
▁준용	202
▁국왕	202
▁전화기	202
▁화천	202
▁준공영제	202
▁어울릴	202
상담사	202
▁원치	202
표지	202
▁숨졌	202
▁유지해	202
▁성찰	202
▁적용했다	202
▁선생님께	202
▁오존	202
솟	202
▁밝혀지지	202
▁떨어지지	202
▁영역이	202
▁구독자	202
▁시점이다	202
▁넘으면	202
▁몰렸다	201
비즈	201
▁해역	201
▁전망대	201
▁반경	201
▁의료서비스	201
▁옆으로	201
드레	201
▁제안하는	201
▁철원	201
▁이뤄지기	201
▁개혁안	201
▁벗어날	201
▁평안	201
▁지불해야	201
▁전량	201
▁은메달	201
▁프로축구	201
짱	201
소매업	201
▁개정된	201
제어	201
PD	201
아름	201
▁자살예방	201
꿔	201
▁덤	201
▁남들	201
▁빈자리	201
▁가파르	201
▁도서관에서	201
▁베스트셀러	201
혼자	201
▁고려하고	201
어머니	201
▁재량	201
▁공직자들	201
▁붙어있	201
▁울릉도	201
▁제목으로	201
▁말해주세요	201
▁조성된다	201
▁잡으면	201
▁결함이	201
해냈다	201
▁스티브	201
▁진에어	201
▁낙태죄	201
▁둘러보고	201
▁무관하게	201
▁천둥	201
▁머스크	201
튀	201
▁6·12	201
볼까	201
▁준다고	201
위원으로	201
▁차명	201
▁출입국	201
혹시	201
▁광역자치단체	201
▁고백했다	201
▁이전보다	201
그것이	201
예술단	201
▁지정한다	201
▁치열하게	201
▁인영	201
▁노린	201
럿	201
뮤지컬	201
▁제기되는	201
▁제품입니다	201
▁선제골을	200
▁요리사	200
▁케빈	200
▁보여줘	200
▁공동위원장	200
마르	200
▁뛸	200
▁단위기간	200
▁재산피해	200
▁봉사단	200
▁법관들	200
플레	200
▁히트	200
▁플로	200
했잖아	200
▁와야	200
▁후임	200
▁행장	200
▁다국적	200
▁알았어	200
▁무색	200
▁롯데마트	200
▁돌보는	200
동기	200
▁감당할	200
▁기금운용관	200
봐요	200
▁형사처벌	200
▁스페이스	200
▁일방적인	200
▁이승현	200
푼	200
융합기술	200
케이블	200
듣	200
LED	200
▁행정정보	200
총연합회	200
▁충무	200
▁프리메라리가	200
▁출연진	200
CM	200
▁화분	200
하셔	200
▁달콤	200
▁보건소장	200
▁필로폰	200
▁첨부한	200
(40	200
해드립니다	200
▁고위공직자	200
▁개교	200
▁실리콘	200
▁김동원	200
▁스승	200
▁내려졌다	200
▁외국인투자	200
▁블랙핑크	200
ge	200
있지	200
▁예약할	200
▁기금운용계획	200
▁결합해	200
냄	200
▁내부통제	200
▁후손	200
▁소외된	199
과학관	199
▁맞이해	199
▁거부하는	199
▁왕실	199
▁변함	199
▁특구	199
▁후속조치	199
▁휴업	199
▁이어가는	199
▁당기	199
▁아름다워	199
현준	199
▁사모	199
▁체코	199
▁회의장	199
▁홍삼	199
▁역습	199
▁중고차	199
▁당사자로	199
▁참여자들	199
▁행적	199
▁다목적	199
▁마련하겠다	199
▁만성질환	199
▁팬미팅	199
증강현실	199
▁과거사위	199
▁방산	199
유예	199
▁문제해결	199
▁인텔	199
▁어쨌든	199
▁사용해서	199
▁넣으면	199
▁누르고	199
▁루이스	199
라디오	199
▁발표하면서	199
▁시행되는	199
▁누군가에게	199
▁부쩍	199
▁놀아	199
▁공공도서관	199
합성	199
▁텐데요	199
▁얼룩	199
▁빌보드	199
▁경쟁률이	199
▁만나자	199
▁배드민턴	199
▁세팅	199
▁품절	199
▁환산	199
▁특사경	199
▁댓글이	199
▁옳은	199
▁퀄컴	199
▁선발로	199
▁어떠세요	199
▁기업지원	199
▁코엑스에서	199
▁네트워킹	199
▁의도로	198
▁점거	198
FF	198
MOU	198
▁환상적인	198
▁고장이	198
∼200	198
▁고발했다	198
▁자격으로	198
▁광명시	198
▁몰려들	198
▁KEB	198
큐브	198
▁실천하는	198
▁취득세	198
▁직장에서	198
▁고조되	198
아뇨	198
▁신공항	198
▁국장이	198
맞춤	198
똥	198
▁알았어요	198
▁슬프	198
▁나라들	198
▁일왕	198
▁낭만	198
▁받았으며	198
어벤져스	198
▁경제협력개발기구	198
▁선방	198
▁취하는	198
▁이야기할	198
▁보답	198
▁순위에	198
▁행위로	198
▁타구	198
시간제	198
쪼	198
▁유도하고	198
찼	198
▁미주	198
▁들어온다	198
▁대표에게	198
▁하라	198
▁정보통신망	198
▁넘어서는	198
▁싸우는	198
▁보궐선거	198
▁명함	198
당초	198
▁극한	198
▁뒤편	198
▁반영되지	198
▁육수	198
▁발동	198
▁승선	198
▁싶었어요	198
▁소나기	198
▁시행될	198
▁가던	198
▁수정할	198
▁신비	198
▁예능프로그램	198
바퀴	198
얽힌	198
▁나와야	198
▁실무위원회	198
▁드러내는	198
▁아이에게	197
▁엑셀	197
▁준비돼	197
줄게요	197
침해	197
▁공시가격이	197
▁업종별	197
더욱	197
▁강국	197
▁맹활약	197
▁속해	197
▁계획대로	197
배치	197
▁학자	197
복지시설	197
▁일어나서	197
▁싶고	197
▁책으로	197
▁영향에	197
항만공사	197
▁므누신	197
▁무차별	197
▁상장폐지	197
▁리비아	197
▁대해서만	197
▁주권	197
▁적용됐다	197
▁신빙성	197
▁아시아나	197
계정	197
▁한국거래소	197
해양경찰서	197
▁가점	197
세이브	197
▁부평	197
▁방식과	197
▁나사	197
▁비공개로	197
▁가까워지	197
직접	197
▁책임지고	197
구청	197
▁떨어뜨리	197
구입	197
▁왕성	197
▁비해서	197
진출	197
▁쉬어	197
▁깔끔한	197
▁더이상	197
▁관광명소	197
타르	197
▁고위험	197
베스	197
▁몸으로	197
▁뉴타운	197
파이어	197
▁필두로	197
▁후보군	197
▁메뉴로	197
▁개량	197
재생에너지	196
▁선수에게	196
▁재사용	196
전시장	196
▁타이틀곡	196
▁변해	196
▁닦아	196
se	196
▁낙후	196
▁김부선	196
▁돌아갔다	196
▁연설에서	196
▁배치해	196
실례합니다	196
▁총재는	196
▁지속적	196
▁아니며	196
▁돌리는	196
균형발전	196
철수	196
▁착오	196
▁재밌는	196
▁안내문	196
▁모여서	196
특별회계	196
▁이영자	196
▁국민일보와	196
▁월간	196
위크	196
▁겪었던	196
했어야	196
▁변론	196
▁이통사	196
▁로맨틱	196
▁있으면서	196
▁금융감독원이	196
공작	196
▁틀림없	196
▁파마	196
정책관	196
▁장외	196
▁작성하는	196
▁통보했다	196
▁나눠서	196
▁다이아몬드	196
▁의원총회	196
▁결승에서	196
학생들이	196
콧	196
▁움직이지	196
▁말아요	196
▁소방대원	196
▁역대급	196
▁암살	196
▁사망사고	196
▁평가받는	196
▁공공시설물	196
▁유보	196
▁돕	196
▁내려서	196
▁알면서도	196
0.8%	196
▁극복할	196
▁계속된	196
▁불안해	196
공유재산	195
▁행복하고	195
ia	195
되었지만	195
▁방면	195
ell	195
▁참모들	195
▁공동연구	195
▁생각했는데	195
▁글쓰기	195
▁출루	195
▁병실	195
▁체포된	195
▁사용했다	195
▁잠재력이	195
▁기능과	195
▁엑스포	195
▁많게	195
자로부터	195
▁떨어지면	195
▁독서문화	195
포드	195
▁추행	195
▁광산	195
▁핸들	195
▁로즈	195
▁인사위원회	195
▁고통받	195
떠	195
▁부족하고	195
▁온다고	195
▁사옥	195
▁종속	195
▁신병	195
▁줄면서	195
▁옮길	195
작성	195
▁물결이	195
배달	195
ry	195
▁뇌졸중	195
▁닷새	195
▁적용하고	195
▁경기중소기업종합지원센터	195
▁모양이	195
조각	195
▁평화협정	195
▁나왔고	195
▁경제발전	195
▁억압	195
▁바꾸기	195
▁전교조	195
▁특별위원회	195
▁최저치	195
시설공단	195
▁한국토지주택공사	195
▁찔러	195
패스트	195
연결	195
SP	195
▁제시해	195
▁워터	195
▁파악했다	195
KAIST	195
▁국제축구연맹	195
▁우려에	195
▁통일전선부장	195
장학금	195
으라고	194
▁비서실장이	194
▁관례	194
up	194
▁되시	194
ml	194
▁총수일가	194
▁자연과	194
▁강등	194
▁기간보다	194
▁조사했다	194
▁일으키고	194
▁법리	194
▁사러	194
▁부조리	194
현수	194
▁30∼40	194
▁튀김	194
악화	194
▁입당	194
▁적폐	194
남편	194
▁이겨내	194
▁발생하면서	194
▁훔쳐	194
▁살았던	194
SW	194
▁바라본	194
▁과속	194
▁발간한	194
▁증거로	194
굿	194
▁원두	194
▁수사할	194
▁소량	194
대로라면	194
▁왼쪽으로	194
▁변경해	194
▁상임이사	194
▁수사팀	194
03	194
따라	194
▁외부인	194
▁잠금	194
▁비하면	194
▁참작	194
▁시도하는	194
▁광저우	194
▁악화된	194
▁증축	194
▁330	194
▁궤	194
서초	194
▁달여	194
주시는	194
연방	194
▁의대	194
▁삼성전자서비스	194
▁김밥	194
▁무궁화	194
▁쿠바	194
▁방청	194
소유	194
점슛	193
여성비전센터	193
▁쏘아	193
▁환자와	193
▁달렸다	193
▁경영계	193
▁여론조사에서	193
▁역설했다	193
▁UN	193
▁역량강화	193
▁찬스	193
▁스테이지	193
▁붙었다	193
시그널	193
▁아레나에서	193
도로교통법	193
▁났습니다	193
▁잊고	193
쓸	193
▁경치	193
▁돌고	193
▁골대	193
저축은행	193
▁트와이스	193
▁아버지와	193
컨벤션센터에서	193
▁새삼	193
▁강구하여야	193
▁몸값	193
▁일당이	193
▁입소문	193
▁생각하며	193
▁내준	193
런트	193
▁아티스트들	193
▁법사위	193
▁보겠습니다	193
▁기반한	193
차산업혁명	193
▁정기회의	193
▁양수	193
▁방송국	193
▁봉합	193
▁추락한	193
자립	193
확산	193
교정	193
헨	193
▁업무처리	193
브리핑	193
all	193
▁발리	193
신학	193
▁공통점이	193
▁해소할	193
항만	193
▁아저씨	193
준영	193
▁강수량	193
▁나주	193
Pro	193
▁한나라당	193
▁다쳤	193
▁폭포	193
엘리	193
▁규제혁신	193
▁게시글	193
▁역동적	193
▁물러난	193
▁독해	193
▁밀집한	193
▁국수	193
소영	193
▁김정일	192
▁강원도지사	192
▁즐겁고	192
▁결석	192
▁차익	192
▁커리큘럼	192
▁위촉하되	192
후반	192
렘	192
▁휴게소	192
▁양평군	192
▁보내주실	192
▁창의력	192
▁고추	192
개월여	192
▁보였	192
교대	192
▁미분양	192
▁조현병	192
세액	192
▁가하고	192
>(	192
▁연예계	192
▁탑승한	192
▁이어폰	192
넨	192
▁파이프	192
▁리튬	192
▁포기한	192
원래	192
▁동두천시	192
▁발표회	192
▁틀린	192
▁어머니와	192
▁최재	192
▁강자	192
▁들어서고	192
▁바닷물	192
▁움직여	192
▁식습관	192
▁대의원	192
▁치어	192
▁김진태	192
▁이어지자	192
폐기	192
▁울림	192
금융위	192
▁산부인과	192
▁불렀다	192
▁드린	192
▁믿습니다	192
강남구	192
섯	192
▁급증하는	192
▁전승	192
▁요지	192
▁종식	192
틋	192
▁최고기온이	192
▁잠수	192
▁쫄깃	192
▁받으시	192
▁추천하고	192
▁갈게요	192
▁공동선언	192
벡	192
현대차	192
▁술자리	192
▁가정용	192
방식으로	192
▁해운대구	192
녁	192
▁국제교류	192
▁민간투자	192
현장에	192
▁싸이	192
▁자극한다	192
▁담당자들	192
▁합창	192
▁잭	192
▁공급자	192
▁국면에	192
▁야산	192
▁한국사회	192
▁주어지는	192
▁확산되는	192
▁정확도	192
▁홍남기	192
▁계약기간	192
ce	191
▁한마음	191
▁우승자	191
∼11	191
▁상급	191
해운	191
▁회사채	191
▁1960	191
▁택지개발	191
▁발상	191
▁분야별로	191
▁교양	191
▁배급	191
▁전달된	191
▁공개되지	191
▁바라보며	191
▁위촉위원	191
관리위원회	191
▁집계한	191
▁중량	191
▁크리스천	191
▁평양공동선언	191
▁거부감	191
▁수상자로	191
∼30	191
▁지급되는	191
▁매수세	191
▁이루어지고	191
스타트업	191
▁서명한	191
▁발제	191
발언	191
▁진상조사단	191
BO	191
▁좋았어요	191
목록	191
쿵	191
EL	191
하십니까	191
폄	191
매수	191
캔	191
▁주차장에서	191
▁반영하고	191
죄로	191
중등교육법	191
▁날아가	191
▁도시가스	191
▁상세한	191
▁수준까지	191
▁코믹	191
▁소집하고	191
자문위원회	191
▁김학범	191
▁되었을	191
ho	191
회의실에서	191
▁자문단	191
▁챌린지	191
▁철새	191
▁면책	191
▁섬세한	191
▁부장검사	191
▁대응하고	191
▁치료비	191
▁지향하는	191
▁안녕	191
▁쳤다	191
▁회장님	191
▁빠지지	191
포레	191
▁인접해	191
▁원재료	191
사무관	191
▁항일	191
▁외교장관	191
▁옥수수	190
▁오셨다	190
▁신나	190
▁거꾸로	190
▁일산화탄소	190
▁힘써	190
▁설정하고	190
▁2018-2019	190
멍	190
▁물어볼	190
▁팩스	190
감독관	190
▁효율화	190
▁시찰	190
▁공공주택	190
▁실책	190
▁합류했다	190
▁후방	190
▁기여했다	190
해나갈	190
▁필요하다면	190
▁진행해야	190
▁궁극적으로	190
▁유출된	190
▁행정절차	190
KDI	190
▁유형별	190
하시길	190
▁반격	190
포스트	190
▁공감하는	190
▁나가지	190
▁모르겠네요	190
▁270	190
▁생후	190
▁상담사	190
▁끼쳤	190
▁쌀쌀	190
▁교육프로그램	190
▁마을에서	190
▁안전보장이사회	190
▁무늬	190
▁묵묵	190
▁대사는	190
04	190
▁보였지만	190
▁빚어지	190
저것	190
▁태우고	190
▁토론회를	190
▁집사	190
특별법	190
춰	190
▁열리며	190
▁한진칼	190
▁언어로	190
꿀	190
▁싫어요	190
테러	190
▁해당하지	190
▁트레	190
▁상속세	190
자문단	189
▁금강	189
▁과학자	189
전담	189
▁쏠리	189
▁조끼	189
▁노력하겠습니다	189
구조대	189
▁주부터	189
▁고통이	189
링크	189
▁일탈	189
▁판촉	189
▁하이라이트	189
▁고압	189
▁업체에서	189
이었다면	189
▁파업에	189
집중	189
▁재기	189
▁해준	189
▁실비를	189
▁자존감	189
▁찍어서	189
▁ID	189
증상	189
고지서	189
▁특급	189
팰	189
▁강화해야	189
▁해달라고	189
▁느려	189
▁목표치	189
▁앉았	189
▁일반회계	189
▁휘두른	189
▁이유입니다	189
▁허물	189
▁중소기업중앙회	189
▁화요일에	189
▁학부	189
▁독창적	189
▁달리기	189
▁낮추고	189
▁병역거부자	189
▁절단	189
▁피하는	189
▁주최로	189
▁쏟아진	189
▁금속노조	189
▁담당할	189
▁공익위원	189
▁산업재해	189
▁미혼	189
▁자랑스럽	189
▁참석하기	189
SDS	189
친화적	189
공식	189
▁개회식	189
▁신혼	189
부두	189
만여명이	189
▁준공식	189
▁컨설턴트	189
진혁	188
▁고용보험	188
져요	188
▁헬스장	188
▁시작되기	188
id	188
▁승리했다	188
SH	188
▁운동화	188
▁우량	188
저우	188
▁풀어주	188
▁2,500	188
미스	188
▁정제	188
쿤	188
▁정품	188
쪽으로	188
▁여고생	188
▁통상임금	188
▁포함해서	188
▁환경단체	188
▁고려했다	188
▁신변	188
▁세울	188
부상	188
▁폭로했다	188
▁엇갈린	188
▁비어	188
▁페미니즘	188
▁외환위기	188
▁구리시	188
▁작품들이	188
▁확인돼	188
▁되겠습니까	188
체육시설	188
▁대표들이	188
룽	188
▁경직	188
▁중구청	188
▁사죄	188
▁인위적	188
손상	188
▁육성하기	188
▁모두발언	188
-5	188
▁전용면적	188
▁목걸이	188
▁통과할	188
소위원회	188
▁보험회사	188
▁검사장	188
▁토론토	188
▁연령층	188
▁멀지	188
▁켄	188
▁운용사	188
▁신흥시장	188
▁천안시	188
▁중요시	188
▁꺼지	188
송금	187
▁타지	187
▁즐겼	187
의료기관	187
▁예정인데	187
▁애매	187
▁근로소득	187
▁강원랜드	187
겠군요	187
▁CNBC	187
▁대책으로	187
▁팀원	187
▁사업장에서	187
▁당사자들	187
▁팝업	187
상훈	187
▁사체	187
▁받았어	187
▁번복	187
▁제거하는	187
▁출발점	187
▁코끼리	187
▁어둡	187
신속처리안건	187
▁발행하는	187
▁재밌게	187
▁모색하고	187
▁걸리나요	187
▁주변국	187
▁센트럴	187
▁관광자원	187
▁필요하기	187
▁섬기	187
▁아니하고	187
재난안전대책본부	187
▁단독으로	187
▁진작	187
▁입체	187
▁조심스럽게	187
▁the	187
▁음향	187
▁최저임금법	187
▁비상대책위원회	187
▁사업부	187
홍석	187
▁점검했다	187
▁유방암	187
냅	187
▁경제위기	187
▁문제들이	187
▁러닝	187
▁헌장	187
▁관객이	187
천동	187
▁쏟아냈다	187
▁정선	187
▁디바이스	187
▁예방할	187
주식회사	187
마녀	187
▁숨져	187
텅	186
▁분홍색	186
▁금전적	186
▁펌프	186
▁처장	186
ine	186
▁희망자	186
부패	186
폭염	186
▁작용하고	186
(29)	186
▁인사청문	186
▁정반대	186
▁획득한	186
▁어려우	186
▁개발계획	186
▁생활안정	186
▁연합회	186
루스	186
▁뽐냈다	186
▁후보들이	186
▁괴롭	186
정비사업	186
▁기조연설	186
▁없었는데	186
▁국가안보보좌관	186
▁방향과	186
사업비	186
펌	186
▁주장해	186
▁주관하고	186
관제	186
▁굳건	186
▁진지한	186
▁문서로	186
▁성폭행한	186
▁사무실로	186
▁세계화	186
종합계획	186
해주시는	186
▁김천	186
▁그었다	186
▁보장하고	186
▁아동복지	186
▁재난현장	186
▁슈퍼마켓	186
▁방지하고	186
▁불빛	186
▁숙명여고	186
▁출석하고	186
맵	186
▁교부하여야	186
▁가나요	186
▁볼넷	186
▁면역력이	186
▁뜻밖	186
▁어기	186
▁신고할	186
국어	186
▁점검할	186
그러면	186
영장실질심사	186
▁비슷하게	186
▁인상률	186
▁맞은편	186
▁편향	186
▁이용률	186
▁결연	185
▁뒤진	185
▁시뮬레이션	185
▁평상시	185
연구소장	185
▁턱없	185
슬기	185
▁형법	185
▁싶었는데	185
▁바리스타	185
▁밤늦게	185
▁하락할	185
▁도입한다	185
▁미치고	185
▁작가와	185
▁추락해	185
▁자원봉사활동	185
▁디스크	185
모니터	185
▁티브이	185
▁피터	185
▁위스키	185
▁그물	185
▁이용객이	185
▁등지에서	185
▁킥	185
▁자취	185
∼15	185
▁데뷔한	185
▁행동으로	185
▁못했을	185
▁기대되고	185
하였는데	185
얄	185
대책회의	185
▁신나는	185
▁조성돼	185
▁주점	185
▁재판거래	185
▁9·13	185
▁개최될	185
▁부여할	185
▁메르켈	185
▁데려가	185
▁김상조	185
▁발전하고	185
▁교제	185
손흥민	185
▁손색	185
▁지쳐	185
▁밟고	185
▁가디언	185
▁유머	185
▁해석했다	185
▁뻗	185
파주	185
덩어리	185
▁오늘까지	185
▁인플레이션	185
▁벌레	185
▁앞세운	185
▁부사장이	185
▁태스크포스	185
▁흐리고	185
▁성과급	185
▁입증했다	185
PR	185
▁종합대책	185
▁펼치며	184
▁유니버설	184
▁생명에	184
국세청	184
갑질	184
증대	184
▁편의점에서	184
▁굴뚝	184
▁요구해	184
▁휠	184
▁면역력	184
▁마감했다	184
▁전환할	184
▁설정한	184
운동본부	184
▁보려고	184
자영업자	184
▁집행부	184
▁상응조치	184
▁필리핀에서	184
인권센터	184
▁중이고	184
▁지분율	184
담당부서	184
▁발전하는	184
▁안팎으로	184
▁지원책	184
▁마을기업	184
▁전문업체	184
▁지어진	184
▁경청	184
▁울고	184
▁충청권	184
▁남대문시장	184
▁무제한	184
▁도우미	184
▁노골적	184
▁만들겠다는	184
▁건국대	184
▁친절하게	184
▁싶었습니다	184
▁보고회	184
▁도립	184
▁뻗어	184
▁인증제	184
수량	184
▁동계	184
▁서민금융	184
▁보이콧	184
▁교육위원회	184
▁좋았습니	184
▁지원방안	184
▁없애고	184
기반시설	184
▁지탱	184
▁어울리	184
▁특기	184
▁실업자	184
▁세분화	184
▁불과해	184
▁구도심	184
▁참배	184
▁적용하지	184
▁유포한	184
▁말처럼	184
▁호랑이	184
항공사	184
검색	184
봉산	184
▁살게	184
▁내리면	184
▁감기에	183
▁뱀	183
▁하든	183
여된다	183
▁함량이	183
당신의	183
하겠다며	183
▁공정하고	183
▁노인일자리	183
발전기금	183
해드릴까요	183
설정	183
▁체육계	183
▁옮겨져	183
▁바뀐다	183
▁악화될	183
▁받아온	183
고등학생	183
▁주문서	183
▁바다에서	183
▁보듯	183
▁세계유산	183
▁트윈스	183
▁있었음	183
▁안겼다	183
산업협회	183
▁게임사	183
▁빠르다	183
▁유료방송	183
▁멈췄	183
롯	183
단계에서	183
▁소소	183
▁프레스센터	183
▁유리창	183
안건	183
▁영상물	183
▁나서겠다	183
▁살지	183
▁졸업하고	183
되었기	183
▁자랑한다	183
▁중앙대	183
해놓고	183
기타	183
▁잔치	183
▁엔딩	183
▁딜러	183
▁상부	183
▁대비하여	183
▁사학	183
증거	183
▁초반부터	183
▁들어오지	183
경희	183
인공지능	183
▁팀에서	183
▁캐버노	183
▁증식	183
전문기관	183
세월호	183
▁박재	183
▁오거돈	183
▁좋아질	183
▁도피	183
스튜디오	183
▁초록색	183
▁욕실	183
▁고위급회담	183
▁과학자들	183
▁마땅한	183
▁공시지가	183
▁일대일	183
▁저평가	183
평생교육	183
▁외국인들이	183
▁따뜻	183
▁생략할	183
▁넘길	182
▁오리온	182
▁부담스럽	182
▁낮았	182
자살	182
▁선보이	182
▁숙박시설	182
▁초까지	182
▁의료관광	182
웠어요	182
▁행운이	182
자체	182
▁인정받았다	182
정상화	182
▁양일간	182
▁억류	182
▁신예	182
▁판빙빙	182
▁달라진다	182
▁현실적	182
▁받아볼	182
▁쓰일	182
▁물려	182
▁장현수	182
복원	182
▁총영사	182
▁지켜보고	182
▁장세	182
시민들	182
▁라이온즈	182
▁특사단	182
▁너머	182
오른쪽	182
▁응대	182
▁간부들이	182
▁제한된다	182
▁가깝게	182
▁시험문제	182
▁식수	182
▁초속	182
▁보내주시기	182
▁무산된	182
▁오가며	182
▁주축이	182
▁금전	182
▁투표율	182
렌즈	182
▁인멸	182
▁청계천	182
▁바람직하지	182
▁김재환	182
▁이틀째	182
▁보호할	182
삼성바이오	182
베이스	182
▁설전	182
▁시료	182
▁특권	182
▁따내	182
▁선도하는	182
mg	182
▁습관이	182
▁전기자동차	182
▁제시된	182
▁포토타임	182
▁조회수	182
▁123	182
▁버스정류장	182
▁광고주	182
▁발돋움	182
▁겸임	182
▁배출하는	181
▁앞바다	181
▁조직개편	181
▁텍스트	181
▁바둑	181
▁2500	181
▁캡처	181
▁상징성	181
▁출석하여	181
▁끼워	181
▁주택가격	181
BL	181
ICBM	181
▁난무	181
▁나자	181
▁고흥	181
▁실험실	181
▁기재된	181
▁품질관리	181
▁드린다	181
▁관객들이	181
▁시작되자	181
클레이	181
▁유출한	181
▁증언이	181
▁섹시	181
▁전원합의체	181
▁들어섰다	181
취급	181
▁사용해요	181
▁최대치	181
▁정수기	181
▁자막	181
NI	181
분류	181
했네요	181
▁문제라고	181
▁개선안	181
▁의왕	181
▁추천한다	181
투스	181
▁지폐	181
▁신영	181
공인회계사	181
골드	181
셨습니까	181
▁진행되지	181
세율	181
▁트레이닝	181
▁마운드	181
▁서초	181
▁보관하고	181
▁내려야	181
재활용	181
▁행인	181
▁고작	181
▁건넸다	181
▁알루미늄	181
▁결원	181
▁증폭되	181
▁정기적인	181
▁매트	181
▁매너	181
▁발대식	181
▁의식한	181
▁조심해야	181
▁기술이전	181
▁기관투자자	181
▁죄송합니다만	181
▁진행하기	181
▁자치분권	181
▁떠나고	181
▁캐나다에서	181
▁늘었고	181
▁서술	181
▁지적하며	181
▁유상	181
▁인정해	181
▁몸살	181
랬	180
▁7,000	180
▁진천	180
▁연합훈련	180
▁기술력이	180
▁기아자동차	180
▁한화생명	180
볕	180
▁외압	180
(33)	180
▁판교테크노밸리	180
▁사업시행	180
▁상호작용	180
▁첫날인	180
▁대역	180
크라	180
▁개방형	180
미용	180
▁균열이	180
▁대검	180
▁지역공동체	180
▁취지에서	180
▁대기오염물질	180
▁것이지만	180
▁남성들	180
▁부족했다	180
▁산후	180
타이어	180
▁접어	180
AL	180
▁지질	180
곶	180
마스터	180
▁느꼈습니	180
▁연계하여	180
별표	180
▁나가기	180
▁수립하는	180
▁가미	180
▁유승민	180
▁지목한	180
영양	180
▁변명	180
해왔지만	180
▁빠져들	180
▁세워진	180
▁가동률	180
▁신청사	180
▁제공하며	180
▁녹조	180
▁뜨거워	180
▁집중되는	180
성경	180
떴	180
▁토목	180
쉼터	180
▁포기하는	180
▁브레	180
극본	180
포털	180
▁색감	180
경기북부	180
▁취급하는	180
▁아쉬웠	180
▁선보였	180
▁당진	180
스페이스	180
▁부모님과	180
▁생육	180
▁가능하기	180
▁시장점유율	180
백여	180
▁신세	180
여객	180
▁취하지	180
▁주목했다	180
▁처음이라	180
▁누수	180
루트	180
▁제기할	180
▁없었기	180
▁달랐다	180
수익률	180
▁배웠습니	180
어린	180
EE	180
▁걸려요	180
▁트라우마	180
▁외치고	179
ex	179
▁부여하고	179
표창	179
보건의료	179
▁체불	179
▁센터에서	179
▁감식	179
▁건설업	179
▁깨끗	179
▁넘어야	179
▁저금리	179
췌	179
댈	179
▁낙폭	179
▁맞아요	179
▁장신	179
▁키웠다	179
글리	179
▁집중돼	179
▁적절하게	179
▁진출했다	179
지속가능	179
▁지뢰	179
화상	179
▁통행료	179
-23	179
▁없애는	179
▁신개념	179
한국시각	179
▁출처	179
▁뭐든	179
▁예고편	179
현상이	179
법무	179
▁LCD	179
충북	179
▁쇠퇴	179
▁병역거부	179
▁예정이라	179
▁판매가격	179
▁감수성	179
▁참석자들이	179
▁체납액	179
▁상승하고	179
젊은	179
▁확신한다	179
▁뷰	179
▁즈음	179
발굴	179
그것은	179
▁공소	179
흐름	179
▁10,000	179
▁여객선	179
▁대응해	179
▁해당된다	179
▁못한다면	179
▁깃발	179
모건	179
영희	179
▁나오게	179
▁제기하는	179
▁3∼5	179
▁비롯된	179
▁3.5	179
▁초빙	179
▁격화되	179
피트	179
▁두드러지	179
▁영상정보처리기기	179
▁회담장	179
뿐더러	179
브레인	179
종료	179
▁부적절하다	179
▁고종	179
▁좀더	179
▁별장	179
만족	179
AFC	179
▁경연대회	178
▁백석	178
계단	178
▁왔고	178
-20	178
우유	178
전달	178
루타	178
ll	178
▁선임연구위원	178
농약	178
▁전문위원	178
▁종교적	178
▁유실	178
▁형편	178
▁안전자산	178
▁개선되고	178
▁무력화	178
▁관영	178
▁깨끗하고	178
▁유망주	178
▁농어업	178
▁부두	178
▁추징	178
수산물	178
▁거부할	178
▁보내드리	178
▁떠나지	178
▁법정구속	178
▁통째	178
▁경쟁률	178
페이스북	178
조사위원회	178
까진	178
▁입구에서	178
▁장려상	178
▁알지만	178
▁학부모와	178
▁대학원생	178
▁소란	178
▁팀워크	178
▁청량	178
▁노약자	178
▁신뢰할	178
▁통보하고	178
▁부응하	178
납세자	178
▁나눠주	178
▁짜릿	178
▁놔	178
▁일회성	178
▁서포터즈	178
▁일수	178
▁기여도	178
(2017	178
넉	178
성모병원	178
▁공수	178
▁내려갔	178
▁국제통화기금	178
ot	178
▁후원자	178
▁간장	178
▁주주들	178
▁덜미	178
첫째	178
▁재탄생	178
▁부산시장	178
▁함부	178
▁패드	178
▁구절	178
▁개발사	178
▁주문하면	178
잔치	178
▁쳤	178
▁허술	178
녘	178
▁광주전남	178
▁저랑	177
▁일러스트	177
▁개정한다	177
▁비하인드	177
핸드볼	177
▁영업점	177
▁여전	177
▁보고받	177
▁시중에	177
▁임대사업자	177
▁손질	177
▁영양소	177
▁되죠	177
▁5.18	177
▁망막	177
퐁	177
▁귀환	177
▁절대평가	177
▁틈새	177
▁갖추지	177
▁글에서	177
▁부족해서	177
▁남중국해	177
▁백종원	177
▁간행물	177
▁재미있었	177
▁헤딩	177
창출	177
매각	177
여비	177
필요	177
▁이어지지	177
▁닭고기	177
bo	177
▁기지국	177
▁해외진출	177
▁복숭아	177
▁125	177
▁지급하여야	177
▁스트레칭	177
▁선택지	177
▁기관별	177
그것	177
▁대비하기	177
▁하락하고	177
▁현대건설	177
만족도	177
▁자유무역협정	177
▁전염	177
▁현판	177
▁명부	177
▁편리하고	177
▁넘어가는	177
▁드세요	177
▁현장실습	177
인원이	177
▁구속기소	177
▁넘기는	177
▁부인하고	177
▁포크	177
▁알려준	177
▁응답한	177
▁기체	177
어냈다	177
▁콜라보	177
▁경복궁	177
▁사계절	177
▁살릴	177
▁순직	177
▁최순실	177
▁무허가	177
고객님	177
독립운동	177
▁배차	177
▁밀가루	177
파티	177
승리	177
▁피아니스트	176
▁됐어	176
▁많아졌다	176
▁광주시와	176
▁사랑할	176
▁유지보수	176
고령화	176
▁시민단체들	176
▁중거리	176
▁묻지	176
▁변신한	176
정의용	176
연패를	176
▁산란	176
▁한차례	176
특별사법경찰	176
▁유가족들	176
▁전당	176
▁성악	176
▁유발할	176
▁예탁	176
▁뭐야	176
▁실사	176
▁부탁해요	176
▁하트	176
▁경제사회노동위원회	176
▁관광산업	176
현정	176
▁이렇듯	176
광희	176
▁아르바이트생	176
▁부드럽고	176
▁구축하기	176
▁포획	176
▁처리해야	176
▁웹하드	176
▁빠뜨	176
▁주관한다	176
▁거론하며	176
▁모디	176
▁방문객이	176
▁부문별	176
▁항생제	176
▁쳐다보	176
▁오래전부터	176
▁개선됐다	176
▁발전시켜	176
▁진흥에	176
▁작동하는	176
▁조치했다	176
▁줄어들었다	176
▁건강기능식품	176
▁블룸버그통신	176
▁설치비용	176
▁개발도상국	176
▁보조사업	176
▁일단락	176
▁끌려	176
▁축하공연	176
▁재료로	176
POP	176
옐	176
▁넓게	176
▁웃도는	176
직원들	176
신고서	176
▁장애인복지	176
▁온난화	176
▁수입증지	176
화장품	175
▁신호등	175
▁지배력	175
▁수질오염	175
당장	175
▁제기하고	175
▁세단	175
▁비상장	175
▁기쁘	175
상담센터	175
재영	175
발행	175
▁중단했다	175
▁보금자리	175
▁적용되지	175
▁주변지역	175
▁변수로	175
만평	175
놀이터	175
▁메우	175
코치	175
▁세계랭킹	175
▁납부기한	175
▁교통비	175
▁6,000	175
▁부피	175
했었어	175
타수	175
▁통하는	175
▁시청자들에게	175
▁상반된	175
▁심의결과	175
▁가마	175
▁드러날	175
Me	175
▁마이크로소프트	175
▁거미	175
멕시코	175
▁그러는	175
▁도왔다	175
▁엔트리	175
▁확대된	175
탐방	175
▁청사진	175
▁부주의	175
▁타인에게	175
▁동요	175
▁활용하면	175
▁당연하다	175
▁모으기	175
지속	175
▁다룰	175
공립	175
▁날이에요	175
▁용량이	175
시간여	175
▁햇살	175
os	175
공감	175
▁박지성	175
▁1950	175
▁강변	175
뷔	175
▁핀란드	175
▁이미지와	175
▁임면	175
▁반죽	175
▁의해서	175
▁달성한	175
연수원	175
▁탄생했다	175
▁포함하고	175
▁향유	175
노동자들	175
▁번갈아	175
▁조합장	175
▁지휘봉	175
▁한국경제	175
▁IPO	175
▁조개	175
시행계획	174
재개발	174
▁미흡하다	174
마지막으로	174
▁막지	174
▁기습	174
▁올바르	174
▁출발했다	174
▁정진	174
▁바빴	174
▁유지해야	174
▁흘려	174
▁효율이	174
햇	174
▁쉬지	174
▁싸워	174
▁아세요	174
이벤트	174
[...]
